BD19AC79
BE915E9E
BD2ED99D
3D5CCC8A
BCFA7653
3DB8A86D
BD49081C
BE0E9292
3DEF21F7
BDC01EEF
BDB79D0A
BAC111AE
3D66CA04
3DC2F406
BCAC386D
3CFEBD0A
3D76FD22
3D9B9B67
BA81E471
3D0C197E
BD8E30CB
3D0C825A
3DF9D990
3E720AFA
3BAF9229
BD14AB1D
BD3BF727
38BCBE62
3DA501E2
BDD7D1FE
3CDF6988
BCFC73EF
BC02FD76
BDC12275
3D85A35D
BE329281
BD9AC604
3DA47A9E
BD3AF31B
3CD1654D
3DC6FEF8
3BA5D6BF
3D402F30
BD056712
3DE77EE5
BD77AA26
BCBADE22
BCB12B1B
3E063C32
BD1F5AD9
BD83571D
BD728848

