BD899D88
3E878FEF
3E422A2C
BC0C9321
3D8A3CEA
3E37B41C
3CA2C01E
3CE6A11F
BD1B64E0
BD883904
BD539B89
3E530D30
3D549F95
BD536934
3E32FAD7
3DF064ED
3B67AB75
BE3EB28E
BE0624DD
BC182880
3E1F761D
BDF1E753
BD326AEC
BE18B4C0
3D65DF22
3D746FDF
BD6C2CE4
BC11D9B2
B913D966
BDE702A3
BDE3A190
BDC07BBB
BD8E92D5
BCC6CDAF
BD5B7BF2
3D415098
BD8958DA
3CFB8B26
BD90B06C
3DA3E4AC
BD076F2A
BD0B6630
3DA7C5AC
BDC35A42
BD6A1B5C
BE05DF65
3C267621
3CFA2489
3DBFB720
BDA75EEA
3D80420F
BE172BCB

