BD6C41DD
BDC3E426
3D99988D
BD72EDFE
3E5487FD
3E7F6CF0
3C4610F1
BC0EAC00
BE0523F6
3D95464E
BD1785F9
BE9CCC47
BD12D98C
3E0A6117
BDDBABA8
BD26E43B
3DC2B1F7
BD731A09
BD2965F5
BDA3D9A9
BCC87336
BDADEE35
3CCAC6CE
BCB3D6C7
BC1E16D7
BCA92C49
3D0E7AB7
3CAE0E30
3E08EBCC
BE1B5E96
3D4764AE
BC6AEE20
BE27310A
BD4532A5
BC2B3248
3D449881
3D0BB4D5
BD2B851F
BDB16441
3D073797
BE069AD4
BE62656B
BE46F4BF
BD334D6A
BDAB10BA
BE133ACD
3C27589F
BD8B1359
3E3306A3
3CC944ED
3E0B62C7
BD7DFF3F

