3D788DB0
3CA02B84
BDD1FA33
3C4408D9
BDD69DB6
BCA47022
3CE53A82
BD35A31A
BDCC3654
BE44C661
3CFA02FB
BE2EFAA4
3DB8E193
BE28A223
BDF05E1C
3E83FB7A
BDB307AF
3E12E2B9
3D7DEB53
BDF4C900
BE3D55A4
3D46B69E
3D404428
BDFFFA3C
BE342678
BD1B280F
3E01EA36
3CF43E96
BB2B4FA5
3DC644D8
3DD2CBEA
BE1F36F0
3E132CE9
3DD7353B
3DDD1A22
BE0D5FDD
BC2250F8
3BF240FB
BD882E02
3E7B86B1
3D54E5D6
3DF0ACC1
3E6F6D76
BE4923E6
3C9DA9CA
BB781E8A
3CB293D1
3ACBF2B2
BC84AB60
BD4B2FA9
3D3A658C
BE0FF7E0

