3C701B86
BE0800A8
BDD70CDD
BCE0DAA1
BC395E5B
BE1AFF6D
3986BDF5
3CB51DEF
3DB9BAA1
3D8D288D
3D5758E2
BE1C11E4
BD169A0B
BC831F04
BD213F4B
BE13A3A9
BCC8A15A
3E5EE84B
3D68A1E0
BD703C08
3B0C3F3E
3DB04F6E
BDF34699
3E3D16FD
BDA7B02D
3C7D9BA2
3D2E5CD5
3D96E371
3CA03819
3E4D4B6A
3C1E8816
3CE94680
3B04E832
BC5F5CF2
3D989939
BE1182ED
BB3E61D0
3BCB20FB
BC880D80
BDAEC4A4
3DC53437
BCA0E411
BD9D0071
3DFA0A52
BCE87D2C
BC361FE2
3D386F48
3D0299D9
BDD49731
3CA2D517
BDA6B69E
3DEC660A

