3DCEA52F
BC5F04DE
BDB2007E
3DB9945B
BE2579AF
BC9565C3
BD86601C
BC7DA837
3DC2DD7B
3DFB7B6C
BE5A8AC6
BE051DAC
3DBCC8DE
BD1D1915
BD94D057
BB216A48
BDA88D6D
3D104923
3B88D6D4
BE209742
BDBE68A1
3D9D3ED5
3DAFB3B7
3912CCF7
BD474320
3C852B4E
3E3E41D5
3D4475E6
BDC7B13A
3C224895
3C850DF1
BD10763A
3C088B54
3E34EB57
BE226959
3D9A7F3D
BC1424E6
3E2B14EC
BD93ED52
3D417226
3CF47F99
3DB1D606
BE2E4B88
BD1B8024
3D9171E3
BC879A28
BDDC8084
3BE27E0F
3D768F08
3DF70585
BE22EA10
BCC8BC9D

