BD1490E6
BDC69729
BD8A704C
3D07B13A
3DCBAA58
3DAD655E
3C162CFE
BDA37586
BDCF6B5D
BCABA9D2
3D76D656
3DBD102C
3D37824D
BD3CEA6C
BD89C3CE
BD2631F9
3D273F75
3D61AD64
3C5B8349
BCD247CB
BD9F59CD
BC94F052
3D63779F
3DA49774
3D18AEB8
BD519264
BD9204B0
BB08E79B
3DA24C40
3DA3AEAB
3D0D22C9
BD270197
BDC59A74
BD98DAC2
3AA1BE2B
3D6FC9BC
3DC080FA
3D57BC7F
BD44CF07
BDC3B3EA
BDAA18BD
BC1E3865
3DA78E9F
3DCA0019
3D15171E
BD553CDE
BDB4CB9F
BD469729
3C9D5E4A
3D5CF56F
3D2007DD
BBE1A3F4
BDC25D8D
BCD95DD5
3D9E4CD7
3DD6FE2E
3D08A15A
BD6BB774
BDD9FC2B
BD689225
3CE5AFF3
3DD39D1B
3D882731
BCB3508F
BD9CB35F
BD7C3B4F
3C0487BA
3D54DA4D
3D59EC70
BC77164C
BD507421
BD5A8DEB
3C285016
3D715726
3D698890
3B58EC96
BDA383AE
BDA68A0D
3D66C2AD
3DDC2F40
3D7314CB
BC8EC311
BDA6A65D
BDC79D4E
BD0AA327
3D877EE5
3DBB8349
3D72D1AF
BC777293
BD7D8F0C
BDBD4E90
BCA79789
3D64C61E
3DD59EE9
3D672B88
BC5EB52D
BDB9F55A
BD84638D
BC156C0D
3D454CDB
3D9668C2
3CA14CEC
BD3790FB
BD63864D

