AEAC
30E6
B125
AD48
AF41
B1B2
2D9E
2BE4
2C08
B343
2D98
A509
2F11
B381
B0CE
327E
AE71
2F3C
299D
B05F
AE86
2DE0
A823
B14C
A68B
A67D
3533
2DA2
B2BE
2CAF
30C7
B1C1
3070
309E
2A9E
9DFA
169C
AB35
A276
34F7
28EC
2FF7
3497
B379
A9E6
2F2F
2030
AC55
21DA
A82B
AA2B
B28B

