2CC7
B1DF
2FA8
ABB4
2131
34A1
2C1B
228B
2EF5
2CC3
B019
2E92
A36B
2F9C
A8A8
29D2
A08F
AD5E
ACC6
2AF6
A4B6
ADF3
24D9
2F73
2BD0
A16C
2E03
B17B
AA78
B4DB
2938
1594
AAC7
A84E
3205
2C03
A5B3
2E06
319A
ACEB
AD59
A6EE
25EF
8B79
AD5A
9F9F
23DF
B0C6
150B
AFE5
B033
2E16

