287C
2852
A576
253C
26B9
2E43
AD04
A8FF
31A1
30DC
AE05
2AF1
2D48
337C
B2B3
2125
2C1A
A5A0
A0CF
2E1F
17EA
A900
A738
A13B
2149
2D36
B357
AA05
25A4
AE1F
309C
AEA4
2D6E
AF49
2CBA
AB23
A886
305D
2619
29BA
2AF3
2E5A
A9A6
9E20
2C20
260A
0DF7
27E5
A137
21EC
B20F
B08D

