2635
AED0
30E4
2775
AB45
ABE3
AB12
AC50
301E
A9E1
A733
2EF6
ACD9
B0DC
2D4D
AFE0
AB29
AE58
A4FA
2062
1B0C
AF15
2524
2D62
9CAD
25D1
23B4
2A51
A7B6
A401
B164
2CE6
2FFB
2B28
AD9F
3199
26E7
2F83
AA50
AF6A
ADAB
2C40
2AD6
2FEA
2DFA
2B5E
A953
A7AE
290F
2FE6
A9F9
30FA

