A232
AFD2
AB74
2F80
ADDA
A9FA
A94A
289F
B0B4
2FDC
2D4B
B0E8
A425
308F
A435
B0F7
A999
2F46
24FE
ADB3
AC69
A2CC
AD16
30F3
AC3C
ACD8
2E5B
B3EA
0FD1
2DBA
A870
AA49
2DC0
9EF8
AB3F
2722
A89C
AE2E
30D2
1FFB
2217
2DFE
A4FD
31BE
A4B1
2AD8
AB2C
2149
1EF9
2B94
3188
A364

