A814
AD6B
AE1E
24A1
AC8B
B130
A69D
2982
3192
2D42
AC54
A8F3
2BB3
AED9
2AC8
3223
AA65
3001
9FCB
AD4D
ACE8
263A
AC20
2D0D
B05C
A281
2942
2B48
B192
329B
240A
B002
2D86
2BD6
B081
AFEF
A52F
30C7
B091
2CB2
2820
2CFD
B0C0
B048
2695
2964
A3F9
A734
A79B
2918
B24E
AE62

