2B29
B0DE
A995
2D01
AEF4
3304
AA63
B18E
A998
ACFA
2C28
2E17
3012
2E22
AA4B
27CB
AAAD
A660
9F08
231B
2C3E
A6E2
337B
3151
A9A6
AC2C
B215
3027
2AB2
B005
29B1
AA49
2ED8
AED6
AAF8
2839
A8C8
26F5
AE9D
2E23
2C2B
2DA8
9833
A826
1D04
A597
AD17
8B4F
2C7F
30A6
2827
ADAD

