A080
2E79
A9B0
2A9B
A8E0
2A59
2DF8
A850
AB49
ACA1
ACCC
B450
2C6D
A387
B2FF
3034
AC45
2B06
A76C
B040
A8F7
29F8
27A5
A63D
A3E7
2807
32D5
2B00
AEFA
B181
3326
AD55
AC69
30DE
2615
2D35
28EC
2241
AB08
2D13
A56B
2962
2986
B1BC
AD03
AC01
2BC0
2B09
9F9E
B171
298B
AE14

