A07E
AEC5
2D95
A41A
31BA
31BD
2EF4
283C
AE8F
3432
28C8
A283
AC48
2FCD
2DC1
AC04
1D30
B191
27D8
2C05
27CE
AB94
A185
2DBB
2D38
AB6A
2D8B
2C42
2C8B
B208
A8CF
282F
B02A
AF79
AB4B
28F2
1E8D
28DA
1FB4
ABC0
AB4C
AF90
B426
30AF
0C5C
AF03
2D01
A472
3048
18A9
2B13
2D35

