AE85
AF6E
A8F4
A96A
B439
B12C
AC5B
AB16
2DCD
AFAE
2AEF
3671
ADCA
AE5E
3024
ADA3
21B4
24F2
1DAE
1616
2503
2BC4
2F1E
1957
B074
AC52
AE07
A9E8
2034
3232
B296
2858
334F
2B00
9BA4
B13A
A9D3
AEE8
2BB6
B122
1FA2
3337
3109
2C3C
2BBD
2CCF
1E08
AB11
AF3F
2814
B0BE
2DCF

