AC05
AE55
AB87
AD68
101F
A675
2AF4
A1BF
315F
2837
2F06
1E34
AA52
242F
B08D
2A26
25CA
2C25
A2DE
20EA
A97B
AB7B
2679
2D3F
AB59
A9EE
30E9
31E3
2F13
2E1C
303D
2CAA
A2C3
A83A
27CB
B13A
25C8
A994
AF0D
90FF
2126
AA53
AC0F
2E15
A888
2F1D
30F9
A9B3
AA16
AD06
AE25
2B65

