2CB0
A745
27D5
30D9
AD12
B089
AE06
23F3
B12C
ADB9
B0F3
B30D
2957
A5E9
2A19
27D0
9636
A7AF
99F5
A0AC
ACD6
27CB
AFB5
1F8C
AAE9
2C5C
ACCD
B115
AC50
2EF9
AC0B
AEDA
AC5D
AABF
A8CF
323C
9A4A
2D95
2E31
26C8
2C34
2793
2E9A
265C
2F3F
AE0B
AF93
2D2D
AA30
2DD7
2F88
AD65

