2B53
24A8
2936
AC7A
A300
313D
29A2
B054
A91B
2BFF
AB05
2D74
AD2C
3224
AE18
2A5E
2CDD
A44F
2279
28F5
9B0E
A8C9
31D1
A872
AA35
249C
A6C6
29E7
3056
B192
3252
2C80
AC3F
AEE9
2ACB
B233
ACA4
2EA9
B092
AA19
2A76
8592
AD8B
8D47
260C
2B3C
2E13
1964
ACBA
AA85
2122
2C10

