A7F1
B30A
1EFF
AC53
2AEC
277C
9C17
29D6
2CCE
B11A
A473
2EC3
2CC7
2FFC
234B
20B8
2D96
2BE3
2B86
9C58
2EB1
2A92
20DF
30F1
AB5F
2821
AE87
A439
2FE7
2AD5
A401
2498
A0E4
ACBD
2C98
AF17
A56B
2CB0
20D1
2A87
1B5B
AAE4
3387
2546
2952
B063
2CED
ADF9
2ED5
1B12
AE47
9EBE

