2473
AE21
18C8
9F3B
2BF9
21BB
AE3C
2DCB
2C7F
3212
AF6A
2888
B0A7
1CB9
330E
B06E
2B77
A582
AC52
282F
2E04
A850
A37D
2CCB
A05A
1EF5
AD74
2518
A475
ACA4
B214
31A9
296C
A845
AD7F
2D70
A82C
2B3E
18ED
B0B2
A566
A070
B172
2AA5
A361
2719
A84F
A8CF
99CD
315E
A803
307B

