A8CD
B48B
A977
2AE6
A7D4
2DC5
AA48
B075
2F79
AE01
ADBD
9609
2B36
2E18
A562
27F6
2BB8
2CDD
940F
2861
AC72
2864
2FCF
3390
1D7D
A8A5
A9E0
05E6
2D28
AEBF
26FB
A7E4
A018
AE09
2C2D
B195
ACD6
2D24
A9D8
268B
2E38
1D2F
2A01
A82B
2F3C
ABBD
A5D7
A589
3032
A8FB
AC1B
AB94

