272F
2EB9
284D
2569
2DA7
A902
A9A0
2B4B
B01C
AF0C
2F3D
AA53
2670
2EF5
AFB0
2A4C
2B46
AC81
2472
1CC2
28B6
263F
9F2D
AC4B
2583
A008
B20B
1BB7
3446
A431
2E56
2345
A4AA
B11C
312F
ADA1
2A29
A70E
2CB4
26AD
2C69
AEA9
315F
25F3
29FA
17C6
2E5A
2C0A
ABFB
AFEE
2DD2
1E62

