AABD
3093
2941
AE88
2F98
3023
2FD9
2CFE
240B
219A
A89E
2DD8
A05E
A54D
9681
B070
A651
ADF2
A803
A279
24CC
ACE4
AFFF
AF28
2927
291E
30CC
B0D7
1B37
ABFA
26CA
27B9
AC4E
A683
3117
2E89
A4F5
2501
30C4
259F
AD24
A65F
B1AB
2DAB
AD90
2A6C
3046
24EF
277B
ADBF
ADF5
24BE

