AC6E
B0AA
AC70
A9CA
A4A9
AF58
2824
2882
31B9
AA01
3039
2B2D
AD9C
AC42
AC63
B26C
2D17
9E66
2534
AB42
268A
A013
1D5A
306F
1BE4
1C8B
2F8B
2776
AE73
2DE4
2F0B
A30E
A598
246F
25A2
AA55
2BEE
B011
ADBF
AF62
2A14
2592
209C
3025
AAD6
09F7
2EEB
AD18
A92E
ACA3
B209
2C60

