25E8
AE5A
2EE6
252E
B032
310A
29CA
A8C0
A64F
AB50
9DC2
1DFC
2B74
2C54
3289
B131
A753
1E99
268F
2E9E
A64D
A91A
ADA4
2866
2CF3
AA37
264F
B493
A781
AE03
AFA2
AA8A
2DC4
27DC
AAD8
30CE
2874
233B
336F
2CB8
2B69
3006
9D95
3140
ABC4
A78C
B17A
2344
2BDB
9C2A
2CBD
210C

