A966
2F2F
AD49
ACA2
2CE6
B562
AAFC
A164
AF0E
ACCE
310B
28E1
2E69
AC31
A8BE
ADDD
2B9F
22C5
277D
A313
2714
270E
8F6C
B02F
AE1B
A480
AC62
30E2
2E61
348C
192A
A4C8
2022
A4A8
19B5
B34F
A774
ADE9
AC9D
203E
2A7A
AED0
2CF0
3098
2E2D
A759
2FD2
9D5D
9884
2DA0
3059
AC63

