AB62
AE1F
2CCD
AB97
32A4
33FB
2231
A075
B029
2CAA
A8BC
B4E6
A897
3053
AEDD
A937
2E16
AB99
A94B
AD1F
A644
AD6F
2656
A59F
A0F1
A549
2874
2570
3047
B0DB
2A3B
A357
B13A
AA2A
A15A
2A25
285E
A95C
AD8B
283A
B035
B313
B238
A99A
AD59
B09A
213B
AC59
3198
264A
305B
ABF0

