2400
AF91
B2EC
2D9A
2E9E
B41D
B0B1
2C79
2313
2330
A91F
B40D
AC70
2E1C
B18A
AD78
28B7
2FD1
AC3F
ACD0
20BD
30AD
A508
308C
2707
2803
B3B4
2AE3
2FCB
2FA1
3384
2FC8
24DF
B035
AABC
310F
A841
A999
AF4E
B0CA
2900
AB2D
ABE6
2A8F
3050
2E67
B092
AA35
AD6E
2E80
A8C1
2DA7

