1816
19F7
1103
825C
9838
18C3
1B19
1A38
9A5C
9CAF
9A04
0EFF
1ACC
1ECC
122B
99BB
99D6
999D
17E5
19CB
94E2
9114
904F
0496
08E2
198E
8FF2
0E3A
8981
8D08
9A28
979C
9A4B
0B03
1AD5
1703
93D3
9964
9431
18ED
19DA
1210
93EA
9CE8
9511
0A64
198A
038A
95DA
914D
1989
1B9B
1D02
99F5
9A81
1357
15CF
1850
810C
98E8
9CAA
98AE
1B67
17F0
17BE
97F3
9A1F
996A
15AE
198D
971B
9134
99B9
9729
1422
19B7
1125
9010
9351
13CA
8CCD
9678
9AB5
166A
1A05
1B5C
9420
93B5
9920
8D2D
193D
14F9
90C5
0FFB
91A3
1062
191D
1643
9618
968B
9707
8C7D
1C13
164F

