B0D2
AD72
A786
1EEC
24FF
2844
2B64
2E5C
2D4B
2486
AB46
ADCF
ADCC
AA9B
A40D
26E9
2B7A
2CC5
2D4F
2AAD
200D
A97B
ACEE
ADD2
AD12
A955
2BA2
2D6A
2E03
2B57
1EA3
A930
AC4F
AC72
A996
A84D
1910
29B0
2CA9
2DF6
2C8D
1EF0
AAC4
AD90
ABBF
A9F1
A601
A43E
969D
29C1
3022
30F1
1FFE
2C39
2D2A
2BAE
2A09
2A97
2931
A25C
AC61
AE22
AD97
A71B
2572
2C97
2C89
2CAC
29C6
2854
A4A6
AC89
ADDA
AD99
AB33
930E
2A96
2DBC
2C2D
224D
A89F
ACF6
ADCA
AD0F
A76B
2055
2AA7
2C27
2CBF
2C04
26E3
A371
AD08
AF19
AD26
A568
27B8
2972
26AA
2908
2C37
2E4B
2A3A
A996

