14BF
9AE1
9DE3
9C16
9943
17EA
1B56
1BC9
1908
140F
8FF2
95BF
9918
92E2
8957
1110
8E29
1290
15A4
1693
1914
14DA
1138
9414
9A93
944B
93C4
139A
12BA
1699
11F5
1589
93E1
8F42
8DBC
8EE2
9848
994A
9581
10E4
1894
1A83
1B76
145C
9010
9985
99D6
9BE3
9962
85B4
1AC0
1C91
9D38
9EED
98D0
1B41
1C70
1B7C
19CB
113A
9922
9AA7
9888
9C03
84C9
12AB
1625
192E
14C1
0F3E
83BC
8779
9708
967D
99B3
9656
95C9
0C64
1719
1945
15DD
8A6C
9838
81C5
9407
8BB3
9916
8D3A
91D1
8947
19BB
187A
18FB
1AF3
8CEE
99B9
9A2A
9B1A
97CB
133E
181F
196E
1D93
1B73

