A665
ABBB
ADCD
AD6A
A85F
29BD
2F2A
305A
2E47
A76E
B046
B15F
AF3B
2719
2F27
3095
2F03
2A10
A958
B074
B029
AD9E
1956
2E8A
302E
2EC4
AA6C
ACE5
AA84
18E6
A408
A50B
A4AE
244A
2DD2
2FB8
2B9E
AA5C
B06B
B0A1
AAAB
2C5B
3051
2EC3
28A2
ABB7
AD17
AD1B
A857
102B
2ACB
2B24
AC2C
A8F4
A4B5
29B2
2E48
2F83
2CAE
A84B
B009
B111
AE1E
279B
3043
30F0
2EF2
264C
ADBC
B06E
B047
AC67
2908
2FA1
305A
2E26
2813
AC77
AC7E
A759
26C5
2768
1591
252D
2C4B
2C65
2BB4
A81F
B006
B0E2
AAEB
2C65
30A2
3025
29B1
AD71
AF61
AED9
A94D
29FA
2BA0
2C15
2C40
2995

