A7F1
2748
1B9C
29B7
9456
9D74
A1C0
9C92
1C14
A16C
1704
24C1
A54F
2920
0810
A6E6
9D18
1FD8
2260
986E
2497
A5BD
1E9A
9A0F
A369
A191
26F4
26BA
A1BB
A64E
9DBA
1EB9
A44A
A77F
22C2
22D8
2702
2586
A47A
19A7
A5FE
2116
2431
173C
A473
1DE4
28A4
A526
9C99
2510
1BEB
A5A6
28EF
A2B8
A43A
2502
9E58
20D9
A079
9876
9C8B
A561
1B25
A1A7
1BBB
A3FE
A54D
253F
A158
28EE
A6EF
1EFE
246C
9ABE
1C65
A21C
A229
A916
A61E
22D5
1CFA
209E
2203
24B9
28A7
2050
1C70
1F1F
9ED6
2819
2201
A85F
A8B8
2966
2503
1BE6
A745
1F03
234A
A5F7
A277
A45E
1E36
25EE

