2AFD
30B8
307F
2CD6
A8C3
AD79
AE28
A660
1D10
9F23
9E77
2806
2B74
2E46
2638
A9D2
AEF5
AE2E
2024
2CF2
2ECA
28AA
A9E0
A9F5
A522
2581
A32D
A969
8075
2C34
2BEE
24D1
ABBB
ADDF
AA31
2990
2EF2
2BCE
A48C
ACE1
A886
29C6
2DA9
2302
AC79
B073
AC61
2D41
31A1
31FB
299C
B000
3215
2DE6
A887
B08F
AF30
AA5E
28BF
2A25
27D5
2673
29A9
2ADD
259C
A7BE
AEF3
ADD9
A46B
2D65
2E6A
2C25
A788
AE35
AC0C
A086
2991
2918
A710
140D
29E8
28C5
A80D
AD19
ABF4
21AB
2E25
2D34
24CD
AD97
ADBB
A55B
2A14
2BB3
A3D2
AE5C
ADD0
27EB
3045
30D2
2A1D
AE51
B2E1
B197

