BE83ED96
3C337C9A
BEDAA9B5
BF2CBD12
BB47E282
BEB5BBE0
BC906AB1
3D376D55
BC3BF940
BC2E5BC8
3D843A21
3F50244F
3C8EE8D1
3F0C6057
3BDD6170
BD5BF37C
BCD6323C
BEF711B6
BDF04AB6
BE848A9C
BEA458EF
BEDBF962
BD3A6BD7
BC31AB08
BE616B55
BD91B3F2
3DE8DE2B
BC0387DF
BE98446B
3E9C48AE
BBD9D777
BCA75686
BB1E01DE
BEA3B0C4
BD03DDDB
3EE9971C
BE560B2D
BD83EB7D
3BF7EC35
3CD6605F
BE8270B0
3BC01605
3C319A41
3D64430B
BE3137B0
3D023422
BF2AFD00
BEDA44C8
BD027B70
3D1148FE
3C369DB6
BCBD2956

