BAF23897
BD82B94E
BBEAA6D2
3C98AEB8
3D937543
BDC5FFA4
BAAE74F3
BB2A21A7
BB156C0D
BDF105E2
3E426C7F
BE0817B9
BD16BA8C
BDEF13CF
3E8528D0
3DE41C3F
BC967A96
BDE15F46
BD8CA70D
3D577D95
3CB13166
3D0A6117
BDB74EEC
3E2DA1EC
3AA71DE7
3C380ED0
BD45C9A3
3DA9528F
BD99B563
BCC4B09F
BE2A0CAE
3DC86A4D
BDA245F6
3A1BF9C6
3E0F4A56
3E4BDA0E
3C615012
BDF59CD0
3CBC2FC7
BDACE810
BCDF1173
3C2EDDCE
3DBC347F
BDC3ED96
BD26362A
3D0D099E
3C3DDB98
3D246BF0
BC91BE6E
BE038F36
3DFBE4CD
3E1B51BD

