3CBD017E
BDCB3FEA
3DDCBFF4
3CA5B318
BE0637BD
3E213E3E
3D394962
BD1801B4
BCC9E450
BD6A0989
BBB8305E
3BBF76A3
3D6E75FF
3D8A82A5
3E5113C7
BE262C77
BCEA619E
3BD31FCD
3CD1D68C
3DD3C1CE
BCC9A997
BD234B94
BDB48777
3D0CCAB4
3D9E6363
BD46D71F
3CC9E450
BE925A47
BCF02C4D
BDC069E8
BDF446FA
BD5142B3
3DB87C63
3CFB890D
BD5B0CCC
3E19B7BF
3D0E7147
3C67685A
3E6DE269
3D970DE9
3D6D1D04
3E00BC38
BBB29E4D
3E2800EB
BD788766
BCF18223
BE2F4880
3C6874C9
3D7B55AC
BB853C15
3D97A0B6
3C2187A5

