BD8E84AD
3C830A0B
BB96C3FC
BD1F4F51
BC930BE1
3DCD4AA1
3CEDDF01
BDD46CB9
3CECAAB9
3D36D00B
3C7A54C5
3D9BCD36
BD995B36
3D9F9724
BDDDEACD
BCD02689
3D89C4DB
3C9AED57
BD220DDC
3D4C1765
BD2CD078
BD88BDA9
3E095F67
BD23A3A9
BD339F34
BC7B3312
3C978705
3D8DDACF
3DC1CBCD
BD733FC8
3E16DCA0
3DE10ADD
BD88F8E8
BDAD972D
3D22D83C
BDE985F0
BDBDDA8C
3BE75FF6
BE3CB8E1
BD1ADD9C
3D48301A
BDC6F04A
BD52007E
BD597E56
BD916B12
3D3DAE82
3A9DCF89
BCDF4A12
BD776923
BDAB67C3
BCD8D152
3DC71A3B

