BD594079
BE739581
3D7EE808
3DCD6777
BD36D86F
BD281238
3DD038E3
3DCA11ED
3B8711D8
BB7D199C
3DFD694D
3B24C1EC
3D5A48B6
BDAB4E98
3D3CB3E5
3E37164C
BBE4FB98
BB9185CF
BD41B003
3D2F78FF
3D814AD3
BC74C6E7
BD40229A
3E37A312
3E009A24
BA8CE704
BDE42E99
BBF4BE83
BD03211D
3DA011D3
BE35EFE9
3DE62AA2
3B9973DA
3D1F85D7
3D4A04D1
3E25753A
BCB58299
BDBEE6FB
BDE5CF68
BD9E8577
BCA40D91
3D81847F
BD501F32
BE5E3583
3D1594F2
BC208399
BDC3D0C0
3DD4E11E
BDD446FA
BDB1A869
BD44A409
3D910E45

