3AD1B717
3C632E38
3C040182
3B70739B
BC042742
BC3E5D9E
BC68B3B3
BC216A48
3B029CFE
3C1FA97E
3C346349
3C0637BD
3A191794
BBAD794A
BBEBE597
BB03558A
BAA43BB4
BB5B6A1F
BBCB966C
3B4EB357
BB014D72
B9B99913
3ABD6627
BAE75793
3A749492
3A99E0E7
BB68B7E5
BB9B413A
BA9EDBF9
3AB4BF90
3BB75EA6
3C5E69AD
3B455433
3AF96E16
BBA41A26
BBCB966C
BBFFC979
BBC97D8D
BA8E9B39
3AADCD2D
3C2BF76A
3C7151E7
3BE34763
BB103EA7
BC68FB01
BC48E25D
BAFDE2EF
3BB87379
3C31465F
3C2E31D7
BB6F2410
BB6820E6
3BF9B131
3B8BB0A3
BB097E99
BC68A2EC
BC45197A
BC13B7D8
3BE88DF3
3C399D45
3C26CE36
3BBCB5FE
BB3D449A
BC3EDB73
BBC41DD2
BBDEA034
BA71F57B
3948472C
3A24A05E
3B25375D
BB3EF8CF
3B5B5958
3BA497FA
BB5338F8
3B497529
3AB75EA6
BB648627
B9B02928
375A1A93
3B749492
3B9C4DA9
3C49E668
3A852B4E
B98E9B39
BB8D434A
BC2BE6A3
BC2A8651
395801B4
BB1B1FAC
3B5FCE31
3C0D1D8A
3BEDEDAF
3BD2A1F9
B8E8C8AC
BC2C929B
BC7C2225
BBE4430B
3B70739B
3C6C460F
3C464778
BAC38F36
BBAC215C
BC34B2FB
BBFECDD1

