BC712C28
BC0D8EC9
3B6ED02D
3BBBB1F2
3C0A697B
3B903EA7
B965A35D
B9F1B25F
BAA0F4D8
392BF76A
B92BF76A
BB4CBC06
3B270D20
B9F9096C
3B81DC0E
3AF0A5F0
3AAB0C89
BAE47560
39EF1349
BB0387DF
BBD5C747
BB98BB4D
B98E9B39
3B80E065
3B2E2110
B8DC3372
3AF648C7
3B055DA2
BB1CA18C
BC00F990
BB551F82
B84521DE
BAC7C0F4
3B2F8162
BAB0079A
3B10C4DF
BA8C1DB0
3AB8066C
BAA009F6
B9302928
3BD84D34
3AC564F9
3B7C610F
BB480410
BBBA94BC
BB5D82FD
BA36B6E1
BAC9FB61
B8D3CFF6
37D1B717
BA602214
3A0B75EA
3BA350D3
3C1578A3
3C656473
3BBB341E
BB903644
BABEF8CF
BBA6A876
B9D4DC66
3AEE49F5
39F7FCFC
3A070111
BB27F801
3B01908E
3B401605
3C2E46D0
B95801B4
BB9CF56F
BB1528F2
BBDF04DE
3A9B3073
3AAEFB2B
3B04406C
3B463F14
3B12AB69
BADA3C21
BB0EBCC7
BAEE06D9
B87BA882
BB918E32
BB129AA2
39D66F0D
3B9D27C4
3A067AD9
3ABB2BBB
392E1049
3B60A84C
BB95A6C6
3A06BDF5
3AFFB8B2
BAA84BE4
3B9246BF
3B112989
BBA63B69
BB372C52
BB985F07
3B2E2110
3A01C2E3
BA8ACE25
3ABDEC5F
3B779852
BB8D4BAD
BB480410

