AD2F
B00C
2C05
99F3
2E29
A422
A0BB
2889
994A
3479
9F91
2B48
AC31
303C
321D
AC97
A9C1
AE25
25A6
2481
2B5A
1B4D
AD88
317D
292E
1916
2CC1
2C68
29AC
AE2A
B184
9609
AD17
A0A6
AE59
AF9C
2649
2E0E
A794
2855
AD0A
AEBB
B1DE
306D
A4F5
AE13
AA38
2010
2F11
2864
2208
9A98

