2794
AE3B
B06E
A356
244B
B2CC
AF83
AC01
B1D8
AEE6
292A
AE2B
AC9F
B1F8
2871
2462
2A10
2DC2
A1FC
ACDA
AC01
2B63
2B9A
1EE5
AE37
25A7
12C0
3248
A978
329D
AC68
203C
A8CE
29D3
AD2F
AE68
A85A
25FD
B387
2B56
2F07
2B3E
318B
247F
A847
2C33
2C3C
2FF2
A8C4
3066
3197
ACB5

