24CB
3013
2C60
3115
AEB0
3134
A508
AD37
B371
3159
A892
24BE
A9C4
273A
AA71
2E05
208C
2653
AA8E
B09D
AC8E
ACA1
2EAF
A8D5
AC08
1ED1
2EEB
AC79
ACC5
ADED
26D4
2C9A
3050
2C53
AA91
A814
2B7C
2528
2CF9
B0A7
2756
2CE2
AF94
AAC6
A988
2D38
ADF8
1463
AFBE
2E81
2DDC
2CFC

