2979
ACCB
AA09
A67A
2E1D
B0D7
A2DD
2C71
B17A
307B
2D47
2B9F
2765
A3CA
24A3
2A45
2F31
2D56
2C11
2C9C
A172
A547
AE7C
A88A
26A0
AC07
AB52
AF67
2C4E
31F5
A6EE
A564
AD4B
ADF6
2D2F
B14B
AF4E
B0AE
25C5
A156
22B3
B002
AEA8
ADA7
2ADF
2692
245D
2D98
A710
9F48
30C2
25D2

