A7CC
2E32
2234
29BE
AB40
AD1F
B08C
2AE0
B1AE
29C4
3291
AB7B
26B1
AFE2
279E
AC00
AB13
A8EB
1B0D
1F57
1826
A849
28EB
B26A
28B3
A9BD
B035
2D0F
AF07
2D7C
A344
2C76
A467
AB4D
B228
2FA7
9F1E
AEE4
AFA3
2CB9
ABCC
2A3E
AE3A
26FF
2E04
2EBA
B029
9D1D
B04C
31CC
32D7
A473

