A077
3297
342A
B148
2AE5
2EA2
308A
22A2
A51B
ACE2
A52D
332B
2730
B21D
304C
2E69
A641
B2DF
ABA1
A40E
A8DD
AE79
2728
B2AB
27F4
AABB
2F1E
316F
AFBB
B032
AEDF
ABDC
A9F6
93C2
2F3A
3108
2A2A
A9DE
B100
2ADB
A5D2
AA96
2F88
AD22
AC52
B033
2FD0
AF04
2A0B
AFEA
AD0E
AD02

