AACA
B39D
2BF7
2E6B
A9B7
A941
2E82
2E51
1C39
9BE9
2FEB
1926
2AD2
AD5A
29E6
31B9
9F28
9C8C
AA0E
297C
2C0A
A3A6
AA01
31BD
3005
9467
AF21
9FA6
A819
2D01
B1AF
2F31
1CCC
28FC
2A50
312C
A5AC
ADF7
AF2E
ACF4
A520
2C0C
AA81
B2F2
28AD
A104
AE1F
2EA7
AEA2
AD8D
AA25
2C88

