AEF0
2BB3
AC23
23D5
2DAC
B1C4
A1B8
2E5C
A988
2DF5
B03C
AB97
A9FC
B096
267A
2F65
2474
315B
2CB3
ADF7
AB69
A4F9
B0F9
AF13
AC15
A501
2FE6
B133
AD8E
31E8
2851
2BAC
AA0A
30CD
AF1E
AE87
27E9
306B
3226
A81B
2151
A002
AE8E
AE17
A6DD
2C58
A1D6
A5EF
AF1F
2BE2
2505
30FC

