A98A
297B
ADB5
A80C
B49B
B302
A103
1C92
2D9E
B57B
26E5
3291
286C
B0D0
A640
2F14
ABC7
28BE
285A
B19E
282F
29C7
2C17
AEC6
ADED
1E70
2891
946A
B18D
31B4
2F30
9626
2FC0
33B3
A58E
A88F
AAA1
94EC
26DA
2D2A
2C96
300B
306D
B0E0
2A5B
2BD3
2EDD
2603
AB30
2BB9
ABF7
AEF0

