AE65
AD50
AE85
B0E6
29B1
AEFD
289F
28E1
3057
AD56
2DF1
2988
AE5F
AD99
AE40
ACD1
2C5F
3151
2D29
A820
AC6C
2B47
AB64
2CA7
AC62
ACC1
27F8
2D8A
2306
323E
2CC0
2D43
AFDC
AA59
A502
B04E
282D
B09C
B1D2
AF35
294A
B14F
2830
2D44
9CCD
A874
30BE
269B
A53F
AC12
B0EC
2AE8

