A492
B033
2AB4
A271
9FAA
AA4A
2032
28B0
2EDB
314F
A8C0
2D9B
AE6F
B135
2EAE
A7F3
A0DE
B01F
AC93
209E
2C08
103E
A58D
2704
06D1
0EEE
26A8
280B
B16C
22F9
AE20
2F4C
AA02
2F65
1D71
2F3F
9659
29A2
A7F4
AF98
97B0
2521
B0D5
A6FF
A4DC
AB51
9EFF
A4A3
2957
2C8D
B09F
28D4

