26B4
AE00
AC79
A33E
AB0C
AFD5
2990
2F7A
ADCF
AC02
2FC8
B267
25BE
ABDC
29C4
B0A3
A9EF
3064
A75B
AB6A
AABD
2426
B079
2F79
A538
AA88
308D
B33A
AB39
2DA4
A8BC
A531
2A0F
2468
A8E4
27B3
20C3
A935
3035
2A51
A74A
2E8D
8B89
3012
A63B
303A
AA19
2C07
AB8E
A25B
2296
AE66

