2CD2
2EED
2874
ACF2
ACFB
2DA5
9F94
AEE9
AB72
B1FF
2CDE
9667
2B9E
30D6
B415
AA1A
245B
AD55
A934
2E58
2919
A7D2
2DB1
B059
296D
AA0F
B2A2
A84B
29B0
AC01
32C4
2C81
9E1F
AD46
2F9A
2694
235A
A7B9
9924
AD44
A469
2DDC
309B
28BE
2E38
2D6D
17DD
AB08
A449
B0B9
2D70
A9FA

