ABF1
B04B
B0BE
2E8A
AE89
A5E1
980E
AD9C
AE53
A91F
ADAF
B2A4
A1C4
2D51
2D63
3115
9D52
2C07
29DA
AF2B
ACDC
29C2
30C5
3149
AB1B
AC6B
32C2
3166
288F
A303
A67E
2488
2CB8
27E6
AC45
B235
278F
3022
B00E
AE05
2CAD
2F48
2D69
AD95
2DA3
AF1F
AF35
2395
2638
2B31
2C32
2B19

