AC22
2C2A
B0B6
2D12
2D60
B4F2
AC7E
31CD
203A
2C64
AEBC
A732
AC53
AEC4
1E38
2C71
1A6D
2C33
2814
9D10
ACB4
29F9
AE7E
203C
B098
2B65
29C7
B417
AD67
309D
2902
2C33
A7AD
2A4A
AB07
AC75
8FF6
3088
30AD
AA40
2CC9
ACD4
2E43
AEE2
29A1
2600
9F18
2141
9CC0
1FD4
2679
2A91

