2CCA
2F2A
A994
3152
A594
A871
B05C
2AFB
B35B
AD54
B0C3
B01C
A7BB
2CAF
2901
2CD0
AA7F
2CDC
286E
2548
AD7A
247D
2862
AE93
ACEB
2AD3
B310
B1A6
2817
303D
AE03
2AEB
253E
AB91
B01E
AA66
2ABC
321F
2A8B
A0E1
2A01
A56D
A625
AF63
2A28
24EF
AF0C
2AAA
28D0
2DA0
305E
A032

