AC69
2AEC
2559
A8D8
2FAB
3216
2405
A75C
AF84
ACE3
A1E3
25CA
1D87
2F76
AD7F
B40E
2D9D
AF0D
207D
19EB
2E17
AF90
2839
B0BB
30A6
2AB5
2CFF
A64D
2A23
B312
2C24
2692
8E4F
A49D
A943
2970
2881
2E67
2969
A3D3
AF09
8F9E
2FC3
345F
ACCF
23E5
2B0B
277D
29E5
9AAA
2F11
27D6

