1431
B0AF
AFC5
9E11
AB20
B06D
A4AA
2AF3
2D11
318E
AC4A
24DB
2C27
AEEA
30A7
2DD2
AFF3
2D8E
2D32
ACAC
A6A3
A47A
A94D
2E48
A3C9
A9D3
32DE
2813
AE44
30E4
B22C
1325
29A6
3145
AE75
AFEC
2CD1
2F72
AC1C
2D8B
2935
2EF6
B0F2
AF87
A6BE
21E8
A502
20E2
2946
3035
B02C
AC8D

