2914
2AAD
2DF8
24C0
AF5D
30AA
2E01
AF3C
2CDA
B0CD
AB8C
ADD8
1B4E
AC9B
B163
B05B
A941
AD48
ABB5
24C5
27CF
194D
2CF9
AD1E
2C49
28BC
ACAC
AB48
AB1E
B0A1
2F49
2154
2BED
A7AE
2A96
336F
A6F1
2B05
AA55
A1CE
A888
3228
3292
30D6
A47A
A6CB
ACB5
A2A6
A86C
A76E
A47E
2598

