AB2C
3374
28A0
29C2
2BB8
AF35
AF17
261D
9685
2396
AC5D
3160
2EE9
A858
B168
B2FD
28EF
2FAB
AA1B
2C3E
280C
296D
A4ED
B27D
AAC6
A946
ADED
A97A
25FB
2B01
3278
A9CA
2DD8
A47C
AC52
B190
AA97
2776
2C18
A93E
286F
AC1F
B00D
328D
2B07
2B44
2983
2AEF
ACBF
30AA
AAC8
ABAD

