AC74
2418
9CB6
A8FA
A498
2E6A
276F
AEA3
2765
29B7
23D3
2CDE
ACCB
2CFD
AEEF
A681
2C4E
24D7
A910
2A61
A967
AC46
304B
A91D
A99D
A3DA
24BC
2C6F
2E0E
AB9A
30B7
2F08
AC48
AD6D
2917
AF4C
ADEF
1F3B
B1E6
A8D7
2A42
AE38
AA90
AACC
AC8B
29ED
14EE
A6FA
ABBB
AD5B
A6C7
2E39

