28AE
AF1F
2A0B
322D
ACF2
2B41
2AD9
2573
2A02
2915
1E45
2829
A11A
A1C7
2B24
3438
AE46
AB41
AD16
AC8D
AA4F
24CD
1E62
2C57
2EC6
26F9
A48C
166A
A6E9
A5C8
ABCA
24E6
2D73
2967
2AB1
2C0D
2DCB
A998
A464
ACB9
A83D
2E4C
9645
B36B
2606
A57E
AEA9
A279
2AD3
1F0F
AC17
A58D

