2381
B040
AEB8
A707
A1CB
B0D8
0C36
25A9
2DCE
2C69
2ABB
B0E1
A8B5
A419
A90A
B09D
A645
32F7
2B45
AB82
1862
2D82
AF9A
31E9
AD3E
23ED
2973
2CB7
2502
326A
20F4
274A
1827
A2FB
2CC5
B08C
99F3
1E59
A440
AD76
2E2A
A507
ACE8
2FD0
A744
A1B1
29C3
2815
AEA5
2517
AD36
2F63

