29A6
21F7
202A
3009
AF98
2F21
AD5E
981B
2C15
2356
AD8D
AB10
A994
A77D
2D77
A66B
A91D
1D93
AA53
2AB9
240C
AF3E
2940
299C
2C03
AD19
2818
2BBB
ADC2
1EAE
AD43
2FFE
2C67
2CE5
B294
3140
2DAD
288C
B057
A760
24A2
30D3
2ABA
316C
A381
20DC
2449
275B
20A7
32D6
A839
2ECB

