25ED
23FC
2F80
2930
B16E
318A
AB30
B11A
ACC5
3056
2D18
A99A
AB52
287C
2871
A14A
A52C
AC8B
2897
222E
A8E1
AAC0
30B2
20FB
2947
A622
2E8F
3209
A0C1
B377
2E5D
2525
2BB5
A9D1
AB28
21AE
2B8B
B0CF
B1C7
2C2E
A9C5
3010
AE0E
AD39
A84B
A931
AB36
A5D5
8E85
A376
2DA8
A5D1

