9C79
9BF5
9B1D
9C99
18C2
1C0E
1D13
1D77
92E8
9B5B
9B87
9C2A
9A84
145F
890C
0C29
1D43
1A29
18FB
8496
99AF
97AE
9960
96D7
12A3
16E4
1E2A
1919
97AF
9F6B
9F96
8D0C
1CD6
2001
1983
9F7E
9F8D
9DF8
1CAB
216A
201F
1825
9E69
9E78
96B6
1A4D
18B2
966A
9BD5
98CD
1D05
2013
9805
14CF
1A68
19BD
1D34
1DEE
94F4
9BFB
9CD7
9DD5
8219
1AF7
18D3
182B
1D25
1659
1549
0A3A
9D3D
99FC
959F
90FB
1964
1374
1C3C
1C14
8EA7
9FE4
9F77
96E5
19D8
2058
1F17
9C7A
9D1F
9F91
1283
20A1
20BB
1CA3
9DA7
A16C
9E06
8D6C
1C3A
1853
95DD
99C0
1823
1DBF
1DD5
0D71

