2DD1
2CD9
2966
AB4B
B07C
AF79
AD1B
9E46
2D71
2FD6
2F2A
1907
ACA8
AF9F
B04F
AD25
22F5
2D2F
301C
2CFC
24B6
A827
AF9E
ACE2
A93B
23FE
2D6E
2E7E
2C7F
2537
AB2F
B051
B079
AF09
1BB9
2EB5
3007
2D90
24AB
ADE4
AF07
AD8A
A883
149A
2B2B
2D8A
2ECB
2B16
9E59
AE11
B0B7
AF57
A1E2
AC75
AE72
AF95
A572
2CDA
2F26
3082
2E2B
A271
AF37
AF44
AFAD
ACC5
2B37
2F3C
3094
2896
A969
AEAB
AF19
AFB1
A830
2867
2FD2
2C32
2C6B
9F17
AB4B
AD9B
B004
A70C
2A82
2F33
304C
2CFB
9FFE
AC24
AFF2
AD90
9B21
2C18
2E38
2C33
2839
234E
988E
AC65
B03C
AD8C
A226
2C9A

