1C19
1926
1E5B
A0B3
9A23
A5A8
A072
9E82
233B
22F8
1B3F
9E83
14BE
A403
93FD
9770
9C2A
9992
9FC8
1718
2070
1C24
9835
9C1A
1E17
A0C9
125D
9D84
1318
19F9
223F
1D41
2338
8C4B
9FC2
9DAA
1819
1924
9C42
A244
9ED2
1D8B
1C85
258A
0C1D
1068
A1C1
90A9
1B79
93B5
A421
A229
A37E
2181
11BE
A51D
9E1A
1909
1E27
21D4
2274
1911
A0F0
1F7C
97E1
1943
99F6
A08B
9DB8
0CC0
2563
2268
2224
1468
9A49
A022
18AE
94A9
1799
9C25
1C32
2122
2443
A0F4
A058
A3E9
1FA3
9BDE
156D
1882
9CF9
1FE2
20D6
9F0C
9CF3
A048
A23B
9C07
21F1
1F54
2120
1D69
A3B2
A0ED

