245C
1EEC
9544
A1B5
A261
9A53
1F4E
1EA0
15AD
9BFD
9CA5
1B4D
20CD
15EC
1AC2
A1A8
A041
9D94
1C65
2390
1DE1
8D75
9D78
A02E
17E7
1DEF
1CF2
A452
A4DE
A224
1D03
243D
23A5
1D34
A3D3
A48D
A147
1BC3
224C
1D69
9587
A2DC
8DA3
20A7
1DF4
9B21
A307
A000
95CF
1C97
23CE
88C9
99D7
A3D7
A31D
9CCC
18B9
2085
1F29
9492
9F02
1880
1650
174C
1823
9D71
9C06
9DDD
1929
1DD8
21BD
1A20
9ED2
A1CD
A118
1E22
1F52
2094
A42E
A070
9188
2384
251D
1B6F
A3D4
A2CB
A12C
188F
2362
247B
1BB9
95ED
9D81
1ABA
1D3D
1FEF
9EA0
9F37
9F00
1A30
2404
1D4A
9D33
A25F

