A253
9476
1F52
22BC
2241
12A1
9D94
981C
9D74
13FF
1CE8
8EE6
9969
1C40
18FE
1C1F
1A09
981D
9BB8
19A2
1287
9C94
9EDD
9FA3
9A58
20B4
1872
9C33
A299
A0B2
1F30
2225
1D00
9C75
A112
9FD9
0CF3
213E
1F16
1C33
9743
9C90
9CAD
9C4B
A034
9C76
8B2D
1CB2
2166
20EE
195C
A034
1F53
21CE
230C
15D6
A058
A124
A0E3
8BAB
1CE6
11A5
96FD
90A5
94AB
1AF7
1ED3
9829
9E3C
0C7D
8F6C
15BD
9981
9A24
9A46
1EC9
1DA7
1C35
A1EB
9E44
95F7
1FC8
1FF7
09F7
A174
A01E
9B00
2181
2075
1C67
99D2
A141
9F44
9851
06E2
0EEE
1844
1C97
1F38
208B
1610
9F34
A2D8
A1BB

