9616
150B
189E
8FE1
18E3
1385
0EC8
9AF4
1079
1961
1624
106A
1B11
1992
10FF
A08C
9827
1C22
9FCA
99AD
9F93
2020
20DC
1C2D
9F4C
A19A
195C
1F9D
1EF1
1678
A01A
9B14
9E83
995B
2241
0358
103C
1832
10A9
15E5
A0A5
A214
9E01
9C18
19CF
15A0
2131
8F9E
1CCF
9F1F
9AB7
9CC8
9BEC
9DE9
9DFB
1BD4
9CA7
1BFA
977B
98CA
0714
1D0B
85C4
9192
198E
9FBD
14EA
9DA1
97C2
9C8E
9999
8C86
1D21
1F08
9AA5
9B3B
8B68
9E56
2311
1B34
142F
9A72
A0BE
9803
1F2A
2037
1E58
9BF9
9D96
1F0B
1C3C
99B2
9D42
90DA
1B5E
20C8
1FB0
1A3E
9016
1BA9
9743
9E29
1658
20F6

