A6C8
AD5D
AC28
AB90
24B0
9DF0
27CE
A0D2
270C
293C
2512
A71C
A724
AE32
A547
2484
2A89
2A06
A62D
A913
A916
9DF3
27B3
23B6
2451
A991
20F8
24D7
1F84
A833
A005
0097
2C6C
2ACF
2145
A979
AC29
A7E3
1D73
2636
2121
A429
AA41
287F
2914
2D60
23C6
AA64
AE2A
AF3E
ABE9
2A22
B096
A7B0
266B
2938
2A11
273D
A2D0
1914
2509
9403
A9FE
A44D
A661
246E
2B15
27FB
989D
A9ED
9E7A
9CD2
2A37
2B99
2589
A563
A730
A713
2739
9D69
A494
99B3
2AEE
2685
2408
A9C5
A97A
AB3D
9B93
2C1F
29F4
27BA
A1A4
AB58
9C8C
2965
2821
A645
AA99
AC88
9C2B
2C79
2E34
2D44

