288E
2E07
2C2F
A82C
AE34
AD44
A08A
2CF7
2E4C
253A
AB78
ADB8
A987
29BE
2C2A
2900
A91E
AADF
A295
266B
2CD8
2499
AADC
ACFD
A8A4
2A55
2C6C
1819
ACEB
ACF6
A846
2914
2E01
2CA5
943F
AB48
ADD9
AA90
29F3
2DF0
2D29
20CA
AD14
AE21
A87E
2A80
2D7F
2A04
A4DE
AAC6
A8E7
1ED3
2DE0
267B
ACD4
AE87
A81F
2B32
2EA1
2B12
A6F3
AE68
AC1E
256E
2CBE
2B9D
A03A
AA75
AA96
239E
2A59
2AA7
A117
AB54
AB1A
9B11
2CF1
2D0C
AAFC
AEAB
AB5A
245A
2D0F
2E0E
2835
AC1D
ADB1
AB64
236E
2BB1
2DBF
251D
AAEE
AE77
AAFF
22D5
2DA6
2C02
2053
AA0B
AC96
A4E1
299C
2AF8

