2169
1742
9FE2
15C3
22FD
1ACF
1962
A034
9CF3
9763
2404
242C
2353
1C24
998A
A174
9DB6
1C33
1D8B
9918
1E69
9B4F
181B
95E6
A041
9C45
9AF0
A097
9ADE
1A6A
19D8
21F9
2344
9978
200F
1ECE
9AAE
16A3
A2FC
A060
97E3
145D
22CC
213A
9A06
A363
A29C
1DFF
1FDD
1BE7
A242
A4B0
A050
9C97
9988
1469
1CBF
9DC8
A0B1
A08F
2053
220F
21D6
1D0B
A215
A311
A0C4
970E
9A31
23D8
1F7F
1203
1556
19F1
A167
9A74
063A
8725
1555
1887
1AE5
18FB
20FC
9E1E
2046
9856
98C6
1CA4
A0F7
A106
92CF
136A
2200
20A0
9456
A1BA
A06A
9877
116C
2038
988B
A1DB
99A2
1532

