B0CB
AEFA
1AEB
2DBE
3051
2E21
9FED
ADA0
AFBA
ADA3
A21C
2985
2C81
296D
2249
1FEB
A736
A83B
A71B
A61D
201B
22D5
2765
2605
1D41
A944
A87F
2B7C
2E99
2D04
1D80
AF05
AF30
A80B
2AB0
2EFD
2A36
A9AA
AA7D
A122
2C15
2D6E
A07F
ADF8
AFD5
A5D0
2CCE
306B
2DB3
A1D8
AFA3
AE54
9EA9
2E7A
30EA
2E94
202E
AE7C
B079
AE48
109B
2B27
2E60
2D33
2343
A783
AB6A
AA03
A4FD
225A
205B
283F
261D
2702
20A0
A9A9
AC48
A9B5
2CDD
2C86
1FE3
ADB7
AF6B
AA5C
28CE
2E7F
2D65
1CBE
AC36
AD0C
88A7
2A2E
29B3
AA83
AE15
AB7D
2A8B
2FCE
302C
2199
AEE1
B005
ABC4
290C

