3D228ED6
3D55A294
3DBF02C5
3C97F1FA
BDEBAB65
3E15479D
3DC01EEF
BDE789E7
3D9B4FE8
BE19AC36
BD71897A
BDBB0468
3B69B38D
BD936695
BE2C636B
BE0B584B
BD282D7B
BDA8F7DB
BD76AE7D
3C9897A6
3CF9E9D1
3B299B6F
3D9F2E49
BDA3C212
3D892DDC
3D178D50
BD957604
BD68F191
BD63B14B
BE1420F7
3DE92791
3C2A821F
3D7DA61E
BCF5BA2C
3D52B5E5
3E6DDEBE
BCDE17E3
3D609EDC
BD4A9260
BC39C305
BD1100A4
3E4503FB
3E523034
3E1AC14C
BC8F40E6
BCD95140
BD96ACEB
BC54C33B
BD0D7492
BCEDBB5A
BC8FB656
3CB300DE

