3C56A9C5
BB16BB99
BD5F00AC
BD0A30DB
3DEECA68
BE4747D8
3DBFA659
3E51D2E1
3D51C7DE
BD68E92D
BE37F562
3D961D43
BCC230FD
BDD3F63C
3C42BD7F
3C08D2A2
3C06833C
3D9F1B69
3B29CDC4
BDA2C01E
BC657109
3DA40D0B
BDF19B4E
BDCC4F7F
3AE02214
BA89A027
3DF80453
BDF062D4
BB20F4D8
3E152370
3D861AE7
3D110A13
BD150B95
3D94916D
3C0372E7
BD9D1138
3BA0125A
3E7A9AC3
3DE266FD
3C16EDEE
BBF23897
BD9E1B8F
3CF52978
BCACDC01
3D21BE2B
BD509071
3C7A11A9
BD6003AC
3D9D7ECC
BD00E27E
BDA5A576
BD3AA68F

