3C1F0E4E
3DDAF7D3
BD152F3C
3D3178B3
BDFCB253
BAB9346A
BDAAF577
BC12189C
BE329DC7
3C931444
3DC7A9E3
BA93532E
3D9D4D83
3BBDCAD1
3DAB2D0A
3D48893B
BD729A1C
BBAD0C3D
BD653975
3D8D801B
3C70D413
BC1FFD61
3E0A7158
BD0B8280
3CAE8C05
BCD04817
BE1CEE5B
3E807161
3CDB6C37
3D066B1E
3D8C1A05
BD8D0353
3C74A559
3C7034B1
BE0ADD9C
3DEA7371
BD4E0221
BE66D091
BDF4C76D
BCFC957D
3C5A09CC
3D86C3B9
3D6DA76E
BDC24357
3DEC1F43
3D1F090F
BD630FD0
BC1CED0B
BDB9AAE7
3E13779F
3DD692B4
BE1866A1

