3DB3293D
3E8229E9
3DEBF1A6
BD756430
3D5B1E9F
BC0EAC00
3D7863BF
3DFA1A0D
3D078855
3D0AEC8D
3D448E04
3DF1526E
3C1DA166
BE2311A5
BBDA33BE
BE293D53
3BFAB53D
BE1C5693
BCEB6391
3D8960B7
3DEE429E
BDA2A0A9
BD1E53A8
BE6897A6
BBACA793
BC599CBF
3CB08DD2
BE3245F6
3B85E3DA
BCA25FA6
BB324207
BD3D1FE6
BD8EFE50
3CEC397A
3D903FB3
3DD2B991
3D017A89
BD89FCF4
3E10FD7E
BCF09310
BDB378EE
BE032D2C
BD0564F9
3DC62B28
BDC4F1A2
BB1B951C
3CBFAF42
BDB3404F
BDFEC1C2
BE243A21
BD788334
3D5ABC0E

