3D9A4ACF
3DDDA7B1
3D0E8A72
BD9E4ABE
BD9F66E8
3DB497B7
BBF27BB3
BDDD206D
BD6E30CB
BE3FEAC4
3D9BC233
BACCDD94
3D73CE64
3E1ACAFF
BE82A498
BD4333FD
3C8B6955
BDAAA2A1
BD267E84
3DCAF790
3D2324C8
BCFA311F
3DB62AE5
BE0B295F
3D2D9AD8
BD41DF33
BE543F60
BD0955B4
3D360F1B
BD801041
3E587D2C
3D9028A2
BBC3DAB6
BDA8BEB6
3DF3482C
3CD27A20
3C6B399F
BCF71434
BB248F97
BDA8754F
BC8D1959
3DBB8BAC
3E13647C
3D17B84E
3DC7021D
3DAD9CF1
3AFBA882
BD610492
BC8919F0
BE172FBA
3DADF71F
BD3F37B9

