3D385B5B
3D01376D
BDC46AE4
3C5E58E6
3E089CA2
3DFC0336
3DC5B8DC
3BB649D4
BD49DCF9
3CB955F8
3CA975B0
BE43D923
3CD94AF5
3E31D430
BE496638
3E207D4E
BB9F8C22
3D37C137
3CC03BC5
BD8A1CEF
BDDF6B1A
3D9AD213
3D99841B
BDC3C9EF
BD65EEDD
BCE19115
3DD66E01
BCF82F51
BC344A1F
BD018612
3E29420B
BDD8E001
BCB4BB5E
BC19FE43
3DBFBA45
3C5F4C2B
BA388CA4
3D01322F
3C3B83CF
3E3543F2
3CA6A012
3BCBAF96
3CB32CE9
BE350375
3C1A3D2E
BD89D7BA
BD813CAC
BD1A8156
3D69142B
BE016B55
3E189C1B
BDED84D3

