3C9AD42C
BDD57604
3DF648C7
BDADFB50
BBF69446
3E541787
3DB6049F
BD821427
3DB0E3CE
3CDE2479
3DBF6E3F
3D27136A
BCD818C6
3E0E1006
BDA1AF7D
BDAA3B58
BC4AC8E7
BDC2784B
BC68CCDE
3D97BBF9
3CA836EB
BCBB9F12
3D540CC8
3D85521A
3CE646F1
3D935B0C
3E1E3D60
3DE923E6
BC4A42AF
BE54A2BA
3C633ACD
BD900F77
3D466B1E
BBFF7DFA
3D52E621
3D835C5B
BB252696
BE058FB4
BDF0813D
BBDD3FE2
BD83FCCA
3C315B57
BCC6EB0B
3E0F8F47
BDB20EA6
BDBCEF24
3DD7CA21
BD4B30B6
BD8368F1
BE3A3DF7
BDB036CA
3D5F6DB9

