BD659296
3DE3AF32
BD468987
BD2D18D2
BD2B356E
BE18BC5A
3D4BFC22
3DA181E0
BBED45E9
3D89D495
BDF905C0
BCC4D877
BE2C8712
BE27EDC8
3CD21577
3D4868BA
BDD95BBC
BD063F14
BD551612
BD408206
3B81DC0E
3D2CFE9B
BD2C9082
BD88A58B
3D5A34CA
BCC05B3A
3E4F64D0
BD989507
BD842F1F
3D96B442
BCB98202
3CD9A30A
BD599ED8
3D821E1D
3C2B53D6
BD9D0B74
3D833483
3D9B5393
3DBB1C86
BDF7BAED
BD16BEBE
3CB074A7
BC648E8A
BC9F6EC6
BCA6937D
3C311C6D
BDA4B902
BC5BDB5E
BD99DDC2
3DC45ED5
3D85F8D3
3E0D89CE

