BDA5E80C
BE0184C2
3D80A0F5
BB3E5109
3DC51FC5
BC843E53
BC176790
3D111E00
BB2936C6
3E8F20C9
BBF21709
3D690796
BD862BAE
3E0788DB
3E439C0F
BD92D128
BD381627
BDC4ACF3
3CB4BB5E
3C90257D
3D6B313C
3B69A2C6
BDB0F8C6
3E2FACA3
3D25C811
3B22B9D4
3D982667
3D8CF399
3D357929
BDC539FC
BE3089A0
BAC111AE
BDA2DADC
BC14CCAB
BDCB252D
BDF3892F
3CC91D15
3DC1B5C8
BCF28416
3D0AA10E
BDA13FD1
BDD7635E
BE3BBF51
3E0DAB9F
BC9E96C4
BDC2541E
BD470974
3C01F538
3DE22B39
3D0C8798
3C410518
BB5306A3

