3C996B76
3E02584F
3D8BF551
3E22A66E
BDD60200
3E268512
BCA10BE9
BDA6DB51
BE6E2479
3E2B1811
BD1244A6
3C97CE53
BD387161
3CE73605
BD4E2E2C
3DC0A5AD
3C11819D
3CCA558F
BD51C194
BE13AABD
BD91B79E
BD941180
3DD5DCC6
BD1AAC54
BD80FBA9
3BDA22F7
3DDD5022
BD8F166E
BD989E77
BDBDA37F
3CDA78F2
3D93354C
3E09F278
3D8A59C0
BD522963
BD0280AE
3D6F826F
3CA4FCA4
3D9F290B
BE14E486
3CEAB368
3D9C4439
BDF27B2D
BD58C6D6
BD31044F
3DA6F2E9
BDBF0670
3A8C60CC
BDF7C915
3DD029AE
3DBB8ED2
3D9F8099

