3CF27BB3
BDC7685A
BE0DB3C0
BC6AC860
3C896788
BE597892
BDF05187
BD801CD6
BE3B06C4
BDDCCC03
3D2543F2
BDC56CD7
BD93E9A7
BE3F0D41
3D0E28ED
3C8C3D25
3D41FA76
3DB846E9
BC3F7271
BD9B37CA
BD801A37
3D6C56D6
3D733B97
3BDC981C
BDC6DF83
3CB4E981
3A5801B4
3E49029B
BD2F0175
3E53AFB8
BD8CF5B2
3C077681
BD19B802
3D3A5F42
BDA5DE16
BDCCF5B2
BD0B3700
3CBFA8F8
BE70E172
3D6ACB86
3DE0EC74
3D67B4E5
3E316E37
3C8FE692
BD08D3AE
3D8657B8
3D8786C2
3DFE3B04
BD187725
3E0CC5FC
3E32E558
BD96AB58

