BCA5E13B
BD94916D
BD07B45F
3D8379B7
BDADBBE0
BD8606FB
BD12E1EF
3D22E5DE
3DD0129D
3E252C5A
3C9B8AA0
3C2ED56B
3DCCBB80
3E01D4B7
3D34C900
3E619A41
3BD0C3D2
BD05AD54
3C1003EF
3C886DF8
3D77BAED
3D5AC040
BD174B40
3DED2F5E
BC8D130E
BC2B6D01
BE82DA77
3CB8F9B1
BD1AEA31
3B298AA8
3D1D8F93
BD1A4485
3DDFD827
BD3A82E8
3C8301A8
3E573ABD
BA7CF80E
3D94F3FE
3C694EE4
3E0B6ED6
3DC20D56
3D07AF21
BE2F4E44
BE67BB30
BC387BDD
3C7CB924
BDD77D95
BD49ABB0
3B7BB949
BD1E108C
BDAF5558
BE146AE4

