BC9235F8
BE06540D
3D567DBB
BC4E2D1F
BBF53C58
BD494E5D
3C06338B
3D160E95
3DDB6ED6
3E29E775
BD180F56
3DB368AD
BDCDE658
BE26A9C5
3DD5B35B
BCFE5A79
BC1BBF0E
BE03E35C
BD926D05
3C13C03C
3D810F95
3A07CA64
BCB19A41
3CE088D7
38DA1A93
39DDC619
3CD50A89
3D016378
BE2D7ADD
3C5F1E08
BDC4095F
3DE9795B
BD40431C
3DEC953A
3BAE18AD
3DE7E521
BACB295F
3D344C38
BCFE8039
BDF30E80
BAF605AB
3CA424A2
BE1AAB04
BCDFE75C
BC9B8887
BD6A1D75
BBDFE75C
BC9465E9
3D2AE8E2
3D9197A2
BE13D46B
3D1A8262

