3D11C087
3DC0DD40
3D85D313
BD057AFF
BDC672FC
BDA88F86
BC1131EC
3D9EDAEC
3DC97529
3CA74C0A
BD6F08CC
BDB6FF3B
BD30DA5E
3D37BD06
3D8544FE
3D2005C4
BD23CC8E
BD5BE4CD
BC529DC7
3CCD5B68
3D9B0468
3C931CA8
BD5B823D
BD9F97AB
BD14855E
3D4A9479
3D8D716D
3B03126F
BD9D5CB8
BD9EBBFD
BD08BA84
3D228028
3DC011D3
3D949518
BA87EBF2
BD690EED
BDBB1961
BD51F4F5
3D3E5FB7
3DBE0F80
3DA522EA
3C193D53
BDA286F9
BDC41FEB
BD0FB54A
3D4FFDA4
3DAFE47A
3D407464
BC9BBCF5
BD58BA41
BD1CE8D9
3BDA5DAF
3DBC0443
3CCF6DFC
BD9A8588
BDD0EF56
BD03D89D
3D663843
3DD4152B
3D623077
BCDE6363
BDCD0E56
BD83B03E
3CADCB14
3D97B203
3D73ACD6
BC073BC9
BD4E9F6B
BD52C6AC
3C73CF70
3D4B2E9D
3D54D728
BC22EC29
BD6A8113
BD634EBA
BB621965
3D9E2047
3DA174C5
BD5F7729
BDD567DC
BD6B4D8C
3C8B32CF
3DA1E471
3DC1B9FA
3D06AD2E
BD83A084
BDB62CFE
BD6C7DA2
3C6DC7EF
3D762952
3DB7E458
3CA3A084
BD5DC400
BDCEEC7D
BD5FE32A
3C5AA92E
3DB4B381
3D803AB8
3C0A6549
BD415A08
BD92B991
BC9C2E34
3D337436
3D5F0F5A

