BCFE260B
3CE9057D
3B738822
3D36D656
BA8ACE25
BBAE8E1D
BC380A9E
BB9246BF
3B82730C
BC2D81AE
3AE086BE
3C982ECB
BCA9D1F6
3D240C84
390205FF
BCDCB35F
BBA2FCF0
3BFB00BD
3C4BF6E4
BB0DC11E
3C92D341
BCB7A3DB
3BD33094
BB41DB01
BC6D1394
BC321C47
3CDE785B
3CD73C92
BC375EA6
BCC9C4DB
BBB7457C
3BD71F36
BC894813
BCEFD007
3C583C6D
3C5AF07C
3CE04E1E
3CB0C240
BC8F40E6
3B34D057
BCBFBBD8
3C22CECD
3C862B28
3AE77920
BC8E5604
3BBC72E2
3D14855E
BCA4C836
BB931013
3CA20792
3B7D5CB8
BCB4B72C
3D1DD6E0
BC56FDA8
BC87485E
3CA03819
BBCB07D1
3C1B23DD
BC0F2171
BB0EBCC7
BB91537A
BCAC1095
3B6496EE
BC34E11E
3B7765FE
BC7FC548
BCA99D88
3CA7ED85
BC2B0425
3D1DB984
BCDDD8F9
3BDFBD6A
3C8D8234
BB57CF5F
3B8C9321
BC437E6F
BC451117
BD22B9D4
BCC3C3A4
3C5A9004
3B9F383F
3C13C89F
3C406184
3C972ABF
3D14D834
3C0A0903
3B8DF373
3BE3D5FE
BBDACABC
3D032CA5
3C401A37
BD0BE511
BD16FA83
3D2CCF6C
3CA0663C
3B7CB4F2
BCE8AF81
3BE06530
3C694AB2
BCBEE808
BC4ED4E5
BC8BC9CD
3BC6B485
3CBDC6A0

