BD3138BD
3D2F5233
BDB69553
BD01871E
BE935632
BE603819
BC205DD9
3B9246BF
3DB3B646
BEAF5E42
3CDC9603
3E521F6D
3D0D7BEA
BE19FECA
BCC7F994
3DE277C4
BD78DD61
3D17B635
3D0B4AED
BE33C46E
3D05D420
3D38E087
3D82DA55
BDD8C21E
BDBDAD75
3BCDFACA
3D1220FF
BA8D4BAD
BE31A6D7
3E36705D
3DE60136
BAC4BD34
3DF7FB6A
3E766730
BCB1B79E
BD11D580
BD54195D
BA9D8C6D
3CDB39E2
3DA54C55
3D92BF55
3E0169C2
3E0D9C28
BE1BFC65
3D4B5675
3D7A615B
3DDBAA9B
3CC067CF
BD65F527
3D7723EE
BD7EE914
BDDE0A42

