3D3F7DFA
3E211948
3D8DF267
BDDC13FD
3E1A7CE1
BD9017DB
3C9F3C71
BD664E48
3E5CF9E4
BD735C18
3A1E12A5
BD1A3E3A
3DEA515D
BE670C99
BD08EAC0
3E51E29B
3B756EAD
3C7DC593
BD73E682
3D6ABDE4
3D01CB47
BD0E9707
3D03EA70
BE0CFAAD
3D032FCB
BBC66905
3D67EE91
3E83CEC8
BDC4039B
3D590C0B
BC2FAF86
BD9C9F73
BE1E68A1
3DBD8B61
3D40FECE
3E669F8C
3D430F49
BD14BDFD
BEC37ED4
3D1E742A
3C3EC67A
BD198394
3DA8637C
BE2F27BB
BCE7E847
3CE4CD75
3C2A79BC
BD163BAC
3D893D10
BCE3C31E
BE02FA94
BB9DA598

