BCF6965F
3DE23422
3D817CA2
3D9D8F93
BE83A8E7
BD67A744
BDD03E21
BDFEB0FB
3E1C00DA
BE13953E
BDED3CFF
3CE6601C
BD314014
BD80168B
BDD3CC4B
BD4636B1
BD7DC487
BCAF1CB9
3D4C069E
3B196B76
3D89C77A
BCC6D3FA
3CA031CF
BD7B506E
BD423B79
BC6F06B3
BE13BC90
BC13D966
BDAA70D2
BC9C8430
3DB0E560
3CFFAA04
3E0F8488
3DE30447
BD277708
3DE84168
3CE06D94
3D96EC5B
3D1157AC
BD9E9C02
3D7D04A3
3E309310
3E203644
BC3B9064
3AFF327B
3CFCC187
BDF0D307
3C680BED
BD3D3E4F
BB81908E
BD2EDDCE
3D803819

