BB8EEF1C
3E76F4BF
3DAA65CF
3D7E79EE
3E00507A
BCC9EA9A
BC8F51AD
3E034A45
BDE5EBB7
3E1977C9
3DDD9664
BCFD5022
BD691A76
BE493DD9
38C0F020
BD8C1B11
BB4EB357
BCD3671B
BD101F32
3D717BD9
BA7DC161
3C4EE17A
BDD5FC3B
BE5F6A51
3DD2E7B4
3DC33B54
3CBB2DD3
BDBB9064
3C43DEE8
BC999BB2
3C474752
3D976F6D
BDC40315
3DA72A7C
BDAB1BBD
3E271E6D
3D77EC35
BC57CF5F
3D8F2171
BD988C1E
3C8CEF67
BC3DF8F4
BDFE82D8
3D7838C1
3CF40810
3E07E176
BCED0B31
BD8088D7
BD82F05A
3D9C44BF
3D8B3EDE
3D87C287

