BD50D38D
BD78EC10
3D9D31BA
BDE5AA2E
3DF08EDE
3DF4195D
3CA20BC4
3C6EFA1E
3E232CA5
BE018FC5
3E299392
3E2313BE
3D73647C
BD8DB37D
3CE0FA16
BD824EDF
3CEA4CA5
BD2C3EB8
BD8C2CE4
3DBF65DC
3DF06E5D
BE23137B
3D1B10FD
3DEB4BF9
3DDF01B8
3CF90D9D
BC890D5A
3D3395C4
3D9DCF89
BE136C16
3D487011
BD091080
BC195AAF
BD116335
3D9FADB0
3D426139
382393EE
BE00F020
BDE1A2E8
3E28AE75
BDD6049F
BE014B5A
3D7A072D
3E14B7F6
3C9F31F4
BD94FF86
3E18EF78
BDA5D074
3D676D98
BE4D434A
BE3E1199
BB230DB7

