BC9A3098
BE07264A
BD377D0F
BDAC2EFD
3DA0431C
BD475A32
3BC73259
BC2860DD
3E7ABB45
BE52C775
BDEFB7E9
3E1A3832
BD8A4DB1
3E321102
BD30F27C
BC468A93
3D28038A
3C6631F9
3D9733A9
BA8BFC22
3C179182
BCC9DE05
BDC0B029
3E2CDEA0
BD7777D1
BCBDFB0D
3D792F2B
BE05243A
BD1B7069
3D2A886A
BC56D3B7
BA5C3372
3C377C03
BDD4DDF8
3E101A37
BE7BB279
BB653EB4
3DFD0397
3E530D30
BD58EEAF
3D4E4DA1
BE0B9AE1
3DBFD695
BCC8472C
3D36E71D
BDB061C8
3D0E53EB
BDDE731D
3D9B4D49
BE2EA183
BE716A05
3C976577

