BC0FC0D3
BDD8AB93
3DB29670
BC833615
3E374645
3E37A461
3DDE8039
3D078D93
BDD1D580
3E864FDB
3D190D17
BC505293
BD890FF9
3DF9A177
3DB81301
BD80841F
3BA600B0
BE321D97
3CFAFC8B
3D80AE97
3CF9CC75
BD72830A
BC30AB2E
3DB76D55
3DA70B8D
BD6D3C79
3DB15B57
3D8835DF
3D91569F
BE40F3CB
BD19DBA9
3D05E1C1
BE054CDB
BDEF1993
BD6964E9
3D1E492C
3BD1A650
3D1B4352
3BF6837F
BD77FCFC
BD698677
BDF1F81A
BE84BD77
3E15DEDF
398B75EA
BDE05FF2
3DA02FB6
BC8E3044
3E090E24
3B15182B
3D62584F
3DA69AD4

