3C8E6299
BDC428D4
3B18F606
BBE75793
3D7F1E8E
3C37670A
BDC78317
3DB95465
3D8FD4BF
3E424DD3
BDED4456
3D110E45
BE14D7F1
3B9728A6
3E61C25D
BE0DB7AE
3D6ED99D
BCB0403A
BD8A3A4B
3D05D639
3DC08E15
BD0A01AC
BC6F9980
3D996207
BC0B32CF
3BDEA034
BDAE7360
3CA2F273
BC8E9920
BD947A5B
BE427525
3E3520D1
3D2D8E43
BD0896DD
BDAFE932
3DAE0115
BD05718F
3D67B6FE
3B1DADFB
BE1641F6
BCACB85A
BC0E043A
BE2E3CDA
3D54983D
BC6C2481
3CE31727
BD09DBEC
BD19E1F4
BB399913
3E2BC4D2
BD006D0D
3E0F6C27

