3E1929AA
3DDE44FA
BB53BF2F
BDB7457C
BE09EF52
BDC41462
3BF21709
3DB32E7B
3DF71865
3DB42FE8
3C43E319
BD303E21
BD8FDC9C
BD2C97D9
BC48472C
BBF8C650
3CE5E02F
3D06130A
3CE3B8A2
3CC17CA2
BC055971
BC59DBA9
BCE98783
BCBF7058
BBA89FC7
3D287B14
3D0EEE0F
BD6F8488
BDD33094
BDA0A394
BBADFF82
3DE04296
3DE62802
3D01B867
BD544135
BDDEE45C
BD465D7D
3D343958
3D4E25C8
3C209CC3
BD82717A
BDADA33C
3C11EEAA
3DBED070
3DFA3F46
3CB8C975
BD99AF19
BE0CE24C
BDB57929
3C3AECD0
3DF3586D
3DC8DA7F
3BD77319
BDCF60E1
BE1CF6BE
BDD1C087
BC06E7E6
3DCF08CC
3E0EC354
3DC8DA7F
B9CBF2B2
BD636D22
BDCB4741
BDA5DE9C
BC6AAB04
3CF03D14
3D6C6690
3D3FBEFD
3C9E7968
BC4BFB16
BC0DB489
BD0780FE
BCC32CA5
BCDF5AD9
BC1702E6
3D34A234
3D8862F6
3D359AB7
BD9BFF04
BD910C2C
BBF84018
3DB667B6
3DED7F95
3D4BC9CD
BD191FF7
BDCF4E87
BDAC3654
BB9C12F1
3D85FC7E
3DA0B999
B8388CA4
BD451117
BD353719
3D51A21F
3DC29846
3D7009B3
BD509E13
BDF975F3
BE05360D
BC320FB2
3DDB3B75
3E000B89
3D769EC3
BD2045BB

