3C92E1EF
3C762739
3B3A0E84
BBF6B5D4
BC37DC7B
BBC33B54
3AFB86F4
3BD46F58
3B6BFEC1
BB809D49
BB027B70
BB41A8AC
3A473ABD
3C041AAC
BB7CE747
BC01A9B9
BC0F0C78
BAC32A8D
3BD8D36B
3C70B285
3C45931D
3B284BE4
BB560A63
BB22A90D
3BAD4F59
3C02A561
BC02B1F7
BC725A25
BC0A7E74
3B9D8C6D
3BB2FA94
3BFFB04F
3A0F2171
BB573861
3A904F6E
39FCB4F2
3BBAADE6
BBEF672C
BC4892AB
BB900C52
BB38E087
BA4CFF22
3C2CC4F0
3AF1B25F
3B839043
BA97E996
BB979E17
BB9717DF
BBFF10ED
BB656042
B9D5E8D5
3C1C8C93
3B475C4B
BC2E7925
BC64EAD1
BC3A16E8
3AC60CBF
3C02BA5A
3C1D55E7
3B33F63C
BBD7E88A
BBBB2357
3A52C387
3BB5B2D5
BB7A0514
BB333DB0
BC68815E
BB3CAD9B
3BF4623D
3C0F25A2
3C1A8049
BACDEA03
BBE27E0F
BC2ECD08
39828C37
3AB73D19
3B8E368F
BA67BC3C
BB9AB29E
3AA91538
3C14FACE
3C6A3DF7
3BB441BC
BA5A1A93
BA6F5665
BB4F28C8
3A15F245
BBD71F36
BB18C3B1
BC2704BC
BB917508
3B6D80A1
3C257A78
3BBD987C
3B2E1049
BA10F734
BBC62E4D
BBAB8A5D
BBB3CC4B
3969D51B
BB906898
3BD20297
3C232B13
3AD477BC

