3BC9C90C
BAF29D41
3B41EBC8
3BD35222
3A4026CC
BB9EECC0
3B11C087
BBB356DA
BB0A265F
3A90B418
3B63BCD3
3B7BDAD7
3BE68E3F
3BD959A3
BB58CB08
BC50A244
BB47192F
BA5F9BDC
3B39CB68
3BA5EFE9
BBD5F139
BB20902E
3BD31FCD
3B8C60CC
BA15F245
3B3DCAD1
BC229846
3C195EE1
B9E496EE
3BD141A7
3B962CFE
BC0E086C
BC10D5A6
BBB673C5
39F23897
3ABE7297
3C2619DB
3B012BE5
BAC692F7
BAB28523
3B526FA4
BA423FAB
BB2686E8
BBBD1245
B9473ABD
3A677920
3B8B545C
3BE69F06
3BD5A5B9
BBB356DA
BB254824
BC24EBDD
3B835DEE
3A16BB99
BB96A26E
BA88722A
BB18C3B1
BB5A5DAF
BA9EBA6B
3B83B1D1
3AF4D7AE
3AF5A101
3BA46E09
3B8333FD
BB1BC771
BC3BADC1
BB2ADA34
BA4A1CEF
3B47C0F4
3BE1932D
BBB34613
BB3E0DED
3B823854
BAC26139
3B08F862
3B7F0026
BB62089E
BC078FAC
BB245D42
3BAE8E1D
3C34BF90
BC11AB8F
BBC31162
BB917508
BAA45D42
3B492147
3C43009B
3B361FE2
BB2AEAFB
3A8D6D3B
BB08A47F
B980F990
B8388CA4
3A4F1801
395801B4
399CC31A
3B3DFD26
3B8F6CF0
80000000
BB67CD03
BB15E17E
BC1E279E
BB82E87D
3C059429

