3D652AC7
BE1BC87E
BD32A7BD
3DA01366
BDDE835E
3E608C82
BD4C6823
BE31C92E
BD330B5B
BD9F31F4
3D84FDB1
3DC2EFD4
3E024E9C
3DC43E53
BD49613D
3CF9591D
BD55A9EB
BCCBF8FD
BBE0F3CB
3C63608D
3D87B99D
BCDC39BD
3E6F6988
3E2A1E82
BD34BE83
BD85881A
BE429670
3E04E2B0
3D564C73
BE00A6FC
3D362846
BD492CCF
3DDAFA72
BDDAC040
BD5F0803
3D0711D8
BD190082
3CDE9C02
BDD39DA1
3DC450AD
3D8555C5
3DB504C5
BB06594B
BD04C9C9
3BA07F67
BCB2EBE6
BDA2DC6E
B969D51B
3D8FD439
3E14BCF1
3D04EA4B
BDB5AB7E

