BD7E22E6
BE095E18
BE17B13A
3DD13E81
BDD1183B
BCBC2DAE
BB01B21C
BDB38716
BDCA6A87
BD23E7D1
BDB5DEDF
BE548F11
BC387BDD
3DAA2553
3DAC5B08
3E22A2C2
BBAA3AD2
3D80D802
3D3B40B3
BDE56D5D
BD9B8B26
3D384A94
3E18AAC9
3E291C4C
BD6363B2
BD8D6D3B
3E583B60
3E2CB3E5
3D11D799
BC605037
BCCFCA43
3C90FD7E
3D96FB8F
3CFCBF6E
BD889C1B
BE46ABDE
3CF1ED18
3E0441FF
BE01B8AA
BDC0A0F5
3D9599AA
3DE8F7DB
3DAD1E97
BDB29132
3DB466F5
BDE3D46B
BDE6A11F
3C729D41
3CC6FDEB
3D66277C
3D863411
3D6327EE

