3C6F1BAC
3CB60D02
3DD5AF29
BC98F606
3D2B27CC
3D6EBE59
3DB71C97
BD4E4FB9
BE3FF195
BE0ED84D
3E1DDE37
BC5976FF
BD8AC5C1
BCF9A06A
3E30C997
BD7890D6
3CC35CE2
BDF4A4D3
3D32DC2B
3CC8C932
BD0880D8
BC4D5736
3D1AAE6D
3CFC6FBD
3C7CAC8E
3D6072D2
3D6DE226
3D3F0FE0
3C9D3027
BA7D7E46
BD9DBFCF
3D71B691
BDC730C6
BAC026CC
3C8EC311
3D7E8251
BD95275F
BE12F9CA
BD0BA40E
BD79830E
BD7EF391
BDC7D135
3D1233DF
3D41F751
BD902B41
BD13879C
3DE43569
BAEB0319
3D082F0E
BDC2FE82
3E4B9A5B
3D77867F

