3CE5E892
3DD72D5E
3D099AE9
3CAD1288
3DB4DF05
BD2034F4
BD33F423
3D695960
BE037260
BDE17226
3DE7AAEF
BD4A59C0
3CCDF267
3DDE9AF6
BDF5FF61
3D497A68
3D68C8AC
BD901C93
3C8E3CDA
3B9845DD
3D16CF85
3CC7DE51
BBE59AFA
BD896D4C
3CB05532
BC010E88
BE415B14
3B76DFC6
3E88CE4F
BC862D41
3DCAC9F3
3C689A89
BC954003
BE238716
3E25E41D
BDB422CD
3D4522EA
BCE1CFFF
3D968D76
3CD59D56
3D8D2CBF
BDD51BD6
3E2BD124
3CBE6C4C
3D3F4342
3AF8C650
3DCB4C7F
3D81437C
BD7F6E3F
BDFDBE3C
3DBA322B
3BCC4695

