BCABBA99
BD3C8D19
BD2516DB
3C2647FE
3DF08B33
BE39539C
3DC84620
3DD35DAB
BE052BD4
BD08D3AE
3E1C7DE5
3D0446B7
BB07B99D
BD639820
3E19D346
3D9B120A
BCCF1C32
BCD8EC96
BDC9E98E
BD698DCE
3DA9D170
BC22EC29
BC332CE9
3DFA0D78
BD36AA4C
3CD2630F
BDD3BD9D
BD713BE2
BC281DC1
3DE75254
BE673B86
3DDF16B1
BD8E6EA8
3D516B98
3D408638
3DF6C26A
BD3E186A
BE4462C3
BD4101F3
BDC1AF7D
BD4E6080
BD95243A
BCAAD81B
BD88CEF6
3C93FD0D
3C447E4A
BD2606FB
BC5C8B87
BD5FB82C
BD50D8CB
3E0EB8D8
3DB224AB

