BD0284E0
BDAD65E4
BDC3CD14
3C9426FE
BD915F89
BE25FBB5
BCD3A1D3
3D304684
3E323C43
3DA83EC9
BD8A7BD5
BD1E6ABA
3D765A9B
BDDB213E
3D58FF76
3E4462C3
BD4CA1CF
3E001041
BBF96E16
BDA99BF6
BD9CF030
3CC7496B
BD840AF2
3DA192A7
BE0B8E4C
BC502CD4
3D2836EB
3D6908A2
BE323E9F
3E535760
3C81450F
BE00307F
3DB0BE94
3D7AC711
BE102A35
BDFDECE5
BCA5E354
3E18EDA2
BE122F27
3D964E8B
3D03FD50
3D9FA7EB
BE17FCFC
BE08F1D4
3CD2AA5C
3D2C8A37
BC7F10ED
BCE67B5F
BCF3604A
3D230A91
BE49BAE4
BDCC3223

