3D98DF7A
BE3BED31
3DF50B95
BD768598
3C261177
3E942D06
3D835697
3C516766
3DDE94AB
3D986983
BE0318B9
3DD23897
BC6D56B0
3DF3732A
BD14FDF4
3D3A3DB4
BC11E647
BDABC9CD
BD98B589
3D5EB639
BC96B767
BDBE5322
3C9B1D93
3DEE5929
3D7A072D
BC2D7D7C
3DC0535D
BE2F6556
BD4F00EF
BE9B56B8
3D27008A
3AB28523
BD58DAC2
BD09BE90
3E4095AF
3D806A6E
BCB662FE
3DC0C7C1
3E333509
BD9D6BEC
BDAB2420
BCDDC832
3CBDE82D
B96F1349
BDAB40F6
BBF3ECCC
3C7BEFD0
BE18CDEA
3AA15981
BDFCA212
BE065387
3DC2CC2D

