3CD069A5
3DBE89A9
3D3A1D32
3C202321
BB784018
3D9340D5
BDDE0158
BBE7924B
3E233E36
3D187619
BDC0114D
3C8E1B4C
3D9662FE
3E2BCC29
BDB67EC8
BD4ED917
3AE1F7D7
BDA0E7BC
BCC388EC
3D346994
3DA0C847
BCA89DAE
BDCB0100
BD2731D3
3D8072D2
BCE7F90E
BE3E7968
BE2C2FC7
3B5F47FA
BDA2ACB8
3E152F7F
BD8A2014
BD1D8A55
BDC200C1
3D07B02D
BB1B62C7
BCAF48C3
3D43254E
3E1AEB3E
3DEDB9C7
BD878D93
3BA979E1
BDA86F8B
3DCBD3C3
3D3D3E4F
3C223C00
BDCB2AF1
3C4C78EA
3C0E6D16
3D22D2FE
BE11FD9C
BE45C704

