3D2F1349
BD995B36
BD411C2A
BCCF3776
3DC391D5
BE1AE819
BC5BA0A5
3D8E1933
BE2F30E8
3E0F55DE
3DA8DA7F
3D73D9EC
3CECACD2
BC794C88
3C945953
3D4894C4
3DE62A1B
3DAAB368
3D822468
3D937543
BC2E3A3B
BCA8E0CA
BDCF74CD
BD1131EC
3CD3F5B6
BD80D5E9
BD6A3593
BDECE896
3D89CD3E
3E3E93E2
BCDDB552
BCAC81D4
BDA9667B
BDBEBBFD
3DA5ED4A
BE296356
BDE9C2C2
BE15BDD7
3CB89720
BC2AC109
3C565A14
BE0032DB
BDD4FF86
BDB4D50F
3D5BDE83
3CD230BA
3C8B9FDC
3DB2FCAD
BCE1F18D
BBE8FB01
3E1832FD
3CBA3012

