3D1804DA
3E17B1C0
3DFB2032
BDDAB325
3D989F84
3E1279DD
3CA62CBA
BD0CAC4B
BE3240FB
BE0545C8
3C49D5A2
BC74E875
BD4CAA32
3D3721D5
BD262563
BE530A91
BCE7C8D2
BDB2E59B
BCFE60C4
3C811B1E
3B9BB6AA
BB41DB01
3C81908E
BE0EABBD
3D45EA25
BD0256BD
3E365F52
3D078A6E
3DA249A1
BE196F22
BC58BA41
3DBDC161
BD2E2110
BE075B3E
BBFB3312
BD2CDC01
3C5F6988
BD9717DF
BCEC3761
BD994C01
BDE4B663
BD7EE0B1
3E20F0E9
3E81AE92
BD66937D
3C896FEB
3DE66341
3D898BB5
3D91971C
3C6A5F85
3E1EED46
3C238759

