3A97E996
BB5C11E4
BBBC59B8
BB82BE8C
BB285CAB
3AFD3B2A
3B6ABFFD
3B791A33
3B21059F
3A81E471
B9FE4799
BAB7E4DE
BB230DB7
BA5C3372
B92AEAFB
3A220147
B9C521DE
3A51FA33
3AB47C74
3AD25EDD
3B22877F
3A9B3073
3A26FC59
BA828C37
BB525EDD
BA895D0B
BA788334
3A734507
3A573861
3AD32831
3A3E9425
3AB1140A
BA7C2EBA
B9E84274
B9B78034
B9DC3372
BB08F862
BB29478D
BAB02928
3A1C7FFE
3B127914
3B50678C
3B6EBF66
3A8B75EA
BA0205FF
BB309E99
BB3AB64A
BB7C610F
BB2C4B4D
B8B673C5
3B57F0ED
3B921CCE
BBA70D20
BBDD9C28
BB19F1AE
3B68101F
3B8DFBD7
3B6F88B9
3B3955F8
3A273F75
BB244C7B
BB54ED2D
BB10F734
BB806AF4
B8991794
3A55629E
3AC49BA6
3B25CE5B
3A982CB2
39E7BC3C
B86F1349
B8EF1349
BAE10CF6
BACF9E38
BB3662FE
BACAC4B5
BAB912DC
398C825A
3AE325D5
3B289FC7
3ABB9064
B94D8559
BB06F04A
B7E27E0F
BA80D802
B9766A55
BB22B9D4
B9A73F75
BA3A1F4B
B928D21C
3B376F6D
3B0F42FF
3B1F6230
3B5E6DDF
B99DCF89
BB371B8B
BB4532A5
BB63369C
BAF96E16
3A67BC3C
3B03EC89
3B2DCD2D
3BB25B31
3B6E6B83

