BBD26741
BBEC84F9
3B6DA22F
3C100C52
3B9A34CA
BA9BF9C6
BBCD5305
BBA7503C
BB11F2DC
3B795D4F
3B016F00
39313598
3996787D
BA83BA34
BA88F862
3B47F349
3B835DEE
B8CF9E38
BADA1A93
BB67253E
BBD5CFAB
BB2B3EDE
3AB1FEEB
3B8BC16A
3AA63305
3AA8D21C
BBA72EAE
BB847B24
BB015E39
3AF776C5
3B63BCD3
3AF8A4C2
388C825A
BACBAF96
BA997C3D
394C78EA
3B307D0B
3B54024B
3A21BE2B
BA9AAA3B
BB09F40A
BB02CF53
BB203C4B
BA7C71D6
3AAED99D
3B71E4B4
3BBB44E5
399AAA3B
BB70B6B7
BB654F7B
BB9E98DD
39D2C387
3AF84018
3B6BEDFA
3BF8AD25
3AD306A3
BBB8E8EA
BBC3D252
BB473ABD
3B2D794A
3B909AED
3B4A2DB6
3993D966
BB4CFF22
B80E9B39
3AC9320E
3B93F291
B9F0A5F0
BA9CA18C
BBA48733
BBB30B5B
BAD95140
3A88D6D4
3A4026CC
3AEF9980
3B3CDFF0
BB74D7AE
BB9BCFD5
BB87B99D
3B880D80
3B832B99
3B3C6A7F
B926B93D
BB1E01DE
BB159E62
B9D5629E
3B081E47
39041EDE
3A0F2171
3B0B75EA
BB72BECF
BACDC875
BAF7121B
3A41B973
39B78034
3B20E411
3B86BDF5
3B3D5561
39DAA0CB
BBAE18AD
BB9DE050
3AE581CF
3966AFCD
3B666CB1

