3DAA0EC7
BD11CD1C
BDF9BFDF
BDDCEFAA
BD2466B2
3D4868BA
3DD70AC4
3DBAF31B
3C8D1D8A
BD562F16
BDAEFBB1
BD4A0A0F
3C10ABB4
3D99BE4D
3DB3250B
3D1E8B3B
BCDE13B2
BDCFB331
BDCF5A10
BCB75643
3D87485E
3E104C06
3DE5C5F8
3C41A47B
BDDC4977
BE17F173
3D31AC15
3DD0FF11
3DBF7BE1
3BA05DD9
BDA34F40
BD901D19
BC921683
3D469F8C
3D876966
3C5013A9
BCF3A57F
BD5BC665
BD36DA88
3BBC9470
3D28C36E
3D0E820E
3CB53932
BCA3C85C
BCEDD8B6
BCC3EFAE
3C95D91B
3D3F66E8
3CB0C027
BC8D6B23
BD5F06F7
BD5ED9E0
BDF66F0D
BE083276
BD630B9E
3D1B530D
3DDFCC18
3DD4549B
3D16DB0E
BD3E37DF
BDCA875D
BD76CBDA
BB85E3DA
3D55FDCE
3DA33615
3D634224
BC82F512
BDA8EFFE
BDBAB64A
BD40431C
3D4BCADA
3DE534BD
3DD6134D
3C2BEAD5
BDB85F8D
BE0A821F
BDBD73C9
3CE14BE0
3DEF5126
3D41BA80
BD635C5B
BDB7FAE3
BD4C7B03
3C4C0BDD
3D8553AC
3D634B94
BC432A8D
BD8A82A5
BD513405
3BB5AA71
3D2C9C0B
3D6A68F5
3C88DD1E
BC170718
BD33E469
BCD7B203
BBFDB8FE
3D2F837B
3CA83D36
BC5B4891
BD0B5FE5
BD3DE721
BCDF633D
3CD55608

