29FC
3109
2C70
AEE1
30D4
AC81
24FA
AB32
32E8
AB9B
10F1
A8D2
2F53
B338
A847
328F
1BAB
23EE
AB9F
2B56
280E
A875
281F
B068
2819
9E33
2B3F
341E
AE20
2AC8
A17D
ACE5
B0F3
2DEC
2A08
3335
2A18
A8A6
B61C
28F4
21F6
A8CC
2D43
B179
A73F
2726
2154
A8B2
2C4A
A71E
B018
9CED

