1944
331A
A66F
A90A
1BFC
AD08
9BC6
2C05
2ED0
2B79
B0B7
2C16
3135
A3A8
B545
B075
30F9
2173
2CCA
A0E4
A6AC
A434
AE5D
AC42
A613
25C3
B23E
AEBE
2B3C
2C26
34DE
AD7F
2B41
AD0F
ACF7
AF51
A68C
2CF4
20D6
2BA4
A620
15AF
A576
30D2
2DB1
956D
1F64
A3B6
A46F
2953
AA38
AF08

