21F8
1C73
24E1
30CD
B076
A946
AC29
B103
B1C5
A007
31D0
A194
2EC4
2970
2C65
2875
B0DD
A148
A072
1D18
A803
23BD
2FAB
A515
2CE9
A601
B1C9
32A4
9531
2A90
AA5F
98BC
27FE
25ED
B044
9929
A511
ACCA
B221
A6AB
9C91
2FA8
2851
A47B
2970
2D5E
B1FF
21F0
26FA
3377
31AB
AB23

