22B5
98B6
AAF8
A852
2F76
B23A
2DFD
328F
2A8E
AB47
B1C0
2CB1
A612
AEA0
2216
2047
2034
2CF9
194E
AD16
A32C
2D20
AF8D
AE62
1701
944D
2FC0
AF83
9908
30A9
2C31
2888
A8A8
2CA5
201C
ACE9
1D01
33D5
2F13
20B7
9F92
ACF1
27A9
A567
290E
AA85
23D1
AB00
2CEC
A807
AD2D
A9D5

