AA6E
28A3
2FD2
AD07
3241
28DE
2C48
2963
B331
AFDA
2B7E
1F49
ACFE
A852
3123
AF7A
A06E
A215
ABDA
2454
2D5D
AE32
ACDB
AE10
247B
1B0B
A693
AC79
28DD
A9AF
AC40
22D1
AD75
AD9A
2C3F
2B13
2C93
B0AC
A232
AFE4
A8CD
AD56
3008
2EFF
AA5D
AA21
A4FC
A828
A565
AC0A
31E0
2D94

