9792
AC16
9F55
24C5
2C9C
AE30
9574
9951
98AB
AF88
3213
B041
A8B6
AF79
3429
2F21
A4B4
AF0B
AC65
2ABC
258A
2853
ADBA
316D
1539
21C0
AA2E
2D4B
ACCE
A626
B150
2E43
AD12
10E0
307A
325F
230B
AFAD
25E1
AD67
A6F9
2177
2DE2
AE1F
A932
2868
21EF
2923
A48E
B01C
2FDF
30DB

