A7B5
2F12
2C0C
2CEC
B41D
AB3D
AE82
AFF6
30E0
B09D
AF6A
2733
A98A
AC01
AE9E
AA32
ABEE
A579
2A60
18CB
2C4E
A637
2502
ABDB
AA12
A378
B09E
A09F
AD54
A4E4
2D87
27FD
307C
2F18
A93C
2F42
2703
2CB7
288B
ACF5
2BE8
3185
3102
A1DD
17FA
27E6
AF87
2340
A9EA
9C0D
A977
2C02

