ACAA
2E62
250E
ADE8
2E74
288B
18DB
A433
B1FF
A8A6
321C
A708
2C23
2F26
AC4B
29F2
2D98
AAD8
AE31
2DCD
2D23
AE09
182A
AA8C
A289
A9E5
B0CA
AD48
320F
AA38
2877
25E3
ACE8
B2C3
2CDC
AF74
1F40
AD76
2C02
AC32
A698
B186
2D56
AA81
2FFD
2C18
A69D
2AFB
272B
A41F
31A6
1C6D

