2BC4
2501
AE90
2220
AEB5
A524
272A
A9AD
AE62
B226
27D0
B178
2DC7
B145
AF83
3420
AD98
3097
2BEF
AFA6
B1EB
2A36
2A02
B000
B1A1
A8D9
300F
27A2
995A
2E32
2E96
B0FA
3099
2EBA
2EE9
B06B
A113
1F92
AC41
33DC
2AA7
2F85
337B
B249
24ED
9BC1
2595
1660
A425
AA59
29D3
B080

