A4D2
B039
A9BC
AD61
2D02
AA3B
1E3A
A143
33D6
B296
AF7E
30D2
AC52
3191
A988
A234
2940
2332
2CBA
9460
20BD
A64F
AE06
3167
ABBC
A5F0
2BC9
B029
A8DC
2954
A2B7
92E2
21BC
AEA7
3081
B3DE
9B2A
2FE8
3298
AAC7
2A72
B05D
2DFF
A642
29B7
AD83
2873
AEF4
2CDA
B175
B38B
24BB

