A484
2FA6
31F0
A70C
AC54
34EB
2CBA
AA92
AD7B
1927
AAEC
3052
2F29
2267
3033
AC64
264F
B2AE
9905
2DA4
A66D
B133
2927
ACFE
2102
2861
310A
AC72
ADCC
B34C
B299
AD15
2A67
267D
2C2F
3016
2843
3108
2DC5
2711
AD62
274A
2963
2793
AD5C
AFAA
18FA
1DF6
2CB3
2853
3143
B0D2

