9D8C
23E1
A9AB
25FC
1CA4
B15B
2A69
2C8C
2943
B0A6
A704
AC08
3017
AE3A
2C91
AA2F
2C9E
29D5
AD5D
A645
29F0
AA7C
B136
2329
3010
2983
AD74
983B
1A0C
3190
AD79
A80D
AD76
2389
2DCA
30CC
9F1C
24DB
2D24
1E5A
A832
ACC8
28E4
2F8F
AD9B
A394
AD2B
A34D
2818
2211
A9F9
AF50

