2683
2DF4
29D1
2101
9BC2
2C9A
AEF0
9F3D
311A
28C4
AE01
2471
2CB3
315E
ADB4
AA77
1710
AD07
A61C
29A3
2D06
A545
AE58
A93A
2C04
A740
B1F4
B161
1AFA
AD15
30A9
AC51
A8EC
AE10
283E
98DB
A57A
2A19
30D7
2F6E
AC3C
1D4C
AD43
2E5F
29EA
2112
AE59
2264
2073
2917
B090
B22E

