A823
2256
AEF5
AF13
A4C7
B19D
A86E
30BE
2D93
3020
1E78
2404
1555
AF55
2E38
3098
2B5F
2D56
2DCA
9E15
A7CC
2C4D
AEC3
2D5F
ACD1
9D51
2CEC
2EAE
2B43
30D7
B139
A975
2462
1E11
2CF9
B116
A967
AF3D
AC28
2C1A
27DE
ABDE
AE97
B04E
297E
2B33
2D24
24CD
26CC
AD33
2B81
AC08

