AF9B
3054
AC9E
B082
2B96
B112
AABE
2A33
B0EF
AF60
1E2A
2C1F
2A41
930E
A8C7
B22C
0A29
2441
9C1F
AA40
2434
28E4
A40C
B12F
AAD2
1423
A0F8
A87D
2F33
31EA
2D91
AB7C
AC1E
ACC4
ADC3
AFC2
AC8E
288C
ABDD
2CD3
A93A
AADC
28E6
30E7
AC11
AEF0
2C42
2D4C
18AC
2D38
2D0C
AD1C

