3161
2F5F
99C3
AB48
ABF4
AE55
A6A7
28B7
2DE1
2E9C
2ADC
2916
A6EB
AC61
AA73
A921
1D75
2D62
2CBB
2CDF
25B3
AB8D
A833
AE91
AD46
A6AA
2D3B
2CB8
28E2
A647
AD55
AC87
AA79
2918
2DFA
2E9E
2D98
2957
A8EE
A68F
AC17
ACB5
AC06
9CAA
2717
2CC3
2DE2
2CB1
1FFD
ADE5
AF92
AFF8
2299
AD6B
B0F3
ACA7
AD09
A35B
2CFD
2CFA
2A36
25F1
A496
AE9D
AB05
99A5
2154
2C64
2A14
2E99
2C56
A145
AC07
A58C
AA96
20F4
216F
2F1A
A129
AA13
AE07
AF72
A82B
A3BB
2C4A
2EB7
2D96
287A
AAE4
AF54
AC28
A9CC
A86F
9F0C
2819
2DCD
300B
2A3A
AB41
ADD1
AE89
AF61
1AA1
3034

