2CC5
2528
AB7D
AE95
ADC5
A822
2562
2DCF
2BAC
2939
24B7
A0E7
ABAA
ADFC
AC7A
2931
2DF7
2DD7
2C8B
9831
AC72
AE3D
AC88
22B2
2D19
2C0F
A0B2
A761
A5D2
A844
A4FC
A2A5
257B
2C6C
2B2D
290E
17C5
AB38
AA96
A948
9E10
2633
28FD
2947
2C18
2C70
20AD
A6A4
AF8A
AD63
ABDA
2B37
AC30
AEAE
AAFF
A966
2C39
2D6B
2D23
2840
A1A9
AA6C
AB71
AA86
AB15
271D
2AFD
2D4F
2CBF
2632
AD93
AE66
AE21
A511
2D8C
2C41
2568
9C71
AACD
A79F
A67F
9CFE
27F6
29A8
2A27
26F1
A607
AC52
AAEC
AAC7
A64D
2207
2948
2855
2699
2989
A072
A4E2
AD23
AFDD
A9CA
2C5B
2D6A
2C16

