250A
3168
31F1
2BB0
ACEC
B087
ACA5
26D5
2D05
2C72
9FAD
ACF7
AC06
A516
2D1F
2EFC
2B9C
A893
AF3F
AED2
AB00
2AA0
2FDF
2EB3
28B8
AC92
AE9B
A083
2CA0
2D9B
2CD9
1C87
A9FC
AA95
A87A
A4C9
A4CF
9460
2688
2C13
2C30
2720
A92E
AD11
AD88
A694
254E
2B14
2B8F
2947
2529
16FA
31FA
2E0C
AA6E
B0BB
B048
A518
2CC7
2E8F
2891
AB78
ADDC
A83F
29F2
2E11
2C72
A73C
AE45
AEDE
A9AD
29D9
2EDC
2F7A
29E1
ABCC
B06C
AFB6
2CF2
3019
2D22
087D
AB98
AD21
AAAB
9D84
205A
27C8
27A4
2AE1
28E3
22CA
A6D2
AD2D
AD58
A3F4
299C
2D22
2CB4
2756
9D32
A7A3
AA8C
AD94

