29C1
2E02
2C5F
29BB
288A
2A7D
25E6
A660
ADF4
AF71
ACA3
2178
2C86
2C78
2A09
27F0
28AC
22F0
A4FD
AC1D
AE31
ACCC
A8A8
2401
297B
2B62
2D95
2909
A847
AF8D
B073
ADA9
21BF
2D02
2DA8
28A7
254B
286F
29CC
25EA
AA30
B00D
B051
ABE4
2B82
2F0F
2E71
29B2
23B7
2252
2353
A98D
3070
2A22
9BAB
A58B
A19D
A6BD
AC78
AE69
ABD9
27D2
2DCC
2F51
2BB7
2175
A62B
A6F9
A893
AAB6
AC7E
AC36
9D6F
285C
2C9A
2CF8
2C3B
28F7
AAFA
AF73
B025
AC9A
256A
2EAE
3006
2CB6
2230
A785
A329
1697
AA1E
AD41
AEFD
AB7A
2ADA
306E
303D
2B7C
A6ED
AC3D
AA27
A6B1
AD1F
AE85

