B155
B034
A43C
2D2A
2F2C
3017
2AC4
A72C
ADFC
B023
AD39
A66B
2AA6
2CB2
2D60
2BCB
1D38
AD18
AE14
ADD7
A7EA
282D
2B02
2EB0
2CCB
1BB3
AE9C
AE56
AB59
27EC
2DC5
2EE7
2DC6
226C
AD56
AFDC
AFA5
ACB4
2869
2CBB
2EB0
2E04
29F9
9FD9
AA85
AD63
AE92
AD7F
A363
2EFD
30FF
309E
9398
2E08
313B
2F33
2C55
A6B8
AE2C
AFBC
AD26
A27E
2A55
2F24
2CB9
25DB
A4FD
ACFF
AD58
AD6B
AA1E
2863
2D48
2B5C
2AD8
A485
AA94
AECB
A467
2975
2E42
2F63
2BE4
2509
AC54
B035
AFC4
AA6D
2AE0
2FDD
2EB9
2CC1
24A3
A7C7
AD41
AE74
AE02
A8D9
2ACB
2DD2
309C
3038
22E2
B014

