A389
A06C
1B77
1DDE
2053
1C82
8B2D
8F8E
9508
0960
8960
9A66
1938
8FC8
1C0F
1785
1558
9724
0F79
981C
9EAE
9CC6
8C75
1C07
1971
86E2
17B2
182B
98E5
A008
9AA9
8315
963E
197C
9580
1886
9461
15C0
9500
8981
1EC2
162B
1BE3
9A40
9DD5
9AEC
91B6
9650
869E
01A3
9301
105C
1D1B
20AC
232B
1DDA
9C82
95F8
9D35
8EA7
1772
0FC0
1038
9940
180D
1A01
2172
8AC0
9CE8
98A9
9EF8
14DA
1578
1822
1A32
1895
96D2
9876
9770
83EF
9C8C
9895
0EB3
1CE9
1034
15D9
0971
1B05
9CAD
1036
17FE
9542
1C92
1889
9D32
99B9
9CC3
1971
100E
9456
15EF
1BBD
9C6A
9A40

