A895
AA15
209C
A3DA
A89B
A7BC
203D
29C7
2C3E
25D8
AAF0
AEB4
AC09
A5FD
2A0B
2C18
25AD
A67A
9CD2
2926
248E
A78E
ACA6
B01B
AB90
2A8B
2F1A
2B8C
AABF
B04A
AD39
AD09
1802
2ACB
2DB7
2E05
2B12
A5D8
ADC9
AFA5
AD10
1848
2D3D
3046
2C1D
160C
AE9F
AE76
AA78
1DF8
289B
2C37
A20A
A54C
202D
26F2
20EF
287A
2822
258E
A747
AD22
AC9A
A26B
29F7
2D65
2A1F
A5CD
A67C
A229
2175
1D1E
AB3A
ACFE
ABE9
2945
2D52
2E55
AD13
B01B
AEE0
AC13
29CB
2D87
2C24
2D19
26A7
A610
AD3D
AE7C
AD63
1CE6
2E90
3063
2DDB
2568
ACAB
AF49
A8F8
2265
2C9E
2CE0
297F
230B

