26E6
A992
AB67
A8B3
A2EF
1E71
2067
2288
296B
2B35
2630
A966
AE6C
AF34
A99A
2A92
3029
2FDA
28EE
AA5C
B01D
B00A
AB77
25A4
2E07
2FC3
205D
ACFD
B042
AFA7
A7A3
2C28
305C
2FEC
288D
ACE5
B094
B038
A9E5
2C6A
30AA
3076
29D5
AC5C
B10F
B074
A8EC
2D9E
311B
2F39
A15B
AF38
AC69
ABB5
A376
2866
2823
2638
2531
25FC
2162
A633
AC83
ADF7
A89E
2A0B
2FD0
2F9A
2A51
AC56
B01E
AFED
AA23
29BB
2EF8
3029
2C73
A24B
B053
AE74
A423
2D07
3078
2FB1
2569
AC7E
B09A
B01C
A924
2CE5
30C5
3081
2A5A
AC0D
B0B7
B094
A9F2
2D10
316E
3066
25EA
AEFB
B0CB
ACAE

