28F5
AB56
AEAE
AE46
A6E1
2C1A
2FC1
2E53
21A3
AD36
B032
AE78
9342
2CD2
2F31
2C66
A0D9
ABF8
ABDD
A46D
A00B
9FC1
91C0
2443
2B84
2B27
AD71
AED2
AA15
2BCA
30F1
2EFE
A4C1
B07E
B163
AC9F
2C3A
30B5
300E
28DD
AAB5
ADB9
AD57
A9C4
A566
2857
2C86
2E7D
2CCE
A299
AFB7
B08D
AF39
AEE4
A6BE
2C60
2F37
2E11
22DD
ACCD
B006
AEC1
A2E5
2D4C
300B
2D88
9ABD
AD68
AD67
A963
222C
283E
2471
2434
278D
28E4
9A12
AB26
AC2A
28B2
2F9C
2F83
2605
AF00
B19B
AE0D
2930
310A
30E4
2B1F
AC7A
B01A
AE2B
A84D
25A6
2C1B
2CC9
2CDB
2BB5
A375
ADC2
B033
AD99
25E9

