1953
1F82
1ACB
151C
9EE8
9BEB
A254
984B
996F
8F31
1E15
2172
1829
962B
A049
162A
184C
152C
1327
A140
920C
96AF
1221
2144
14BE
9A02
A4E1
9ACE
1C85
228F
2258
8B2D
1BBD
8D9A
9C84
1A97
94FA
976B
1DF3
1BD6
1AFC
9827
A006
1296
22E9
2224
9EE9
A4F5
A521
94DD
259F
2624
24CD
1EBA
145F
A0E9
9DB5
9CCF
1856
16E2
202F
1F61
21A2
16C1
9E30
9D38
9BFF
1EF5
1ABE
1CCA
9DB8
0864
1707
2187
1642
9DDC
A194
A099
1CC0
1F0B
1DBE
96A8
9CE7
9DF4
9A60
9A98
8D0C
0AD9
1D1A
A078
9C05
8FC8
9F6A
A03C
196E
1D89
14BC
A23B
A2C7
9FC2
232C
2787
231A
A013

