168E
2319
2020
1B84
A021
A1F3
A346
A10B
1815
20FD
21A3
2032
10C9
9D6C
9F5F
981B
9522
9ADB
9E5D
1A76
980A
8DCD
15EB
973B
13A5
14CF
9B46
9CDA
94F7
15A6
1DBB
22F3
1A2B
17CB
9D21
9E5D
9FFE
9E4C
9475
156E
2160
238B
1F1A
9882
A348
A247
97EF
1DC4
218A
2172
9B79
9B41
1FCE
1C5E
984C
A345
A229
A09E
1F44
21CD
2136
1DE6
99EA
A1F7
9E21
9EF5
9390
0A42
1125
192A
99F8
1ADB
1D25
9A9A
1A4C
15BB
9B24
8D81
00DA
1BA5
1CE2
224F
1429
8C75
9C6A
A15F
A154
0AC0
98D9
1AFE
2069
1F6F
1E95
8746
A165
A3E1
9F22
1B84
2362
2232
961C
9D61
A1A6
9FF6

