3108
2C9F
A889
B00B
AD3E
9800
2D3C
283D
9C0F
A759
14C9
28A4
2803
A251
ACBB
AD9E
A96A
2B84
2DB8
2C12
2505
A5C4
1CDD
2256
1F62
A84B
AAA8
28C4
2DEB
2ECD
294A
A8A2
AC73
AC0D
AA51
1C27
1DB0
19C6
2751
273C
2508
209A
1CEF
26B0
A429
A49D
ACBE
AC1A
A1AE
2E7A
303B
2DA7
1E26
AD76
B023
A880
2C53
2D82
27BB
A535
A8FA
A2B2
2928
90B4
A8A9
ACE3
A868
2882
2E7E
2C39
2477
A4EE
A9F7
1EA1
23DD
9FCE
AADB
A9FD
2CF8
2F65
2C68
A8EA
AD2C
AD7B
AA46
2285
2756
2641
2472
1F6B
2A00
180A
99FA
1AAE
A142
A61F
A93E
A9B0
1A33
2C89
2FBE
2BF4
940D
B003

