A8A5
AE35
AC54
283E
2E5D
2D6B
20B1
AD1C
AE7B
A55D
2BB7
2DE9
29BC
A9E7
AC4E
A932
293A
2B0D
22DC
A692
ACFB
A4A8
2B1C
2D25
28C5
AA8D
AC90
9847
2D12
2D1D
2869
A938
AE2D
ACC7
150E
2B7E
2E04
2ABE
AA26
AE1E
AD51
A0F2
2D3C
2E50
28A9
AAAA
ADA6
AA35
24EB
2AE8
2900
9F0D
AE13
A6CB
2CF2
2EB8
2845
AB5E
AED0
AB45
272D
2E9D
2C41
A59B
ACE6
ABE2
2024
2AA7
2ACF
A3B9
AA84
AAD4
2143
2B8B
2B4C
1AC7
AD1C
AD34
2B36
2EE1
2B99
A476
AD35
AE3D
A855
2C3C
2DDC
2B97
A3BC
ABEC
ADEA
A53D
2B26
2EAD
2B39
A2F6
ADD0
AC23
A0AB
2A2A
2CB3
250A
A9BD
AB1C

