3CDDE58E
BDC14F05
3DAC2B52
BCEEA20A
3E04A98B
3EA599AA
3CFAD081
3BBF6E3F
3E43E319
3D73E9A7
BE359210
BA4069E8
BD4622C4
3D2F9336
3CCF312B
BD3A786C
3D915CEA
BCF68DFC
BBB545C8
3AAA0019
BD984988
BB468230
396CFA6A
3DE32096
BCACA362
BD59BC34
3DE8A505
BD71209F
BC29EF52
BE83BF51
3D33BB84
3DB4C22F
BDA64BA9
3D1BA2BE
3D54AA11
3C8791C5
BD31DD5D
3E49ACBD
3E089EBA
BDDF4773
BD722292
BD01E796
BC8EB67C
3D3D2C7C
BD4A1AD6
BD4EE17A
3DC4A7B5
BD47485E
3D0CA2DB
BE110386
BDECBC8C
BC0D3F18

