BD9546D4
3DCC3E32
3CA1C476
BDBD0A67
3DCE8E1D
3D116FCA
3B1B62C7
BC86594B
BE3FDE72
BD14C554
3E43708B
BCE0F1B2
3D846067
3DE4BD34
BD896C40
3D3E37DF
3DB30F06
BD5AFAF8
BDC621B8
3DB9A283
3DA46F9C
BDC12A52
3B054CDB
BD518E32
BC511BE7
BD3CAA76
BE194C01
BDA90471
3E41D430
BD470FBF
3D0EE393
3CBC536D
BD9CF249
BE585B18
3D9B773A
BDEE7C4A
3BE807BC
BDAEBF66
3D804B7F
BD863498
BCD30AD4
BE30BBB2
3DAAC109
BD50257D
3DFF9E7C
3D830B9E
BCD39B89
3D5F5276
3CE5625A
BC83DBC2
3E34C7B0
3B8D972D

