BDF36CDF
3E0A8C58
BD93B96B
BE1040C0
3D72CD7D
BE223AB0
BD57B310
3D466B1E
BE1DE2EF
BDEBFEC1
3BC53B08
3D83E100
3D4811B2
BA61B4BB
BD18EA7D
BE457A35
394521DE
3C881E47
BB83EC89
BD47F024
3C8676A7
3D1C8323
BC81754B
BE25D5B2
BD5A3D2E
3A8461FA
BC1F05EA
BD0F9A07
3DE6527A
3E3D32C6
3DB22EA1
BD6F77F2
BD83C4B1
BD987F88
BDB85272
BDF847F5
BD91C326
3D1184C2
BD7BA238
3D9A58F7
BD2743A6
BD5B76B4
3D1CBCCF
3E1CD1C8
BD821C8A
BDDDF00B
3D8833C6
3DA981BF
3B157CD4
3DA70542
3DA17F41
BDA370CE

