BD2CC815
3DE5D181
BDA913A5
BD94384C
3D9CC07B
BEAC371E
BD5F8F47
BC2C7DA2
BDE1BA80
BD99B2C4
3E216B12
3D1C25D0
3DCD19DF
BD862132
BD17C5EF
BDBBA5E3
3D73EFF2
3C58ADAC
3CEFAC60
BC62541E
3CE28AA4
3CE1B4BB
B9ED80A1
BE05DAAD
BDC3686A
BC8FFFBD
BD8C386D
3E1C3DEE
3DCC204F
3E917CA2
3B25375D
BC990AFE
3C0433D7
BC94FF00
3B369553
BE69D020
BCEE75FF
BDBD1B2E
BD93A366
3C07B13A
3D4F3344
BDD9F6EC
3D9DFEB9
3E130C24
3DC5AD54
BCEB2075
3DFA49C3
BBAB92C0
BB1070FC
3DB3F39D
3E0B15B5
BD8C5543

