BD5F16B1
BDF1172F
3C1B951C
BDB2D341
3E2F76E6
BE1D35EB
3BA0A958
3E0FF4FD
3E21D68C
BDC8B439
3D491F2E
3CE2845A
3DED1A65
BD61C8A8
3DD9567E
BD8692F7
3C962281
3DC91969
BDA533B1
3D77A2CF
3DA4CF07
BC0C2614
BE34430B
3DFD5B25
BCE37154
BCE0A201
BE1FDC9C
BDB069A5
3C8DA5DB
3DB15161
3D02EEC8
BC92AB69
BE189375
3B828C37
3D4387DF
3D7A93AF
3C0D8666
3C6160D9
BC712C28
3DA4028E
BBCBC05D
BD971540
3E032C1F
3D48C500
BDA0EBEE
BDC6DDF0
3DF38DE7
BD72D906
3D4D3283
BD7E0DED
BE099D88
BDFE364C

