3D0F82F5
3D0A48F9
BCAECF20
3CA77E5F
3CD72368
3DC858FF
BDA07E5A
BD1FE543
3E341E15
3E1B8BF0
BDC092CD
3D5E19FC
3DA90A35
3E6F7B18
BE56512B
3C2493C9
3D8345D0
BCB3FC87
BC19DCB5
3DC3D4F1
3AFD3B2A
BD2005C4
BCE70C13
BC275CD1
3C2921CD
3DA6C00E
BE6AD7D8
BD4090B4
3CB47A5B
BDC3DEE8
3E137692
BDD48909
3DADB941
BDE9246C
3D974688
BD646F15
BD10C2C6
3E0BAF53
3CC32010
3D3733A9
3D5E529C
3DCB3AAC
BD34C1A9
BBC404A7
3D8408D9
3CC14A4D
39BED741
3CFCA42B
BC26E32E
3C3D7F52
BE41E42E
BE11ADA7

