3D34B2FB
3C3EEC39
3C0533B1
3E011F4F
BDF307AF
3DE4217D
BDABBB1F
BB03558A
3D82AFDE
3C6AB368
BDB1A2A5
BD62089E
BD327675
BCEFA616
3DAEE957
BCCD67FD
BD2393EE
3BB252CE
BD4A600B
3D572FFD
3C81797D
BDE7B5F2
3D280065
3D337C9A
3D806A6E
BDA31162
3D030A0B
3D776816
BDB84902
3BD5CFAB
BDA85FD0
3DFFCB92
3D8CDD94
3D9CA31E
BE528912
3E27FB6A
3DB59F6F
3D1183B6
BE0AE1CE
BCEBF445
3C9437C5
3E1A5DF2
3D57310A
3E2D8CF4
BC70281C
3C1B8455
3C891C08
3CEB56FC
3C14E5D6
3E5AB368
BD072086
3DD95BBC

