BC9083DC
3DF4CB19
3E3DFE76
BCE1804E
BD8A821F
3E9D6CD7
3D974D59
BD5245B3
BDAF6167
3B24D2B3
BD5D7CB3
3E0A46E1
3DE514C2
3C4CEE5B
3E065DC0
BD8C7A7D
3CC9E668
BE55C24C
BB20902E
3DB483CB
BCCD9620
BE266F93
3D24E8B8
BD9FC654
3C20407D
3D0C2507
3E213C68
BD8E47DC
BDB97F63
BE69830E
BE5323FF
BDA2A023
3D4CDEA0
3CCF9A07
3D85D52C
3E02B0EA
3D086CEC
3E210B63
3DB89BD8
3CE22C45
BDAC48AE
3CE94EE4
3D2C53B1
3CF26289
BDAB85A5
BDF54FBE
3B1F40A3
3BBEB5B3
3D966517
3D0A6762
3E285D31
BE1A4A49

