BCD45C79
3C87DD44
3E2A91DA
3D39A390
BE0BE511
3E7AA6D2
3DB2B021
BE8D2EB6
BC0283D3
3E315486
3C125354
BD86BA49
BDB599AA
3DA430B1
3C54F15E
BD712B1B
3D5EBB77
BE1CD856
BBE13F4B
BD07229F
BDBF3733
BC92018A
3E23D85A
BD854CDB
3C4DAB19
3D97A56E
3E12567A
3E2D4AE4
BC6C99F2
BEAC93C9
BC2A7DED
3DE2D949
3D903298
BCDD6170
3D6043A2
BD27D999
3DBF17BE
BDE54A3C
BDAEE0F4
BDECAFF7
BCE53C9B
3E2073DE
BE5D9903
BCAEDBB6
BD605AB4
3DC6C5D2
BD12B2C0
BDA961C3
BD9BAA9B
BC8C47A1
3DFF3D7D
3DCF483D

