BE7783E0
BDED8559
3D948D3B
3E39BC77
3DBB19E7
BD6A4010
BE01C151
BD454DE8
3D6A4FCA
3DD250B5
3D1E7104
BD2F0AE5
BD8F76E6
BC3CF4E8
3D5E5AFF
3D5C970F
3C403793
BD688CE7
BD53A3EC
3B8EF77F
3CF6CCE6
3D04DCA9
BC8E453D
BD0068DC
BC095076
3D2C29BF
3C825397
BD95219B
BDBB480A
BD6088D7
3C352008
3D90880E
3D61F7D7
3CC75600
3C720642
BC13BC0A
BBDCEBFF
BCE01798
BD87368B
BD31EF31
3C213C25
3D43AFB8
3D4FF10F
BC416590
BCB4B72C
BB503537
3DA110A1
3D9C896E
BD0A7610
BE3A25D9
BE462414
BD1DF655
BC078FAC
3E2B0707
3E365ADE
3C8A3726
BE01511E
BDF55150
3B3A94BC
3DD327AA
3DB1287C
3BB0F27C
BDB35EB7
BD8EAA6D
3C3E3C10
3D94152B
3D3BC3C6
BCD2F7F5
BD89AFE2
BD111490
3CD3F5B6
3D19DBA9
3C7E4BCB
BD29D628
BD12F09E
3C937D20
3D6B3355
3D24CE81
BDABC9CD
BD82CF53
3B729D41
3DA7D4E1
3DA2A348
3CD97918
BC4F56EB
BCE555C5
BCC9EA9A
BCD1D8A5
BCFEDE98
BC8F16F4
BBEABFFD
3D5AF07C
3D650939
3CDF41AF
BCEF73C1
BD09E55C
3B30F27C
3D6122FB
3A0919F0
BDC6BDF5
BE19FBE7
BD8902DE
3DD4C2B5
3E83DC8C

