3D49D9D3
3CFD2A63
BC44D22D
3BFC3F81
3D1323FF
3CC2B51C
BCC942D5
BD81B003
BD820A31
BC9D9903
3D8BD902
3DF7B396
3D94EFCC
3CE1AA3F
BD80BD45
BD904791
BCCCA926
3CB18549
3C9B994E
BD63C85C
BD02D6AA
3CDEA466
3DC986FD
3E194291
3D8D3D86
BD522531
BE0D8A11
BD98904F
3D3D6D7F
3E0B6630
3DC64C30
3DB7D7C3
3CB295EA
BD396BFD
BD9EE243
BDCB777D
BD8F2CF9
3C0AEB81
3DB1F601
3DFB75A7
3DB89B52
BC3FC654
BDB54EB1
BE0E696A
BD7EB6BF
3B53CFF6
3DDF70DF
3DEE746D
3D66ACA8
BC8B4396
BD67F5E8
BDC4C72A
3BADBC66
BBF99807
BC73BA77
BC884838
BBC4588A
BD05E2CE
BD25C5F8
BCA0E842
3D332F01
3DD88B97
3DB6F438
3CA95209
BD9483CB
BDCC1334
BD725919
3CD206C8
3CFE62DC
3C9116A9
BCB4C3C2
BC1BBF0E
3D71B8AA
3DBD0C80
3D741E15
BD3F78BC
BDD61BB0
BE0157AC
3D907E9E
3E02AE08
3E0361DD
3D8CFA6A
BCF2A9D6
BDA81A9C
BD87F23D
BDB74C4D
BCFEDC7F
3C3D87B5
3D9E29B7
3DCE63A6
3DB526D9
3B0CE704
BDD59B3D
BE0ACE68
BDB3EB3A
BB5B163C
3DBDF5CF
3DF2220C
3D103644
BCAB7564
BDBF5947
BDBD5FDD
BD45521A
3C0EDA23

