BAC2C5E3
3AA15981
3B13C89F
B9FC2EBA
3B1C5E70
3A70A5F0
39D90E24
BB5E7EA6
3A0F2171
3B2C18F8
3AC47A18
3A0D4BAD
3B622A2C
3B324207
3A1FE868
BC1185CF
BB04D76B
3B84406C
BBF94C88
BB35AA71
BBF251C2
3C03F0BB
3C1B77C0
3B85A0BE
BBE9899C
BC334A45
3B2B7132
3BF398E9
3BDE2AC3
3ACEF673
BC0348F5
BB627E0F
BBD05F29
BB2B606B
3C481909
3855E8D5
3A078748
3B0637BD
3A1528F2
3ABC9CD4
BC1491F3
BC427A63
BBC01E69
BB8301A8
3B39DC2F
3AB3F63C
3C262670
B9F3CB3E
3B99D884
BBE3E6C5
BB56E47E
BB9906CD
BB7D7E46
BBBD1AA8
BBBF6E3F
3B7A8B4C
BB94D50F
3B7F327B
BAEF5665
BB1949E9
38E27E0F
3BA161E5
B8B88CA4
BA324207
3B31BBCF
BBF79852
3A9D4952
BBB4202E
BAF84018
BB91B824
BB332CE9
B990B418
3BA42AED
3BE0FC2F
BB54AA11
BB675793
B96CFA6A
BBCAC4B5
3C621533
3B668E3F
3A85D313
BB4E3DE6
BC17C3D7
BB006291
3BE53650
3C06EC18
3BCAFF6D
BB7F10ED
BBB2C83F
3BE1693C
3B878748
BB364170
BBA832BA
BA1B3073
3B6BBBA5
3C1906CD
3BF605AB
3B47C0F4
BA02CF53
3B751ACA
BAE86402
BBC521DE
3ACB07D1
3C1EBA6B

