BD1729B3
3D09EDC0
3C090929
3C84295A
BBA704BC
3C398C7E
3D2514C2
3D4D1740
3B1E236C
BBB0E1B5
BD28A71E
BD5A5871
BD035EFA
BC577319
3D3444E1
3CC5F7C6
3C1D12CB
3BA7C5AC
BD0F8402
3D2F07C0
3D17518B
3B03DBC2
BD931983
BD8DC2B1
BD04B7F6
3BE57109
3DA5CA2A
3D3B7846
3C0D64D8
BCBE186A
BD441AAC
BD19EF95
BD6A0019
BC3F6A0E
BC852D66
3CCF7CAA
3D2F3A15
3D00DA1B
BB6D5F14
BCC436FC
BD180B24
3CBFE7E2
3CDE310E
3D000B89
3B6D9168
BC382C2C
BCE1E710
BD50E022
BCA975B0
3CE5082D
3D60D34A
3DA75AB8
3C669AD4
3D850375
3C8A808D
BCB1337F
BBF3A9B0
BA24E37A
3CC7FDC6
BAED80A1
BD26E115
BD947F99
BD54940C
BCB0B9DC
3D8C8712
3D45CFEE
3D0A8C15
BC27C17B
BC8C62E5
BC77F8CB
3CEE978D
3C418F82
BC62584F
BD39CA5C
BB7062D4
3C97F844
3D80999E
3DA3033A
3C2E89EC
BC7FC116
BD84FB98
BCAF7F4A
BD02656B
3AAD46F6
3C51BF7B
3D0D92FB
3C817B96
3CD5B467
395801B4
BC48BC9D
BCB04CCF
BC83FF69
3C929ED4
3C6FD86B
3B6B7889
BD23C42A
BD6BFA8F
BCD50870
3B677920
3CB5A20E
3D7A68B2
3D4AF4F1
3C968D76
BD565F52

