3DBA1661
3D9B213E
3D2CC708
BD695FAB
BE0F8488
BDEF2841
BDA35BD5
BBC8CD64
3DAE1E71
3DFAB3AB
3DE53975
3B20E411
BD94FDF4
BDF3D7D4
BE09E98E
BDA49CB2
3C5EA466
3DA5E460
3E038D1E
3D9F85D7
3C96C1E3
BD04DB9C
BDF3CAB8
BD9C38B0
BD276641
3C7FC548
3DADC5D6
3DCFC58B
3D8FD5CB
3CA6D8B2
BD65D4A6
BE0A2F06
BE0F1B26
BDE11C2A
3B7722E2
3DD6AC64
3E00E2C1
3DB1FAB9
3C9554FC
BDBC7A3A
BDE0EA5B
BDB146E5
BD105F29
3A9331A1
3D6555C5
3DB13B5C
3DD95033
3D62CA9B
BBCB1034
BDC213A1
BE16D86F
BDEADEEC
BC3C382A
BD8E9036
BDCE3583
BDF29670
BCAE48E9
3D9B41C0
3DE4BA0F
3E103B3F
3DC56C51
BC4E24BC
BDE6E43B
BDE8754F
BDF59792
BD989F84
3D66EFC3
3DE7863C
3E128BF4
3D12B90A
BD2D2BB2
BDD55C53
BDE3126F
BDF620EF
BD05F06F
3D0CEA29
3DFA4B55
3D863411
3D8D5CFB
BBE2E2B9
BD696D4C
BDB36AC6
BE008744
BCE1804E
3D504E62
3DE659D1
3E09806F
3D9F67F5
BBFFB8B2
BD8474DA
BDFE4E6A
BDB203A3
BB64217D
3D8301A8
3DC70B8D
3D8667F9
3D072D1B
3C69C454
BB11C087
BD8CAAB9
BE077EA2
BDB18A01
BC44CDFB
3D933659

