BDDDF330
3D766E87
BD845027
3C7AA476
3DB5896A
BE3878FB
BC36F5CB
3DCB7889
BD30FBEC
3DBE9AF6
BE0784EC
BD72E8C0
BD3F79C8
BE12CE89
3CCF3FD9
3DEC9EAA
3C8E7360
3E2B6998
3D966D7A
BDBEE2CA
BD6D2CBF
BC9F1AE3
BE1F1F58
BDE2680A
BD82A77A
BCA02321
3DFCCAF7
BE2664D4
BDB1C21A
3E3CFE9B
3D0A2553
3D75781C
BD413A93
3E199C39
BDE3CD14
BDD0E12F
3CFD1351
3E0D51F8
3E44B125
BD035CE2
3C2A1D75
BC0038A0
BDD1CA7D
BDC2E3C5
BCDB91F7
3D8B0425
BC3ACF74
BCBDD335
BDE3EF28
3D7C419A
3CA0A527
3E1F84CB

