3D8D2CBF
3D490A35
3C678184
BDD5FE54
3E194C01
BE503819
3A81E471
BD289657
3E0DE43F
BD3AEBC4
3B9E4D5E
BE0E02A7
BD99B888
BE15C422
BE3F61AA
3DC0FB22
3CF1E8E6
3DD3BC90
BD575F2D
3D4D79D1
3955E8D5
3D34A98B
BD0F2BED
BC6E7818
3D7AFD97
3D20B3D5
BE09CD81
3EAFB7E9
3CB23572
3E572ABF
3E2F46AA
3D4F440B
BDE5A2D7
BD274D16
3D7B1184
3E55F02C
BD1903A7
3D6B80ED
BEA6453D
BE11CF78
3C9E236C
BDFC27E9
3DF94962
BD9C853C
BD1DC400
BD305532
3DA5058E
3AF75537
BD57D6B6
BCE10ADD
BE08E001
3D4E9C45

