BD045AA3
3C4ACD18
BDDE9318
BDE254A4
BC98D25F
BE339B02
BD0DB164
3E17C632
3DB26D8B
3E03FA2B
3BCF073A
3C808C82
3AAAA7DF
BDEA9718
3DC6F7A1
3E12F599
3D6BD6E9
3DAABD5E
3DB9378F
BBC2938E
BCF97892
3D89ACBD
BDD867F1
3DABE404
BD9A1B19
BBAA21A7
3D9D7ECC
3DD5C6C1
3D685EC4
3E1AED57
BE27225B
BD2E935C
3C8C38F3
3BC21E1D
3D9F1E8E
BE22B7FE
BD2CD8DC
BDE79BBB
BD84F766
3D83369C
3CFBB2FF
BD7BBD7B
BDD2DCB1
BE09C993
3D2FC159
3D665493
3DA4894C
3C99AE92
3CD97D4A
BDA662BB
3D70142F
BD810BE9

