3C8B88CA
3BDD82FD
BAA88F00
BC369DB6
BC4C1CA4
BB4A600B
3BE9C454
3BD3F9E8
3AB5AA71
BB7F9724
BB94AB1D
3B69A2C6
3C199136
3ABD87B5
3B583409
BC34F616
BC0815E4
BBB28523
3B8C9321
3C71F57B
3BBC2FC7
B9AE9681
BBAEF2C7
BC05BE1B
3AFCD680
3BBDD335
3B9E3C97
BC8A43BB
BC9BC340
BC4471B4
3BA0663C
3C879C41
3C749CF5
3BA686E8
BC7A5094
BC9198AF
BC28EB46
3B7861A6
3C4981BF
3BAD2568
BAB0D0EE
BC5B7AE5
B9B45AE6
3C14E1A4
3BBE7297
BB64217D
BC60DAA1
BC000EAE
BAB9DC2F
3B92E621
3C79CE8E
B9191794
BB3AD7D8
BC7AD6CB
BC639F77
BB9984A1
3B172043
3C10AFE6
3BE52DED
BA9246BF
BBE04C06
3B100C52
3AC9FB61
3AE97072
3B0461FA
BBAE2110
BB80CF9E
BBBBA98F
3B2515CF
3BBAF102
3C37995F
3B43F3E0
BBDA4CE8
BC39A9DA
BC22F8BE
3BC436FC
3BEA4229
3C1274E2
BC85BE1B
BC0E043A
BA30F27C
3C708030
3CA3AB00
3B6DE54B
BC7A8F7E
BC5959A3
BC25870E
3B11D14E
3C6C397A
3C8F66A5
3B7722E2
BABDA943
BBB01861
3B573861
3BA7A41E
3BFDEB53
BBD40AAF
BBE6EA85
BBE00086
3B45FBF8
3C80778A
3BA93F29
BBA6655A
BC4BD988

