3D5F9BDC
3E170DA6
3E0FE8EE
3D9AC797
BD18622C
BDAF13CF
BDC503FB
BCCBFD2F
3BA20147
BBE46499
BBCEE5AC
3D00CE92
3D6E8C05
3DC8BE2F
3CC6F9BA
BD3A3FCD
BDDE94AB
BDC5CFEE
3C047F56
3D9E3865
3DD93576
3D15464E
BD3BF61B
BD3EA0BA
BCA441FF
3CB020C5
BC65AFF3
BD2D2ED8
B6EAE18B
3D86759B
3D7DCDF7
3C9A261C
BD7761CC
BDBBDF09
BD462A1B
3D31F57B
3DDE34B9
3D79CF9A
BC918C19
BD9C243E
BD10C5EB
3D38B589
3DB51E75
3C6043A2
BD8F1887
BE0E65BF
BD8C20D5
3DA82ADC
3E341206
3E3F587D
3D3383F1
BDFFF60A
3E4296B3
3DBCC187
BD10E12F
BE11E604
BDE5FF1E
BD4BB6ED
3D17E23F
3D44AB60
3CFA9C13
3CCE50C6
3D352EB6
3D5B9735
3CB382E4
BCF7C676
BDDE5647
BDBB1E9F
BC8D60A6
3DAC9AFE
3DCD3E92
3D849ECB
BCF0FBEC
BDC69729
BD818266
BC10B418
3D3215FD
3D230878
BCE1F7D7
3A81A155
3D3D0071
3D18958E
BD01A693
BDA3211D
BD7E74B0
3C356FB9
3DC49A99
3DA67CF2
3C99A62F
BDB2DCB1
BDB7531E
BCAB53D6
3D427632
3D766F93
BC7A4830
BDCB7671
BDBA0AD9
3CFD6F97
3E08A8F4
3E1A4053
3D43A861
BDCA18BD
BE5C1EBD
BE32DBA5

