BE1A4F44
BDAE453D
BCF0BAE9
3BDD8B61
3C9FE64F
3D0880D8
3D6C7EAE
3DCB7B29
3DA96031
3C90B418
BD68B2A7
BDB9E7B8
BDB98634
BD5360D0
BC81A155
3CDD2F1B
3D6F4491
3D9897A6
3DA9D7BA
3D559C49
3C01A155
BD2F5126
BD9DC93F
BDBA3C21
BDA24DD3
BD2AA9F8
3D7446FA
3DAD4DC6
3DC0589B
3D6AD81B
3BD466F5
BD25F634
BD89DC72
BD8E3CDA
BD32C626
BD09A134
3B21F080
3D3606B8
3D9518B1
3DBEC99F
3D91A976
3BDDF86E
BD587F88
BDB203A3
BD77D524
BD3E2824
BCC02081
BC87CE96
BAD3AE68
3D381733
3E043D04
3E1E1C9B
3BFFC116
3D8713F0
3DA549B6
3D75C4A8
3D412DFD
3D52DCB1
3D262670
BC4B85A5
BD8C17EC
BDC43138
BDB2E1EF
BCE35E74
3CAE4F33
3D92E621
3D912BA1
3D958080
3D38C21E
3D0A7B4E
BC94CA92
BD912BA1
BDBB3AEF
BDB3165D
BD666BA5
BA61B4BB
3D52BB23
3DB78A2B
3D859F2C
3C49A77E
BD13EC46
BD9EB314
BDB9378F
BDA1EB42
BCED6777
3C0AAC97
3D54EC20
3D84E054
3D97DB6E
3D8070B9
3CDC69F9
BC6E2C99
BDA10E88
BDE326E1
BDA4C6A4
BCACF95D
3CF70154
3D2E49F5
3CD538AC
3D210BE9
3D86E43B
3DC95853
3D47485E
BD32BECF

