BDA9A911
3D13C255
3DFA75CD
3DDCE28F
3D23CFB3
BD4929AA
BDD74EEC
BDBB40B3
BC8D9D77
3D560200
3DAF4517
3D4B007A
BC0CB8E1
BD9A3D2E
BDB3F078
BD1FD9BA
3CDDD8F9
3DD0AC3B
3DD06141
3CB80453
BD8828C3
BE112D77
BDE709FA
BC3F876A
3DDE1112
3E18C79F
BD3381D8
BDD276FB
BDC07C42
BB9CB253
3DA45FE1
3D90E454
3C93293D
BD475819
BD882518
BC503969
3CF4BE83
3D5C90C5
3D379746
BBBE835E
BD29BE0A
BD0F1F58
BCB686A5
3CA54C55
3CEFDEB5
3CC6759B
BC961805
BD40CB6C
BCB2BFDB
3C8D8A98
3D5FEA81
3D5FC2A9
3DF74257
3E0871E7
3D621EA3
BD1CCC8A
BDE0370D
BDD48345
BD16BDB2
3D3E1A82
3DCAD70E
3D77574F
3B8A265F
BD55AE1D
BDA3A6CE
BD64D09A
3C81626B
3DA977C9
3DBBA66A
3D41AAC5
BD4C7193
BDE64ECF
BDD712A1
BC2A2A0B
3DB9E061
3E0B5137
3DBE4580
BCE466B2
BDF0A351
BD425397
3D652589
3DB9285B
3D4DB7AE
BC4DFACA
BD86002A
BD6492BC
3C4447C3
3D8B0AF6
3D520C07
BBB86B16
BD2D6A9C
BD6B53D6
BC892685
3C175F2D
3D34CB19
3CD8F92B
3C001F75
BD30AF60
BCA99B6F
3C5A9004
3D0C3C19
3D3F37B9
3CE04E1E
BCD73A79

