BB8F10AA
BB7E9B7C
BB63AC0C
BB931013
3B183D79
3B81CB47
3BA265F1
3BAEEA64
BA5CFCC6
BB6B67C3
BB70E90C
BB854478
BB50891A
3A8BDA94
B9217B0F
39852B4E
3BA85447
3B451117
3B1F5169
B892CCF7
BB35DCC6
BAF5C28F
BB2C0831
BADAE3E7
3A54562E
3ADC768E
3BC53B08
3B232F45
BAF5E41D
BBED56B0
BBF2BECF
B9A17B0F
3B9ABB02
3C002C0A
3B305B7D
BBEFCBD5
BBF1A198
BBBEF06B
3B9552E3
3C2D3A60
3C03D790
3B04944F
BBCD184C
BBCEF673
BAD6B229
3B49A77E
3B163561
BACD423E
BB7A9C13
BB199DCB
3BA0A0F5
3C026677
BB0094E6
3A99E0E7
3B4D0FE9
3B37A1C2
3BA68F4B
3BBDC26E
BA9E774F
BB7F64D0
BB9AD42C
BBBAADE6
B80637BD
3B5EE350
3B1A5658
3B056E69
3BA4A05E
3ACB295F
3AA91538
39473ABD
BBA7AC82
BB3F7F06
BAB3D4AE
BA1F6230
3B2C7DA2
3A6E8D11
3B877681
3B82730C
B9D4DC66
BBFC829D
BBEEE957
BADC981C
3B3AF966
3C0B04AB
3BE2D1F2
BB8F3A9B
BBA3E7D1
BBF21709
3A50678C
3C141C82
3C175297
3B94573A
BBB4E981
BC2D81AE
BBC0CE92
B9AD8A11
3B874C90
3B0A58B4
BABB9064
BB37F5A5
3B045133
3BB7D417
3BBAADE6
39AE1049

