BDAD7061
BDCD612C
BD29D1F6
BCE20AB7
3CE088D7
BE69C561
3B58EC96
3D8C6B48
3DD4B381
3D8DCB9B
3D9D9DBB
3D415C21
3DAEA6C2
BD911A54
3D86772D
3E2FD86B
3D3B54A0
3D9DB3C0
3C9081C3
BD90BBF5
BD1692B4
3DADB941
BE1ED4E5
3DFF9160
BD490C4E
BDA12839
BD0E5D5B
BC082ADC
BAA84BE4
3E1F0F5A
BD97531E
3CDECC3E
3D07EAE6
3CCC8BCA
3D116335
BCFB4E55
BD8AD03E
BCF79421
BD807DD4
3D70BD01
3D4C197E
3AC4588A
BE1069E8
BE07503C
3D9B3B75
3D305D96
BD04955B
BCAFFB05
BD7C536D
BCA93294
BCE3ED0F
BD92DECA

