BD843FE6
3D853F3A
BE16B767
3DA234A8
3DAC0CE9
BE9E4FDB
BD8FB331
3E399F5E
3C07485E
3D8C8605
BDD77FAE
BCE63A5C
BD8A65CF
BDD87BDD
3BC70868
3D8E22A3
3B4DA6E7
3D866B1E
3D028E50
BBA1F080
BD9672B9
3D3F1D82
BDCFB118
3C077681
BE12FA51
3D6CAAB9
3D38DB49
BE82E233
BDACE0B9
3E13A323
3D203B3F
3D866ECA
BCF5946C
3D494706
BD60E0EB
BD8E95FB
B9FECDD1
3E110518
3E159F2C
BD480F99
3D991B3F
BD9A8A40
3DC86F05
BDDC304D
3D341180
3CC00325
BBE2FBE3
3C28198F
BB97FA5D
3BFA8B4C
3CCF1801
3D521EE6

