3BB4B72C
3E4C9E67
3DAEEE95
BD8E8FB0
3D9DF19D
3E36C722
BD090710
BD4E28ED
BDA116EC
3BA02321
BD759579
3DFD2FA1
BC26E32E
3E02DB1F
3B1A2403
3D8BEAD5
3D38FEEF
BD3FDB4D
3D3AB756
3D3E7F2C
BB3C7B46
BCE2F7B1
3CA311E8
BE3BDCAD
BC9D1B2E
3C8BB906
BE14F9C2
3CBE0371
3DAF73C1
BD9DBA91
BD074752
3D0D477C
3CD3FC01
BDE239E7
3D5EF955
BD928C7A
BD95F4E4
3E230FD0
BD32E59B
BDE71CDA
3BB545C8
BD97689D
BD7D4068
BDBFCF3E
3CBC9EED
BD01CF78
3D083A97
BCC3D039
3C278290
3DA8F8E8
3DEB0425
3DC0DED3

