BCCC0BDD
3AE86402
BCB36DEC
BD9DB339
3E86FA61
3DABA1F5
3C103644
3DE69058
BDCC63F1
3E2C8712
3D470868
BCCC9A78
3D567989
3DE9B068
BD2CE896
3DA89A02
3D994C88
3D78C975
BD7FD934
BD968BE3
3907442C
BD5465E9
BD947065
BD9D3BB0
BC346FDF
B9E496EE
3D926C7F
3D437718
3DA9EB20
BDC0296B
BB2D794A
3C99A1FD
BDEA172B
BDC92E62
3E175BC4
3C0537E3
3D1C9C4E
BC589CE5
BBC25072
3DE77DD8
BCFE2C56
BE9FA2AD
BE3D5561
BDA2F599
3C41C609
BD82FE82
3DEBB55B
BCB01EAC
3DE23E9F
BD33647C
3E1DD723
BD18A548

