3D15BAB2
BDE3ED0F
3D415A08
3E459AFA
BD9E364C
3D68166A
3D5B21C4
3CAE5797
3D403DDE
3D229846
3BC8ABD6
3D052C5A
BC233376
BC38E8EA
3D648F97
3E870CBB
BDC8C3F4
BD681A9C
BDA2C450
BD9198AF
BD49D8C7
3C99999A
3BCC35CE
3D8AD8A1
3DD8B3F6
3CDF19D6
BC917B53
3ACD423E
BCDD1809
BCB8FDE3
BD793CCD
3C9CBEE8
3DAE5FFA
3D2CE033
3D5628CC
3D8199FE
3DB9652C
BD32FBA0
BC8C79F6
BD97164C
BD079F66
3DC97A68
BAC8ABD6
BE6D6990
3CC0CE92
BCAFCAC9
BDD52A84
BC4F2496
3D5A554C
3BE1E710
BD82D2FE
BCB191DE

