BD8096FF
BDCAAFBC
BD70E1B5
BDAD080B
3A03DBC2
BCCEA290
3D5E85FD
BC37D849
3E2BD72C
3D06EB0B
3DE0C73B
3BC68A93
BD4A3401
3C85EE57
BE119B0B
3D44CCEE
3CB93251
3D84AADA
BC5BBE01
3C1D4D83
BD2F5DBC
BD6F61ED
3CCF1801
3DA7E7C0
BD6B2F23
BD3DC8B8
3E1D106F
3E3C61D8
3DE25072
3DC371DA
3E079A28
3D953BD1
BC58622C
BD07496B
3CF954EB
BE273259
3CB9042E
BD328C7A
BDE1A693
BA1FE868
3C24B988
BD4A5050
BD81E796
3DC29739
BD10F94D
3DE39043
3E1F2064
BD36512B
BD42CD3A
BDA0C73B
BDC4A622
3D6CA03C

