BD98476F
BCA26C3C
3D6EB91B
3DD20FB2
3DB80DC3
3D04039B
BCAA94FF
BDB9018E
BD752EB6
BD269164
BC95D91B
3C1E774F
3D746FDF
3DBE82D8
3D8E9AB3
BD2615A9
BDBE3B04
BDB9D346
BD90DA5E
3B1363F5
3D8DFBD7
3DC6BACF
3D9001D6
BC5740C4
BDA28805
BD818937
3C176FF4
3CEC00DA
3CBAEAB8
3D08A372
3C9E7536
3C52AA5C
BCB10DBF
BD8D0E56
BD654D62
BD210386
BAEE2867
3D66601C
3D522856
3D28ED5F
3BC26139
BCC42203
BD1F3B64
BD28D003
BD82B9D4
BD8D4888
BC1274E2
3CD2EF91
3DEFFF37
3DAB6BF4
3D7A83F5
BD6496EE
3D85931D
3DD5A3A1
3D5F58C1
3D2B723F
BD86CFC8
BDACFE9B
BDA3B4F6
BD079A28
3C340B35
3D4C7D1C
3D6CE571
3D4F6380
3D621102
BCE3B689
BD5EB207
BDA908A2
BD970A3D
BCC46738
3DB1F256
3DCBF338
3DC32980
3CA0C06A
BDB08C3F
BD8793DE
BCABA7B9
3B9246BF
3D59B1B8
3CF4CB19
3CCE54F8
3B9E774F
BCFFFBCE
BD34DAD3
BD442C80
BCDCAD15
3CC03361
3D89E1B1
3D5D0310
3D585DFB
3CC99286
BC403361
BD288052
BD0AED9A
BCD3EB3A
BD31337F
3C0D3F18
3C9C5C57
3DA3B4F6
3DFA708F
3D38AF3E
BD8A875D
BDAC1872
BD826352

