BCCCA0C3
BD775FB3
BDB992C9
BDAD490E
BD0BDDBA
3D37AF64
3DE54B49
3E0B40F6
3DC8D866
BCEDCC21
BE08C693
BE2BD2FA
BDE768E0
3CE31B58
3DE4D65E
3E12962D
3DE059A7
3D41FC8F
BD2B0532
BE0E703B
BE051ACA
BDB3C57A
3B2AC96D
3DD13AD6
3E05C076
3DD88659
BD4D7386
BD9C9D5A
BD508D4C
3B1CC31A
BC810E88
BCA15769
BC95B9A6
3C89331A
3DBA42F2
3DF70260
3D73CC4B
BD4B7A1C
BE0D5A9F
BE1424E6
BD5567DC
3D8B6D01
3E0A1F8E
3DD852F8
3D14488C
BD76D656
BDA2DA55
BDA36EB5
BD0AE105
3A056E69
3D595BBC
3D648840
BD8581CF
BD1E7968
BC96AF04
3D3649D4
3DC8F3AA
3DF0563F
3D95C4A8
BD095E18
BE01187E
BE222813
BDC3BD5A
3CF36EF8
3E0869C6
3E1DF4C3
3DDE44FA
3CC97FA6
BDB77D95
BE0DB09A
BE08DB05
BD8CEBBC
3D20FB22
3DF42FE8
3E0B3AAC
3DC4B3C4
3D02699C
BD8EDDCE
BD8FBB95
BCEB15F9
3CD89268
3CED0B31
3AB22079
3CA597D5
3D896B33
3D8CAF71
3D767B1C
BD03D35F
BE00CD42
BE1C48F1
BD5D67BA
3D8CA926
3E143B71
3E04A83B
3D3620EF
BDAE221D
BDEC2CE4
BDDB17CE
BD299D88
3D3F3387
3D73F20A
3D82AA9F
3D88038A
3D3291B8

