3E20F7BA
3D93D9EC
BD11287C
BE015A08
BDA7BAAA
BAFFFBCE
3DA77F6B
3D0792D1
BB81ECD5
BCEB2F23
3A991794
3D14898F
3D0067CF
BC4A148C
BD9753A4
BDB3B6CC
BD2D3E92
3D707E17
3DB70C56
3D824BBA
3CA09460
BCB88CA4
3B9BA5E3
3C4AB3EE
3BEC3116
BD09656F
BD54F15E
3D18750C
3DBD6CF8
3DD9AF19
3D29424E
BD1439DE
BD8E642C
BD819B91
BD4A233A
3B84D76B
3BB5F5F1
3B38BEF9
3CEA1405
3CE774EF
3CA0F4D8
3C134699
3B9DD7ED
3CD5F56A
BC852503
BC93A92A
BD97C5EF
BD8338B4
BC35C39C
3DCF3DC0
3E0764F1
3DB4EF46
3BC4BD34
BDAEBFEC
BE04573A
BD0FF002
3D8A582E
3DB04791
3CF75D9A
BCA69BE1
BD1F42BB
BC563886
3D24F228
BA16787D
BD1523B3
BD9C6866
BD0CFF22
3D103212
3DCFC936
3D871045
3C8EE6B8
BC9DC2F4
BD3ED84D
3BD41B76
3C7BA451
BBF9C1F8
BD5B62C7
BD3FA5D3
3D9F0457
3DECACD2
3D8CF0FA
BD1D4520
BDA58D58
BDAF5126
BD48B439
3C5095AF
3CEABDE4
3CC814D7
3C8E4324
3BED56B0
3D400EAE
3B014D72
BB3F3BEB
3B55B680
BC283B1D
BCC3E964
BD27BE55
BD36006D
3B4660A2
3D911E86
3DF7C3D7
3D7E8EE7
BA81A155
BE006FEF

