AD6C
AE6B
A94F
A710
2704
B34E
1AC7
2C63
2EA6
2C6E
2CED
2A0B
2D75
AC89
2C34
317F
29DB
2CEE
2484
AC86
A8B5
2D6E
B0F7
2FFD
AA48
AD09
A873
A041
9542
30F8
ACBB
26F6
283F
2664
288B
A7DA
AC57
A7BD
AC04
2B86
2A61
1623
B083
B03B
2CDA
2983
A825
A580
ABE3
A54A
A71F
AC97

