ABDA
ADDC
AAF7
2D65
A9A8
ADC3
AD2F
AE41
ADF9
AB8B
AD7B
B0B7
AD54
A814
2DE8
2DDB
AB34
2C44
20F4
A9FE
AE14
2A20
AB82
30D8
A522
AABA
2FB3
3235
ADB1
28DF
AEAB
28CE
2C2D
2E12
AF99
AF3A
2E0A
9F5B
B053
B06A
26C8
284F
2BFF
B177
A9FF
A036
AA33
A906
2159
2608
2FD6
2CE2

