A660
1743
A59B
ACEE
3438
2D5D
2082
2F35
AE63
3164
2A38
A665
2AB4
2F4E
A967
2D45
2CCA
2BC6
ABFF
ACB4
083A
AAA3
ACA4
ACEA
A1A3
8F25
2C93
2A1C
2D4F
AE01
996C
24CD
AF51
AE49
30BB
202A
28E5
A2C5
9E13
2F3C
A7F1
B4FD
B1EB
AD18
220E
AC18
2F5E
A581
2F12
A99B
30EF
A8C5

