A6CF
A901
B03D
3045
2815
B311
27B1
3153
A812
AD09
B043
AF06
93F0
A96B
2E84
A4EB
1CFB
2EFE
2442
9A9F
2C93
2797
ADAD
AAE9
2CD8
AD89
AFB6
A8B1
217D
30D1
A837
A80A
AC58
AADB
28F4
3007
AE23
1FDB
2FF9
2998
A420
ABD3
291A
1AE9
258E
AE45
A1A1
A4A6
99D0
A36F
27EC
AB6C

