A55E
A9E4
A929
2132
2F84
B1CB
2E42
2E9B
B029
A847
30E4
2822
983E
AB1D
30CF
2CD9
A679
A6C7
AE4F
AB4C
2D4F
A117
A199
2FD0
A9B5
2693
AE9E
AB8A
A141
2F3B
B33A
2EF9
AC73
2A8B
2A04
2FB6
A9F1
B223
AA08
AE0D
AA73
ACA9
A557
AC46
24A0
2224
A930
A2E4
AAFE
AA87
3076
2D91

