29C3
280A
AE23
22F3
3045
2FE0
2E2E
1DB2
AA4F
25CB
254C
B21F
26CA
318F
B24B
3104
9CFC
29BE
2602
AC51
AEFB
2CD7
2CCC
AE1E
AB2F
A70D
2EB3
A7C1
A1A2
A80C
314A
AEC7
A5A6
A0D0
2DFE
22FA
91C4
280A
21DC
31AA
2535
1E5D
2599
B1A8
20D2
AC4F
AC0A
A8D4
2B49
B00B
30C5
AF6C

