AA19
32A8
2C33
2CD4
AF71
302A
A4D4
ACAF
B25C
3031
2F53
A98F
B02A
A471
260B
29F2
A6DC
AF19
2767
AD2E
A990
AD0F
A470
B22A
24AD
AB56
2E16
2E55
B0E2
B056
AD02
30D5
3021
2DD3
AC1A
28F7
1CBF
AD6C
AA37
AFE1
221E
321D
B2A9
9DEE
229D
3020
AC19
2366
AD39
294A
30E0
3098

