2B32
A15B
AECD
A514
2C86
B075
18DC
A1A9
AF34
2EF0
2AE6
2FF4
1EE4
2BE2
2DDD
2A44
2A9F
1512
A9E6
2AED
2C7B
242B
ADC1
2E85
1CE6
27A7
B088
A5B6
26A0
2D7F
A8B3
1DD3
28A1
B206
295D
B4C2
AF97
B18A
28B1
AE94
296E
AF12
2338
AC13
2960
A7D1
A8FC
2F28
A65D
AAE4
2849
2BD6

