245A
2DD6
9F11
8464
2774
AE90
2993
A2CB
B219
AEE4
A268
2647
A974
AD5C
2D01
AD58
27EF
2CA7
25C9
AA08
AA84
2639
9FEF
2B7C
20E5
2A5A
3110
307B
AD08
2D82
AFAB
AAC5
29D8
A4D2
AB71
B346
A943
A521
B2AF
A453
2C6F
9890
2F86
2CBE
A9DD
254B
A279
2B2C
9E03
2D9F
3024
2911

