A6A3
243F
3155
29CD
B05F
33D5
2D96
B469
A014
318B
2093
AC36
ADAD
2D22
22A8
AB89
2AF6
B0E7
9F0A
A839
ADFA
A490
311F
AC2A
226D
2CBD
3093
316A
A365
B565
A154
2F17
2C82
A6EB
2B02
A93F
2DF9
AF2A
AD77
AF65
A72A
3104
B2ED
A577
AB03
2E36
A896
AD4B
ACDD
A462
2FFA
2E7A

