9C77
33B8
2D53
2BF4
3003
A64F
A47B
301A
AF2F
30CC
2EED
A7EB
AB49
B24A
0608
AC61
9A76
A69B
A881
2B8C
93EE
2277
AEB0
B2FB
2E97
2E1A
25D9
ADDD
221F
A4CD
223A
2CBB
AE20
2D39
AD59
3139
2BBF
A2BE
2C79
ACC4
2467
A1F0
AFF4
2BC2
27A0
303F
A768
AC04
AC18
2CE2
2C5A
2C3E

