2BC5
2F68
2496
A875
B0E1
3097
25AB
B094
A937
AF9F
A922
A31A
A492
310C
B08D
2770
1FE3
AC29
AE2D
2AD5
2274
1702
3191
AAFE
2C27
A2A8
AFA1
A9FB
2020
B04B
32ED
2C79
321D
A5D9
2FFF
29D7
A789
A642
2ECE
243D
99D9
2F27
32BA
A3EE
2B8F
2DAA
A752
ABB9
26E3
AD4E
27AD
AEA4

