2A4C
B023
2EC0
AC9E
9CCD
334C
3059
AF65
A69C
9CBD
321E
2DE1
A943
2FCB
AB46
AAC1
AA06
A878
24CB
252C
1CEB
8F21
2EA4
28CF
2E18
29A6
2A4F
314D
20D8
B1F9
A0D5
AF0C
98C1
AC08
3056
2E5A
2ABC
AE07
B371
26A1
AAD3
2B8B
A5C8
28D9
9A55
2123
2607
AC27
A91C
257B
2310
ABE9

