2DC1
25E8
AFF4
2A04
B07C
2C38
2C75
ADF0
3210
2FB8
B2EA
AFA9
2E5A
264B
AC59
A621
AD99
2CE4
A987
A793
A91B
2E20
2C60
2C10
AABD
A441
2BDE
2636
AAE4
ACF2
3192
B07F
3041
2590
AC67
A4C4
2D87
2F31
2CC6
2F62
2D05
3039
A599
A4DB
2039
A913
9D87
A4AD
26C7
307C
AECE
AFA9

