2A4C
2E0D
05C4
3180
AC75
217A
B17C
AD04
B2D6
2388
B062
A135
2D93
319E
A55A
31C2
21E4
2AEB
248E
2638
2819
2D0A
2A80
B29E
AAB4
A4C8
B223
AD90
2A19
A125
AA57
2072
2A0B
9B02
B1EA
A6FD
2AB2
31E6
2ED5
2444
27D9
238F
AC51
B152
2E60
2153
AE28
1C8A
A993
3272
3435
A3C8

