26EF
AE0A
2D61
A775
3025
352D
27D7
1DFB
321F
2B9F
B1AD
9203
AA31
297D
267A
A9D4
2C8B
A7B4
9DAA
1550
ACC2
9A34
0B68
2F19
A565
AACE
2F45
AB89
A14F
B41E
299E
2DA6
AD32
28DD
2AA5
243D
A98F
324D
3045
AEFA
AB91
A80F
A476
29E9
AA51
AA77
2E25
AA3A
2865
B088
AF66
A06A

