2379
25B0
2EAD
A4C8
2959
2B76
2DB9
AA72
B200
B077
30EF
A2CC
AC56
A7CD
3186
ABC5
261B
AFA5
2997
2646
A844
A26B
28D5
27E3
23E5
2B04
2B6F
29F8
24EA
93EC
ACEE
2B8E
AE3A
9601
2476
2BF4
ACA9
B098
A85D
ABCC
ABF8
AE3F
2892
2A10
AC81
A89C
2F22
9758
2841
AE18
325D
2BBC

