AD4D
289E
2FD4
2EE7
291E
AA49
AEBA
ADDA
A46D
2AB0
2D7A
2A58
A066
ACD2
ADA0
A8FF
26EF
2E85
2E83
25C0
AC41
B089
AF38
A1FC
2EF1
30C6
A99C
AE94
AE04
9CE6
2D23
2C87
2499
AA3B
AC41
A282
27A6
2AE5
29BD
9DF4
A94E
A879
A5B4
252A
277F
2634
A4B1
AA06
A596
246C
2AFF
2AFE
2FBA
3044
2B11
A8E6
AF02
AEA4
A8B6
29F1
2E57
2BBB
1C51
AAAD
AD1D
AB27
240B
2D4C
2DDD
2A0D
AA64
AF32
AEB9
A151
2DCF
305B
2DF2
A723
AF85
AA13
2B29
2DC9
2A6E
A270
AC30
AB25
2222
2C58
2A90
9DC3
A96B
AB5B
A449
20BB
29A6
26C8
2001
A985
A54D
22D5
2862
29FA
2702
A6BA

