2672
2BC7
2DD4
2D6E
2860
A9C7
AF32
B05F
AE4E
2775
304B
3165
2F45
A723
AF30
B09B
AF0C
AA15
2961
3079
302D
2DA3
998B
AE91
B032
AECB
2A72
2CEA
2A8D
98E1
2411
250D
24B3
A450
ADD9
AFC0
ABA6
2A63
306F
30A6
2AB3
AC60
B056
AECA
A8A8
2BC2
2D1D
2D22
285C
9081
AAD5
AB2C
2C31
28FA
24B5
A9BD
AE4E
AF89
ACB3
284F
300D
3117
2E25
A79D
B048
B0F6
AEFB
A655
2DC4
3073
304C
2C6C
A910
AFAA
B05E
AE2B
A816
2C7B
2C83
2761
A6C9
A76F
9578
A537
AC51
AC6A
ABBA
2822
300B
30E8
2AF3
AC6A
B0A7
B02A
A9B8
2D77
2F6A
2EE1
2955
AA01
ABA9
AC1A
AC46
A99D

