8979
154E
1978
152E
10A5
0FD9
9A68
9D04
9D08
94E1
1C23
1F1F
1E75
952D
9DC7
9DDD
9A1B
1BE6
1DD8
16D7
9718
9C65
95C9
166B
1500
87BC
9B9E
8E92
1A2B
187D
18BC
9528
9989
9651
8C7D
063A
12A1
15E8
165D
1C3C
1847
9843
9D4C
9E22
99F6
18A4
1D3D
1B0D
1602
9A52
99F6
950D
1B2E
12EE
9443
120A
9995
9A45
9BA4
979F
1BB6
1F7A
1EA5
1634
9D1F
9EE3
9D3D
19B5
1D2B
1CF8
152E
9CE9
9C91
0AE2
11BC
1835
9784
9C36
14A7
19E4
189A
941C
9A43
98ED
9602
14DA
198C
1869
15C9
1830
8EEA
9584
99E3
9DF8
996F
1A24
1ECB
1CA7
17A1
983F
9D8C
9928
1099
1984

