1ADC
A7ED
A084
2878
1979
A4B6
AE03
AB1B
2820
2C4F
2A51
A23B
ADC6
AC28
A68D
2BDE
2CB3
8C68
AC61
AD23
9C99
2B38
2CDC
2958
AA27
AD48
1AB6
2A34
2BA1
2951
9B31
A8EA
A66F
A70E
A9E5
A76C
2865
2BDA
2D70
2732
A863
AD0C
AD01
A50F
2B1E
2CFD
2ACC
220C
A51B
A3BE
A831
A73D
24AD
2529
23A7
A391
A7FC
A9C2
248F
2A85
2C3E
2715
A7BB
AD68
A949
28AA
2C27
2B0D
A2F6
ACA7
AB95
2844
2DC7
29B7
A6E8
AD36
ACAD
9BBF
2AB8
246F
8F5F
A7D5
A90F
A419
A841
A030
26C8
28A8
2C42
20E3
A786
ACFB
ADA7
A4A9
2B9A
2C70
2B36
1F54
A2E1
AA01
A8B3
A32C
A2FA
2AA6

