A97C
AEC6
AF40
A932
2769
2ECF
2DB2
28C1
A76B
A683
A052
A314
A9DC
A8A1
A229
28FB
2D88
2CD5
214A
AB83
ADF3
A8DD
27BD
2979
20AF
211A
2058
287B
9DE5
AA84
AC4F
A5BC
2354
2C29
2A47
A437
ACD7
AA09
2454
2C8F
285F
A928
AC2A
A9E8
2A6A
2E23
2C6E
AB36
B026
B01F
92C4
2EFE
AED7
AD74
255F
305A
2E05
288A
A83F
AB8A
AAB5
A75C
A2F3
AA6D
9DF2
2561
2D4F
2D4B
25C7
ABE0
AF47
ACA9
9D4E
2C3A
2B43
270C
A771
A649
2117
1BC1
A91E
A968
9FED
2CB9
2BC8
2634
AD11
AA60
A4E3
2A86
2C61
88EA
AA19
A62E
2594
2D57
2D3D
A42C
AF72
AFBA
AAE1
2B96
31A3
307C

