2807
A760
AAFD
A4A8
24FA
2382
A9AB
A8C6
A1CC
29D6
2C0A
22FA
A863
AA5E
204E
2C7B
297A
A908
ADF9
AD04
25B2
2DFC
2C5F
A17A
ACEE
AC61
2AF4
2A4A
A2CE
AB7B
A6AD
251C
2A49
2834
9549
A4A8
9C8F
26E8
2529
A5D3
AA91
A539
2632
2A18
286D
A8EA
ABD7
A4C1
2CCA
2D8E
1F7F
AFCA
AE24
ADA3
148A
28F7
21FE
A73A
A752
2292
2C3D
28C0
A6A8
A955
A8AB
25F6
2989
2065
AC47
AADE
A258
2C45
2E01
26B0
AC0B
AEE9
A93F
288E
28B7
AA69
ACB1
A543
27F3
2C1F
27AB
A873
A81D
239F
26F8
189D
AAF1
AA26
1C0E
281B
2B00
1D42
A946
AB25
21DD
2C89
286A
A876
AFDA
AD9C

