1E4E
9795
1A0F
1E9B
1201
9CF7
188E
9D9B
9851
1486
1B1E
1BDF
1F34
1ECB
9AC6
A285
9A39
92FD
19CE
1D2F
9EB0
9905
1E99
1C63
90B0
19EE
A115
20CB
8F25
1E8A
1CB1
A070
A087
9DB4
0F92
15F4
2131
1809
9635
9594
1A93
9212
9934
9DE9
8A3A
133C
1C5B
1F35
1EAD
9D9B
992A
A127
1C1B
10B6
9CB5
9444
98C6
9AD3
94F6
1C1E
17A7
17AD
1D23
1C1A
98DE
A1DD
9957
9251
1A3E
1F0D
9D9A
99F0
1C12
9613
1848
1BF8
9B10
A03C
9923
1D74
21A6
A08D
9E19
9C8C
9523
1A49
2218
19B1
9957
146B
9845
8C08
82E2
1279
0AC0
0CE6
19F0
1C7B
8000
9B3E
98AF
A0F1
9C17
202D

