A52D
B178
B205
ABC2
2CFF
3098
2CB9
A6E1
AD19
AC82
1FB1
2D07
2C14
2520
AD2E
AF13
ABB3
28AA
2F54
2EEB
2B1A
AAB3
AFFD
AEC9
A8C9
2C9E
2EB4
20A6
ACAA
ADA8
ACEA
9C92
2A01
2AA0
287C
24CB
24E2
15D1
A687
AC1A
AC3C
A731
2938
2D1B
2D96
26A5
A550
AB2A
ABA6
A954
A52A
95A9
B20D
AE17
2A8A
30CA
3056
2520
ACD7
AEA6
A8A6
2B8B
2DEE
2849
A9FC
AE24
AC7E
275B
2E59
2EF3
29C3
A9EE
AEF1
AF93
A9EE
2BE6
307B
2FD2
ACFC
B024
AD34
8703
2BA3
2D2C
2ABC
1D87
A067
A7CC
A7A9
AAEB
A8ED
A2F6
26D2
2D37
2D64
23E9
A9AF
AD2F
ACC1
A767
1D63
27BF
2AA2
2DA0

