2D50
A88E
AFCE
AEE7
A923
2A43
2EB8
2DD8
2469
AAB1
AD78
AA50
2085
2CCE
2D99
28F4
A6F1
AE7E
AE7B
A5BB
2C3A
3082
2F2E
220D
AEE2
B0C0
298D
2E88
2DFC
1D03
AD1A
AC81
A491
2A35
2C3B
2281
A79D
AADE
A9B7
1DE5
2946
2874
25AA
A51E
A76F
A61F
24AF
29FB
2586
A46B
AAF8
AAF7
AFB3
B042
AB18
28DB
2EFE
2EA3
28B7
A9F2
AE54
ABB6
9C2F
2AB0
2D1A
2B1A
A418
AD47
ADD6
AA02
2A5E
2F2A
2EB1
215F
ADC3
B054
ADEC
270A
2F7B
2A0E
AB1B
ADC0
AA64
2260
2C2B
2B1A
A219
AC54
AA8A
1DAD
2965
2B53
2447
A0B8
A99F
A6BE
9FEE
297C
2542
A2DA
A85B
A9EF
A6FB
26AB

