A92E
2B9E
2EF0
2E87
2734
AC41
B007
AE92
A1EF
2D69
305C
2EB7
122D
AD03
AF76
AC8F
2118
2C23
2C12
2497
203C
2012
111D
A471
ABCE
AB6D
2DA8
2F15
2A51
AC0B
B121
AF41
24EE
30A9
3195
2CCA
AC62
B0E1
B033
A909
2AF5
2DF1
2D8A
29F8
2593
A882
ACB2
AEBB
ACFB
22EA
3001
30B9
2F7F
2F2D
2713
AC8B
AF7F
AE51
A334
2CFC
302E
2F04
231A
AD80
B031
ADBD
1B60
2D9C
2D9A
2995
A263
A865
A496
A45F
A7D5
A915
1A7F
2B70
2C53
A8E0
AFE8
AFCB
A63E
2F43
31D1
2E46
A962
B13A
B112
AB60
2CA5
3041
2E64
2871
A5E4
AC44
ACF8
AD08
ABFA
23C9
2DFB
305C
2DCC
A632

