9E93
9F64
1B6D
2080
1CD2
94E0
9E6B
9D3B
9890
1BCB
180B
098A
0CB4
941E
9448
1A40
1C1B
867D
96D1
9B39
9EAE
995A
1590
1C5E
1532
1547
9D39
9C24
980B
17BC
1B1E
17C5
0464
965D
94CC
0A64
1984
1AA0
110E
94D5
9850
9816
9902
93E4
1577
1B8F
1DDA
0CD5
9B86
9B2A
9CF5
0E96
17C2
1B5F
1FC5
1698
9DC7
9E1F
9A3A
196C
1C85
1A51
0C9F
9A68
823A
164A
1CA0
8F85
94E5
9D24
9D98
96CB
1447
1201
177D
19E7
9BA7
9CDE
9C3E
1C40
1C19
19E3
8936
98F0
98AD
8EAB
1841
0821
1079
185C
9B96
966E
97B9
120E
0DBC
1907
1C36
19EB
0ED5
9D71
9CEF
172C
0B35
1B33

