AC0C
A8DF
A7D5
25F5
2E25
2D28
2BAE
20AE
ACFB
ADCA
ADD9
A0BB
2AC0
300F
2F5E
2C1B
A7BB
AD5E
AF66
AB29
9CD6
2B6C
2F72
2BFC
2884
0A8E
AAFC
ACC1
AAD7
A9A2
289A
2EA2
2F45
2DA9
2318
ACE0
ADEA
AB55
A817
2A12
2C58
2BCF
29F3
22E6
A836
ACD0
ADFF
A7D5
2513
2C79
2E8B
2D35
1B30
2A53
2C4A
2CF2
23DE
AA73
AE18
AE72
AC4E
215A
2E64
2E93
2F48
2C82
AB7D
AF37
AFF0
A8A0
2AC0
2E85
2E49
2E96
25BB
A808
AE96
AAF5
AB69
92B1
28D1
2CE4
2F61
2659
A986
ACE0
AE74
AC7A
A027
285C
2D94
2BAA
238F
A8AF
AA58
A949
A98D
A435
A22A
2B89
2D49
2AA6
9D9C
AAF2

