2059
A1D1
A114
A30C
A4D6
20E7
22BE
228A
246E
8D1D
A4A4
A26F
A117
9A7F
1C15
192E
2144
218F
21BE
9D6F
A3FD
A3B9
117B
9CE8
237A
226F
1D16
A086
A15B
9E77
9AD6
9425
2029
1FE6
1EB4
24BC
A2C7
A1CF
A3FF
A4D0
1AE3
22FB
23EE
22CD
1E72
A040
A2B3
A1D4
9FF9
95A8
2024
21B3
A0E4
A2CA
A5D7
22F0
20BD
2280
246A
A311
A256
A1BA
A10E
162A
2101
20A6
2170
201A
1D38
9118
A080
A20A
9597
2075
2129
236D
2122
1875
A344
9DF4
9CBC
90BA
203B
2013
1C53
2223
9C76
9E2A
A216
A5B6
20B1
2484
24EE
230E
1BB9
A171
A275
A2F2
9FE6
2074
21C7
1E8B
240B
2417

