ACC2
A513
2B76
2E90
2DC0
2820
A555
ADC8
ABA9
A935
A4AF
20F4
2BA3
2DF4
2C75
A931
ADF2
ADCF
AC87
189B
2C70
2E36
2C80
A2BA
AD14
AC0C
20BB
2760
25D7
2845
24F4
2295
A588
AC68
AB2A
A908
9771
2B33
2A91
2947
1E13
A621
A8FA
A947
AC16
AC6A
A094
2697
2F80
2D5B
2BD4
AB25
2C2D
2EAD
2AFB
295C
AC36
AD68
AD1E
A83D
21A0
2A64
2B67
2A7B
2B11
A71E
AAF6
AD48
ACB8
A623
2D90
2E60
2E19
2506
AD84
AC3D
A55D
1C92
2ACE
27A6
2673
1CF4
A800
A9A7
AA21
A6E5
2602
2C4F
2AE8
2AC3
264D
A202
A944
A857
A69F
A98A
206A
24E3
2D1E
2FD4
29C5
AC54
AD61
AC13

