2CB1
2A8D
A4EB
AC60
ACFB
9B0C
26AF
291F
9CB5
A9A0
A842
2547
2C48
290B
A5BC
AC70
AB8D
A564
2504
2823
8D1D
A532
A1BF
25E7
2811
1CD9
AC1C
A947
1F78
284B
2935
1355
9D67
210F
2605
0F07
A7A5
AABC
A89C
213E
2A4D
2A67
140C
A6DC
A252
1DCF
23C6
A3FE
A6AB
A8C0
9932
2805
21DC
ACC8
AD88
A7F0
280F
2C39
291F
A6B9
A935
9EE5
2911
2AC7
1DFB
AB68
AD06
A7F7
280C
2C29
28CB
A230
A4AE
A3DC
21C6
2446
A49F
AB24
9EE3
2833
2A89
27C8
A357
A1A0
A205
14F9
A1AE
A776
A74E
1D1D
281E
2B81
2652
A6A6
A83E
A5C2
223B
1D86
1A31
A5BA
A385
27FC
28B1
2A14

