3C7FF36B
BDF21FF3
BE5D898B
3DB33FC8
3DD3C793
BE8396F2
BE1610AE
3D8F294E
3C62541E
3C65F30E
BD23DD55
BE81908E
BD8DF506
3DC37154
BE313CAC
BDAF0E91
3D16DE33
3DFA1A0D
BD87D4E1
BD9A059A
3C17A249
3E15AFB0
BCA0F909
3E117A03
3CE0E736
3D0064AA
BE768C26
3D5C64BB
3DF959A3
3DF41FA7
3E708E58
3DF8FDE3
3C9BE8FF
BE06A9C5
BD577964
3E21E9AF
BD082279
BD3312B2
BDE9C023
BE19320E
3D2008EA
BD6596C8
BD7CCC03
3D51D474
3E09F234
3DCCD856
BE123BBC
BD46AD2E
BDADB7AE
3DCFFA7F
BD18116F
3DB4EB14
3D8D2CBF
3D490A35
3C678184
BDD5FE54
3E194C01
BE503819
3A81E471
BD289657
3E0DE43F
BD3AEBC4
3B9E4D5E
BE0E02A7
BD99B888
BE15C422
BE3F61AA
3DC0FB22
3CF1E8E6
3DD3BC90
BD575F2D
3D4D79D1
3955E8D5
3D34A98B
BD0F2BED
BC6E7818
3D7AFD97
3D20B3D5
BE09CD81
3EAFB7E9
3CB23572
3E572ABF
3E2F46AA
3D4F440B
BDE5A2D7
BD274D16
3D7B1184
3E55F02C
BD1903A7
3D6B80ED
BEA6453D
BE11CF78
3C9E236C
BDFC27E9
3DF94962
BD9C853C
BD1DC400
BD305532
3DA5058E
3AF75537
BD57D6B6
BCE10ADD
BE08E001
3D4E9C45
BD817FC7
3E618266
BD7CBB3D
BD7DD335
3E2F13CF
BDACB74E
BD611DBD
BCE3F9A5
3D6D8D37
BDF91AB9
BC8F7985
3DCE557E
BB0A04D1
BE2E7AB7
BD8B6FA0
3E1E785B
BD20FC2F
BC31897A
BC5BF056
3D141744
3D919DED
BD352C9D
BD771FBC
BE8C7821
3DD12663
BCB7C99B
BDC2E903
3EACD163
BCC3979A
3D8F9EBF
3DE73472
BD4090B4
BDA4D445
3BC31162
3D9831F0
3E55B39E
3D9CBC49
3D12BB23
BE812620
BD44295A
3CEE008F
BD92BECF
3D885D31
BE63FF69
BD330A4E
BD455001
3CD184C2
BD5E0503
3D8D5172
3B7ACE68
BDF968D7
BCA630EC
BD899D88
3E878FEF
3E422A2C
BC0C9321
3D8A3CEA
3E37B41C
3CA2C01E
3CE6A11F
BD1B64E0
BD883904
BD539B89
3E530D30
3D549F95
BD536934
3E32FAD7
3DF064ED
3B67AB75
BE3EB28E
BE0624DD
BC182880
3E1F761D
BDF1E753
BD326AEC
BE18B4C0
3D65DF22
3D746FDF
BD6C2CE4
BC11D9B2
B913D966
BDE702A3
BDE3A190
BDC07BBB
BD8E92D5
BCC6CDAF
BD5B7BF2
3D415098
BD8958DA
3CFB8B26
BD90B06C
3DA3E4AC
BD076F2A
BD0B6630
3DA7C5AC
BDC35A42
BD6A1B5C
BE05DF65
3C267621
3CFA2489
3DBFB720
BDA75EEA
3D80420F
BE172BCB
BC9083DC
3DF4CB19
3E3DFE76
BCE1804E
BD8A821F
3E9D6CD7
3D974D59
BD5245B3
BDAF6167
3B24D2B3
BD5D7CB3
3E0A46E1
3DE514C2
3C4CEE5B
3E065DC0
BD8C7A7D
3CC9E668
BE55C24C
BB20902E
3DB483CB
BCCD9620
BE266F93
3D24E8B8
BD9FC654
3C20407D
3D0C2507
3E213C68
BD8E47DC
BDB97F63
BE69830E
BE5323FF
BDA2A023
3D4CDEA0
3CCF9A07
3D85D52C
3E02B0EA
3D086CEC
3E210B63
3DB89BD8
3CE22C45
BDAC48AE
3CE94EE4
3D2C53B1
3CF26289
BDAB85A5
BDF54FBE
3B1F40A3
3BBEB5B3
3D966517
3D0A6762
3E285D31
BE1A4A49
3CBD017E
BDCB3FEA
3DDCBFF4
3CA5B318
BE0637BD
3E213E3E
3D394962
BD1801B4
BCC9E450
BD6A0989
BBB8305E
3BBF76A3
3D6E75FF
3D8A82A5
3E5113C7
BE262C77
BCEA619E
3BD31FCD
3CD1D68C
3DD3C1CE
BCC9A997
BD234B94
BDB48777
3D0CCAB4
3D9E6363
BD46D71F
3CC9E450
BE925A47
BCF02C4D
BDC069E8
BDF446FA
BD5142B3
3DB87C63
3CFB890D
BD5B0CCC
3E19B7BF
3D0E7147
3C67685A
3E6DE269
3D970DE9
3D6D1D04
3E00BC38
BBB29E4D
3E2800EB
BD788766
BCF18223
BE2F4880
3C6874C9
3D7B55AC
BB853C15
3D97A0B6
3C2187A5
3CD681ED
BDBFF2E5
BD8F20EA
BC67CD03
BD61858C
BDFA9F38
3D31FCD2
3DEF33CA
BDB9DBA9
BD803361
3DF8FDE3
BE4CD8DC
3CB7CBB4
BD7B762E
3D388334
BE145D42
BD3DEA46
3E0C7193
BCEB6178
BD6D3847
BD57ADD1
3C84CAD5
BE0F1F15
3DEF1AA0
BCA6F60E
BD50F302
3E119371
BE6742DD
BD672DA1
3DB4898F
BD1780BB
BCA62025
3D41E365
3C8CF5B2
BD1C7369
3CF661F2
3C186B9C
BD26A444
3E069F06
3D4A233A
BCE94AB2
3DD19C5A
B9712C28
3E023E9F
BCC75A32
3E0738A4
BD432DB2
3D80D024
BD71C865
BC4B6C7A
3C52C387
BDCCC2D7
BD8DCC21
BE153EB4
BD8E06D9
BD393576
BC951612
BDEAF1CC
3D048494
3D104B3C
3E3718EC
BD4029F1
3E072C52
3D65A145
BDB38AC2
BD884168
BD8C6E6E
BE4D70A4
3DA2ED35
BBCCBC06
3CA67C6C
BD684BE4
3CD13D75
BC0259E2
3BAB367A
3E0DD54E
3B7C71D6
3B916CA4
3DF167EC
3CEEB0B8
BDCE581D
3DBC8E26
3DE15443
BC61B08A
BCB2F662
3C8DED29
3CB43958
BD4AA540
3D7DB3C0
BE021038
BDB7EC35
BDEC3A86
3D428912
3CB239A4
3C1378EE
3E04AC6D
BD5AC57E
393ED741
3DDD6170
BDA301A8
BD25C5F8
BD946F58
BE4114D3
3D8C0DF6
BD8096FF
BDCAAFBC
BD70E1B5
BDAD080B
3A03DBC2
BCCEA290
3D5E85FD
BC37D849
3E2BD72C
3D06EB0B
3DE0C73B
3BC68A93
BD4A3401
3C85EE57
BE119B0B
3D44CCEE
3CB93251
3D84AADA
BC5BBE01
3C1D4D83
BD2F5DBC
BD6F61ED
3CCF1801
3DA7E7C0
BD6B2F23
BD3DC8B8
3E1D106F
3E3C61D8
3DE25072
3DC371DA
3E079A28
3D953BD1
BC58622C
BD07496B
3CF954EB
BE273259
3CB9042E
BD328C7A
BDE1A693
BA1FE868
3C24B988
BD4A5050
BD81E796
3DC29739
BD10F94D
3DE39043
3E1F2064
BD36512B
BD42CD3A
BDA0C73B
BDC4A622
3D6CA03C
3D6A6E33
3C95054B
3D26BA49
BD8F3DC0
BC5FF3F1
3E2796C0
3D344E51
BE0A732E
BD236E2F
3D7FE7E2
BD609FE8
3DAE7E63
BDA57E24
3E448840
BDC2F61F
3D4BC48F
3D9BABA8
BC89EDC0
3C4F2CF9
3D1E9E1B
BB61C582
BD192A73
3E3A2403
BD0E4218
BD46AA08
3C937B07
BCD8CB08
3D3CDAB2
3E0AC109
BE323D4F
3E4A35D6
3D9008A7
BD87DED7
BDDD25AB
3D596A6A
BE465F0F
BD948E47
3DD528F2
BE124313
BD431BDF
3D4EBBBA
B8B24207
BDB158B8
B9A8D21C
3CC18D69
3D6772D6
3DC25636
3B2C7DA2
BD9733A9
BD509071
3C243FE6
3D82070C
3DAD594F
3E05243A
BD8A38B9
3D899F1B
BCCF7015
3DCC64FE
BD9E6927
BDEE08F2
BE0C6D61
3CA4C1EC
BDF27C39
3D8496EE
BCC67382
3E55842B
BC32D0A2
3E21FDDF
3CC32010
3D8C6046
3D3CE209
3D1A6613
3D856473
3D433722
3D801F75
BE0992C9
BC9FA54C
BDAAF46B
BD96909B
BD0811B2
3E2FBC5E
BDCB5ED9
3DEA4B12
3D328B6E
3DB8BC5A
3CB3E575
BE113AD6
BE067275
3D56C615
3E2189BE
BCC19C17
BDBFEEB3
3D0A42AF
BCF4ECA7
BDB22425
BDF6E8B0
3C3BADC1
BD43914F
BD9376D5
3D47064F
3D2A8651
3DCB6E0D
3E17E671
3DB9B025
3D994291
3DE544FE
BD327FE5
3E2A4D6E
BCB280F1
BD0E11DC
BE0B73D2
3D5F5BE6
BE6B6417
BDAA8113
BE186013
BE03825E
BCF76A2F
3D95D67C
3D202FB6
3D9A0AD9
BD4FD8F1
3D9B8CB9
3D0DC65C
3CA8F191
BDAF3FD9
3C8F94C8
3D0C319C
BDD26528
BD9D6388
3D5A5333
BE62003B
BE34CDB8
3D02D384
3E079464
BDC065B6
3D5D5800
3CA7CBF7
BD7214F0
BE03C969
BD4CC35D
3D578705
3E43D9EC
3D516873
BC1C23B8
3D40229A
BCAD98BF
BCC4955B
BDEC63F1
3D44F3BA
3C9DD1A2
BDE18DEF
3D5537A0
3D19F905
3DB3F749
3E0BC233
BC064021
BCD9DDC2
BD2018A4
BE079A28
3E089657
3D02A130
BE6227D0
3CF62D84
3E2A63B7
BD023C86
BDA128BF
BE0861A6
BDE0CBF3
BA7E047D
BD2D56B0
3DD0891A
BC9D6CF8
3B9F6230
3DDFC3B5
3C884620
BB53E0BD
3D926D05
3CF2E48F
BDB59F6F
BD5D249E
3D9B04EE
BDB119CE
BDF6C7A8
BD162BF1
3C2F9229
3E1A21A7
BD06DD6A
BD01450F
BD8AFD54
BD5B584B
3D1E8C48
3E00E0EB
BDC4523F
3BFB6DCA
3DFF2DC3
3D33061C
BC83F91E
BD7A615B
3D233DF3
3B5D1E54
3CB1BDE8
BDC8AC5C
BC342891
BC94C22F
BB3A0E84
BC6DE97D
3CFD8277
BD6D71F3
BD5F16B1
BDF1172F
3C1B951C
BDB2D341
3E2F76E6
BE1D35EB
3BA0A958
3E0FF4FD
3E21D68C
BDC8B439
3D491F2E
3CE2845A
3DED1A65
BD61C8A8
3DD9567E
BD8692F7
3C962281
3DC91969
BDA533B1
3D77A2CF
3DA4CF07
BC0C2614
BE34430B
3DFD5B25
BCE37154
BCE0A201
BE1FDC9C
BDB069A5
3C8DA5DB
3DB15161
3D02EEC8
BC92AB69
BE189375
3B828C37
3D4387DF
3D7A93AF
3C0D8666
3C6160D9
BC712C28
3DA4028E
BBCBC05D
BD971540
3E032C1F
3D48C500
BDA0EBEE
BDC6DDF0
3DF38DE7
BD72D906
3D4D3283
BD7E0DED
BE099D88
BDFE364C
BD50D38D
BD78EC10
3D9D31BA
BDE5AA2E
3DF08EDE
3DF4195D
3CA20BC4
3C6EFA1E
3E232CA5
BE018FC5
3E299392
3E2313BE
3D73647C
BD8DB37D
3CE0FA16
BD824EDF
3CEA4CA5
BD2C3EB8
BD8C2CE4
3DBF65DC
3DF06E5D
BE23137B
3D1B10FD
3DEB4BF9
3DDF01B8
3CF90D9D
BC890D5A
3D3395C4
3D9DCF89
BE136C16
3D487011
BD091080
BC195AAF
BD116335
3D9FADB0
3D426139
382393EE
BE00F020
BDE1A2E8
3E28AE75
BDD6049F
BE014B5A
3D7A072D
3E14B7F6
3C9F31F4
BD94FF86
3E18EF78
BDA5D074
3D676D98
BE4D434A
BE3E1199
BB230DB7
3D497E99
BE046F58
3DD801B4
BD93CCD1
BB999568
3E697072
3E0B1AF4
BDECABC5
BCD379FB
BB97AEDE
3E43CAFB
3DBC10D8
BD286B59
3DF95AAF
BD68C155
BD582BA6
BD40CA60
BD0EFED6
3C9960FA
3CA582DC
3B9D5A18
B9E410B6
3DD47C74
3D19EF95
3DC2FB5D
3D34BD77
3D49D170
3E29AA61
3C1AF9EC
BE3F138C
BC1AA609
BDE1797D
BB182CB2
BD81016D
3E0ACFFA
3DCB3919
3D57891E
BDC0DDC6
BE6E2542
3CD421C0
BD5A5B96
3D715B57
BCB8FBCA
3D1B1E9F
BB4AA327
3C246174
3CC0DB27
BD84DB9C
BD238866
3CAF598A
3C61F3A5
BD7D230C
3CBD987C
3C7F822C
3DF0079A
3D25FB72
BE2DB835
3E313272
BD65F740
BE234B0E
BD98958E
3E0ACF31
3DA30CAA
BD333B97
BD6A3593
3D0F8940
3D0E11DC
BC294FF0
BCA584F5
BD9150DB
3D12DFD7
3C45B8DC
BD1C23B8
BD580A18
3E163800
3C1F5DFF
3D28D328
BCC436FC
3DD1DEF0
3E4120E2
BC1817B9
BE6EDC7F
3DCBAF96
3CA495E1
3D76AC64
BD3A1F4B
BD64FDB1
3C35BF6A
3D716A05
BE19E519
BE38E219
3D85BC02
BD38AD25
3E0205BC
BDC1C821
BDA71F79
BD096BBA
BD262563
BD66CE36
BCBAA583
B9D0AAA8
BC6EC7C9
3DB4F723
BCBA16E8
BD432DB2
3E550093
3D8656AC
3D9A88AD
BDEE1E71
3E054867
BC9A88AD
BD95EC81
BE4B8BF0
3E062C34
3DEA6656
BD31E18F
BE053B4B
BC8E23AF
3CC16DF4
3D3E4ABE
BCDB7AE5
BDE32DB2
3CECE571
BDA5CC42
BD320FB2
BDA1DDA0
BC8E0008
BE454BCF
3C95A6C6
BD6AC53B
3DC2BCF9
3DCAA327
BE1C49BA
BE0ABDE4
BDA047D4
3E1A92A3
3E042678
3DBA5DAF
BD834EBA
3D1EEFE5
3B97D06C
BDAD844D
BD46E7E6
BDFC1722
3C43CE21
3E43925C
BE552E73
BBBDC26E
3C539970
3E04013F
BD8319C6
3C6CBB80
BDA72757
3D294899
3E1C0F02
3E12FEC5
BD659296
3DE3AF32
BD468987
BD2D18D2
BD2B356E
BE18BC5A
3D4BFC22
3DA181E0
BBED45E9
3D89D495
BDF905C0
BCC4D877
BE2C8712
BE27EDC8
3CD21577
3D4868BA
BDD95BBC
BD063F14
BD551612
BD408206
3B81DC0E
3D2CFE9B
BD2C9082
BD88A58B
3D5A34CA
BCC05B3A
3E4F64D0
BD989507
BD842F1F
3D96B442
BCB98202
3CD9A30A
BD599ED8
3D821E1D
3C2B53D6
BD9D0B74
3D833483
3D9B5393
3DBB1C86
BDF7BAED
BD16BEBE
3CB074A7
BC648E8A
BC9F6EC6
BCA6937D
3C311C6D
BDA4B902
BC5BDB5E
BD99DDC2
3DC45ED5
3D85F8D3
3E0D89CE
3C56A9C5
BB16BB99
BD5F00AC
BD0A30DB
3DEECA68
BE4747D8
3DBFA659
3E51D2E1
3D51C7DE
BD68E92D
BE37F562
3D961D43
BCC230FD
BDD3F63C
3C42BD7F
3C08D2A2
3C06833C
3D9F1B69
3B29CDC4
BDA2C01E
BC657109
3DA40D0B
BDF19B4E
BDCC4F7F
3AE02214
BA89A027
3DF80453
BDF062D4
BB20F4D8
3E152370
3D861AE7
3D110A13
BD150B95
3D94916D
3C0372E7
BD9D1138
3BA0125A
3E7A9AC3
3DE266FD
3C16EDEE
BBF23897
BD9E1B8F
3CF52978
BCACDC01
3D21BE2B
BD509071
3C7A11A9
BD6003AC
3D9D7ECC
BD00E27E
BDA5A576
BD3AA68F
BC9A3098
BE07264A
BD377D0F
BDAC2EFD
3DA0431C
BD475A32
3BC73259
BC2860DD
3E7ABB45
BE52C775
BDEFB7E9
3E1A3832
BD8A4DB1
3E321102
BD30F27C
BC468A93
3D28038A
3C6631F9
3D9733A9
BA8BFC22
3C179182
BCC9DE05
BDC0B029
3E2CDEA0
BD7777D1
BCBDFB0D
3D792F2B
BE05243A
BD1B7069
3D2A886A
BC56D3B7
BA5C3372
3C377C03
BDD4DDF8
3E101A37
BE7BB279
BB653EB4
3DFD0397
3E530D30
BD58EEAF
3D4E4DA1
BE0B9AE1
3DBFD695
BCC8472C
3D36E71D
BDB061C8
3D0E53EB
BDDE731D
3D9B4D49
BE2EA183
BE716A05
3C976577
BD19AC79
BE915E9E
BD2ED99D
3D5CCC8A
BCFA7653
3DB8A86D
BD49081C
BE0E9292
3DEF21F7
BDC01EEF
BDB79D0A
BAC111AE
3D66CA04
3DC2F406
BCAC386D
3CFEBD0A
3D76FD22
3D9B9B67
BA81E471
3D0C197E
BD8E30CB
3D0C825A
3DF9D990
3E720AFA
3BAF9229
BD14AB1D
BD3BF727
38BCBE62
3DA501E2
BDD7D1FE
3CDF6988
BCFC73EF
BC02FD76
BDC12275
3D85A35D
BE329281
BD9AC604
3DA47A9E
BD3AF31B
3CD1654D
3DC6FEF8
3BA5D6BF
3D402F30
BD056712
3DE77EE5
BD77AA26
BCBADE22
BCB12B1B
3E063C32
BD1F5AD9
BD83571D
BD728848
BD078D93
BE3805A3
BD083EC9
3E17D242
BD890C4E
3DBD9EC7
BD9D798E
BE1C115E
BD58B71C
BDB68D76
BD90153C
3BC0CE92
3C8A45D4
3E1728E9
3DE7E0F0
3CA643CC
3D6109D0
3D527C39
BD88FF32
BD12D341
BD54C554
3DC4D339
3E216A8C
3E69C800
BD557BC8
3DAAE6C9
BE37A312
3E1B1AF4
3DC146A2
BE30357A
BD7A16E8
3D346994
3DC342AB
3C4942D5
BDA74F2F
3CDD9E41
3CD7A13C
BD182DBE
BE2D30AD
3D9090F7
3D8BEF8D
3DDD4A5E
3D8CF206
BE09FF93
3D5B4EDB
BBAF1CB9
BE1AF816
BC3D33D3
BD032767
BC2B2E17
BC83C4B1
BCB42AAA
3C3F0132
3B8E6080
3C9C2C1B
3E19902A
BE0EB3DD
BD28C79F
BD85271C
BE2056C5
BE38A698
BC00E065
3E3A0BE5
BC328955
3DD888F8
3D2DFD69
3D8C97D9
3D0E9814
BE1B9F99
BC28FC0D
BC0E4FB9
3BA30DB7
BD005F6C
3C77A4E8
3DF55B46
BCA291FB
3D9D2179
BCC01605
BE3926C8
3E548627
BAA61177
3D5206C8
BD4BD76F
BB1784EC
3CFFB481
3CBD987C
BE088B11
BB252696
BCA224EE
BD994B7B
BE441E58
BCD55A3A
BB92146A
3DF5054B
3D0A233A
BC8F68BE
3D2DF1E1
3DABB129
BE3FDD66
3C3E09BB
3CDF3B64
3E6EE99A
3E356324
BD645804
3D2BE9C9
3E0E7D9A
3D75C39C
3CE10CF6
BA9B951C
BDF0CDC8
BDDAD645
BCC94F6A
BDBA6DF0
3E0B4FE8
3E0788DB
BC275CD1
3D7DE721
BDF72DE4
BC860781
BD44C059
3D4B8280
BD0AB0C9
BD38F473
3CE20CD0
3D8AA5C6
BC0F3A9B
BD157364
BE8B2314
3C1945B7
BD7C6B8B
BDE814D7
3E3F0CBB
3DA127B3
3DA16CE8
BBFA3FCD
BD24A05E
BD28F6CF
BCAA4FCA
BDD8B9BB
3D4CF9E4
3D656BCA
BDE5DD09
BD279BBB
BB12DDBE
3CD74B40
3C2F4F0E
BDBE414E
3D8615A9
3D485E3E
3DADE00D
3C995AAF
BC22A4DB
BE196C40
3DBF6230
3E11A9B9
BD4EE7C5
3DB3293D
3E8229E9
3DEBF1A6
BD756430
3D5B1E9F
BC0EAC00
3D7863BF
3DFA1A0D
3D078855
3D0AEC8D
3D448E04
3DF1526E
3C1DA166
BE2311A5
BBDA33BE
BE293D53
3BFAB53D
BE1C5693
BCEB6391
3D8960B7
3DEE429E
BDA2A0A9
BD1E53A8
BE6897A6
BBACA793
BC599CBF
3CB08DD2
BE3245F6
3B85E3DA
BCA25FA6
BB324207
BD3D1FE6
BD8EFE50
3CEC397A
3D903FB3
3DD2B991
3D017A89
BD89FCF4
3E10FD7E
BCF09310
BDB378EE
BE032D2C
BD0564F9
3DC62B28
BDC4F1A2
BB1B951C
3CBFAF42
BDB3404F
BDFEC1C2
BE243A21
BD788334
3D5ABC0E
3D98DF7A
BE3BED31
3DF50B95
BD768598
3C261177
3E942D06
3D835697
3C516766
3DDE94AB
3D986983
BE0318B9
3DD23897
BC6D56B0
3DF3732A
BD14FDF4
3D3A3DB4
BC11E647
BDABC9CD
BD98B589
3D5EB639
BC96B767
BDBE5322
3C9B1D93
3DEE5929
3D7A072D
BC2D7D7C
3DC0535D
BE2F6556
BD4F00EF
BE9B56B8
3D27008A
3AB28523
BD58DAC2
BD09BE90
3E4095AF
3D806A6E
BCB662FE
3DC0C7C1
3E333509
BD9D6BEC
BDAB2420
BCDDC832
3CBDE82D
B96F1349
BDAB40F6
BBF3ECCC
3C7BEFD0
BE18CDEA
3AA15981
BDFCA212
BE065387
3DC2CC2D
3D7F3CF7
BE377F28
3CAFF6D3
3B90ABB4
BD6C7326
3D41DB01
3D6E5FFA
3C3E835E
BDA2DE01
BD50BD88
BDC46499
BE4862F6
BD944D44
3DFC9BC7
3D7E3E29
3E1EF49D
BDAF7553
3CACF52C
3CFBD48D
BD8DB7AE
BDEE47DC
BDD9988D
3D1529FE
3E4739F3
3D63A4B5
BC415D2D
3E20DBAD
BD04DFCE
BD6086BE
BD88B75F
BDC6DB51
BD202D9D
3D2E09FF
3D6F2D80
3E023290
BC728416
3C8B9DC3
3E32F7F5
BCB9CF9A
BDCF49CF
BD219653
3D40B34E
BCF661F2
BE6359BC
BCA5BFAD
BD9F7CEE
BD96640A
B95F58C1
BB9EE45C
BD252264
BD7A450B
3D6D1F1D
BD7B43D9
BDBB8BAC
BD5ED7C7
3DACA3E8
BD350D28
BDB85E81
BDA5E0B5
BDC8216C
BDBF1E08
BD7168F9
BDAF6A51
BE16E4C1
BDAA79BC
BD02784B
3DBD0AEE
3DBB645A
BD667621
3D888052
3C1E8C48
BD3FCB92
BDC27A63
3D4405B4
BD7037D6
3E1B039F
BCA43569
BD573EAB
3DF65E46
3E46A594
BDB61998
3D1BE4CD
BDD56649
3D19B5E9
3D859D13
3DC2352F
BDF315D7
BDE746CC
3DC133C2
BBEB5F5F
BE0A6267
BE0D4A5E
3CD907D9
3D09EA9A
3D7FD827
BE2ED80A
BD3FE08B
BC06B160
BD4663C7
BD20BB2C
3C2B191E
3CC0F451
3DFABFBA
3D9C3C5C
3C8B4396
3DBACB43
BBE22A2C
B88C825A
3CEE7E63
BDD1F927
3D326395
BC595571
BE432C62
BDDC7043
BC4D0785
3CC8E68E
BD2E8E1D
BDAB8E08
3DA01605
BDAAFD54
3CFDD441
3D94D37C
3CB912DC
BD410B63
BD5084E8
3CC729F6
BBFDD228
3D6F7B18
3C1CA9EF
3D4B380D
3E21FD9C
3E0F6A51
BDA0F451
3DB03212
BDF55821
BD58A116
3D3B0707
BC9A49C3
BD6E2110
BE68C3B1
BD285CAB
BCA42071
BE55E80C
BC8A5482
3D8DE4C5
BB11F2DC
3DF0B06C
3D97BBF9
BD3BAECD
3CA96702
BC4F28C8
3D6581CF
BBC069E8
3DB3EF6B
3E047497
3D2225FA
BDF36CDF
3E0A8C58
BD93B96B
BE1040C0
3D72CD7D
BE223AB0
BD57B310
3D466B1E
BE1DE2EF
BDEBFEC1
3BC53B08
3D83E100
3D4811B2
BA61B4BB
BD18EA7D
BE457A35
394521DE
3C881E47
BB83EC89
BD47F024
3C8676A7
3D1C8323
BC81754B
BE25D5B2
BD5A3D2E
3A8461FA
BC1F05EA
BD0F9A07
3DE6527A
3E3D32C6
3DB22EA1
BD6F77F2
BD83C4B1
BD987F88
BDB85272
BDF847F5
BD91C326
3D1184C2
BD7BA238
3D9A58F7
BD2743A6
BD5B76B4
3D1CBCCF
3E1CD1C8
BD821C8A
BDDDF00B
3D8833C6
3DA981BF
3B157CD4
3DA70542
3DA17F41
BDA370CE
3B287E39
3E63415B
BCCDE1A0
BD213B19
3B7F865D
BDA10386
BB78B589
3D8094E6
3DDA09CC
3D6F2D80
BE16EBD5
3D82BF98
3E26AA4C
BC75019F
BEA8A3D7
BE0E9963
3E1F1801
3C2E5FFA
3D993682
BC1C7BCC
BCD58644
BC868987
BDCBAA58
BD88405B
BCC26DCE
3CB85404
BE47BBF9
BDD7C3D7
3D6788DB
3D84B557
3E9BB0A3
BDAFE3F3
3D681CB4
BDA1E3EB
BD9ED95A
BDEA209B
BCD173FB
3D9E73A3
3C1ACBC9
3D748D3B
BCC3F812
3AB5ED8D
BCAEB1C4
3E1A3B15
3DB61DC9
BAADAB9F
3BEC7C95
BC76B5D4
BC8DEB10
3D2A6B0E
BD46F47B
BDE0FF54
3D0F82F5
3D0A48F9
BCAECF20
3CA77E5F
3CD72368
3DC858FF
BDA07E5A
BD1FE543
3E341E15
3E1B8BF0
BDC092CD
3D5E19FC
3DA90A35
3E6F7B18
BE56512B
3C2493C9
3D8345D0
BCB3FC87
BC19DCB5
3DC3D4F1
3AFD3B2A
BD2005C4
BCE70C13
BC275CD1
3C2921CD
3DA6C00E
BE6AD7D8
BD4090B4
3CB47A5B
BDC3DEE8
3E137692
BDD48909
3DADB941
BDE9246C
3D974688
BD646F15
BD10C2C6
3E0BAF53
3CC32010
3D3733A9
3D5E529C
3DCB3AAC
BD34C1A9
BBC404A7
3D8408D9
3CC14A4D
39BED741
3CFCA42B
BC26E32E
3C3D7F52
BE41E42E
BE11ADA7
BCA5E13B
BD94916D
BD07B45F
3D8379B7
BDADBBE0
BD8606FB
BD12E1EF
3D22E5DE
3DD0129D
3E252C5A
3C9B8AA0
3C2ED56B
3DCCBB80
3E01D4B7
3D34C900
3E619A41
3BD0C3D2
BD05AD54
3C1003EF
3C886DF8
3D77BAED
3D5AC040
BD174B40
3DED2F5E
BC8D130E
BC2B6D01
BE82DA77
3CB8F9B1
BD1AEA31
3B298AA8
3D1D8F93
BD1A4485
3DDFD827
BD3A82E8
3C8301A8
3E573ABD
BA7CF80E
3D94F3FE
3C694EE4
3E0B6ED6
3DC20D56
3D07AF21
BE2F4E44
BE67BB30
BC387BDD
3C7CB924
BDD77D95
BD49ABB0
3B7BB949
BD1E108C
BDAF5558
BE146AE4
BD594079
BE739581
3D7EE808
3DCD6777
BD36D86F
BD281238
3DD038E3
3DCA11ED
3B8711D8
BB7D199C
3DFD694D
3B24C1EC
3D5A48B6
BDAB4E98
3D3CB3E5
3E37164C
BBE4FB98
BB9185CF
BD41B003
3D2F78FF
3D814AD3
BC74C6E7
BD40229A
3E37A312
3E009A24
BA8CE704
BDE42E99
BBF4BE83
BD03211D
3DA011D3
BE35EFE9
3DE62AA2
3B9973DA
3D1F85D7
3D4A04D1
3E25753A
BCB58299
BDBEE6FB
BDE5CF68
BD9E8577
BCA40D91
3D81847F
BD501F32
BE5E3583
3D1594F2
BC208399
BDC3D0C0
3DD4E11E
BDD446FA
BDB1A869
BD44A409
3D910E45
BCABBA99
BD3C8D19
BD2516DB
3C2647FE
3DF08B33
BE39539C
3DC84620
3DD35DAB
BE052BD4
BD08D3AE
3E1C7DE5
3D0446B7
BB07B99D
BD639820
3E19D346
3D9B120A
BCCF1C32
BCD8EC96
BDC9E98E
BD698DCE
3DA9D170
BC22EC29
BC332CE9
3DFA0D78
BD36AA4C
3CD2630F
BDD3BD9D
BD713BE2
BC281DC1
3DE75254
BE673B86
3DDF16B1
BD8E6EA8
3D516B98
3D408638
3DF6C26A
BD3E186A
BE4462C3
BD4101F3
BDC1AF7D
BD4E6080
BD95243A
BCAAD81B
BD88CEF6
3C93FD0D
3C447E4A
BD2606FB
BC5C8B87
BD5FB82C
BD50D8CB
3E0EB8D8
3DB224AB
BD4DC875
3D145E92
3DFA3DB4
BDA0E6B0
3E481BA8
3D1BB279
3D890EED
3D2C53B1
BE662068
BDFB4891
3D6FC159
3BE9142B
BD9FBA45
BD0A3B58
3E246CB9
BDEF416C
BC0DC982
BC4297C0
BD7B4A23
3C8A88F0
3DAB990B
BDC63BEF
BD9B58D1
BDC20CD0
3C8F5E42
3B615012
BCD2502F
BD8F251C
3D1B90EB
BD35D463
BD87F0AA
3C5A2F8C
BDAE935C
BDB34613
3D87DD44
3D625FA6
3D9268D3
BE158F2E
BC464778
BDFC7CD9
BD19A954
BDAAB25B
3E00F6AD
3DDFDD66
BD4BA626
BD442E99
BC9F87F0
BD04F2AE
BCACADDE
BD8147AE
3E3C0768
3DB2745C
BD8D2ED8
3D5D883C
3CAB10BA
BD1B078E
3DF56C94
3E42B991
3C80A394
BCEB8B69
BDF07208
BD9C66D3
BC3C664D
3CB940FF
3BB0E1B5
3DEEBB34
BDAFDC16
BE81CD1C
3DB3AE68
BDE199FE
3C0F96E1
3B3D6627
3DC2DF0D
BDF20536
3D0728E9
BE176684
3E14B168
3D56A594
3D9FD695
BCC9AFE2
3D44577E
BE62452C
3D847F56
3CD2439A
B9C9D9D3
BC93A2E0
BD285EC4
3D2E09FF
3D10257D
3DCCE465
3D2D2029
BC7A5094
BDE114D3
B9F3CB3E
3DF86B9C
3E8BD72C
BD99E625
3C7C9FF9
3D616F87
3CEF9980
3D3C9BC7
BB553049
3DE221C9
3CFAB96F
BD0D0FE9
3E387A4A
3C3EC248
BCB111F1
BDCC0B56
3D394962
3C8D4BAD
BCD6084A
3D8B0D0F
BD03B928
BDA1A3F4
BDD722E2
3D0E0DAA
3D798B72
BE0F8A8F
BE0DADB8
BD4B06C4
BCC39581
BD05E6FF
BD87CD03
BDD02BC7
BD8C4E72
3DFFC8F3
BE0A1F08
3CBB59DE
BD6AE9EE
3DF35D25
BCB0C459
BD88259E
BDA8A9BD
3DCB6630
BC9904B4
3BC52A41
3D9AC81D
BDCCB5BB
3DBC2331
BBAB4FA5
3E3B9629
BCAFD977
3E11904B
BCAD0E56
BC222B39
BD0CA2DB
3E374928
BC4219EB
BDBB9842
BCBDA512
BD1BF26F
BD84095F
3DD3176A
BDE7210C
BC82C4D6
3DCEA52F
BC5F04DE
BDB2007E
3DB9945B
BE2579AF
BC9565C3
BD86601C
BC7DA837
3DC2DD7B
3DFB7B6C
BE5A8AC6
BE051DAC
3DBCC8DE
BD1D1915
BD94D057
BB216A48
BDA88D6D
3D104923
3B88D6D4
BE209742
BDBE68A1
3D9D3ED5
3DAFB3B7
3912CCF7
BD474320
3C852B4E
3E3E41D5
3D4475E6
BDC7B13A
3C224895
3C850DF1
BD10763A
3C088B54
3E34EB57
BE226959
3D9A7F3D
BC1424E6
3E2B14EC
BD93ED52
3D417226
3CF47F99
3DB1D606
BE2E4B88
BD1B8024
3D9171E3
BC879A28
BDDC8084
3BE27E0F
3D768F08
3DF70585
BE22EA10
BCC8BC9D
3A86162F
BE15D0FA
BDF8A97A
BBC215BA
BD63F141
BE0D9B5F
BC953DEA
3D5E6BC6
3DA222D5
3E31B36C
BD89374C
3C9B5419
3D84DB9C
BDDD3911
3E14D6E4
3DBA469D
BDFE6ABA
3DB1BD62
3DA64F55
BD957364
BCD45847
BC8F4D7B
BD29930C
3DC8FDA0
BC791E64
BD3A56DE
3E5BB3C8
3D025D07
BDC87CA6
3E1C76D1
BE4581CF
3A6496EE
3D34C3C2
3E28958E
BDCEAE9F
BDFD8D7A
3D9A2489
3DEE3583
BD837AC4
3DB161A2
3D269058
3DDECDD1
BE1E4FB9
BDF0EFDD
BCD7B635
3C3D05AF
BCA031CF
3C1C3CE2
3D28C47A
3E06A4CA
BE05846F
BD91AFC0
BD045AA3
3C4ACD18
BDDE9318
BDE254A4
BC98D25F
BE339B02
BD0DB164
3E17C632
3DB26D8B
3E03FA2B
3BCF073A
3C808C82
3AAAA7DF
BDEA9718
3DC6F7A1
3E12F599
3D6BD6E9
3DAABD5E
3DB9378F
BBC2938E
BCF97892
3D89ACBD
BDD867F1
3DABE404
BD9A1B19
BBAA21A7
3D9D7ECC
3DD5C6C1
3D685EC4
3E1AED57
BE27225B
BD2E935C
3C8C38F3
3BC21E1D
3D9F1E8E
BE22B7FE
BD2CD8DC
BDE79BBB
BD84F766
3D83369C
3CFBB2FF
BD7BBD7B
BDD2DCB1
BE09C993
3D2FC159
3D665493
3DA4894C
3C99AE92
3CD97D4A
BDA662BB
3D70142F
BD810BE9
3D2F1349
BD995B36
BD411C2A
BCCF3776
3DC391D5
BE1AE819
BC5BA0A5
3D8E1933
BE2F30E8
3E0F55DE
3DA8DA7F
3D73D9EC
3CECACD2
BC794C88
3C945953
3D4894C4
3DE62A1B
3DAAB368
3D822468
3D937543
BC2E3A3B
BCA8E0CA
BDCF74CD
BD1131EC
3CD3F5B6
BD80D5E9
BD6A3593
BDECE896
3D89CD3E
3E3E93E2
BCDDB552
BCAC81D4
BDA9667B
BDBEBBFD
3DA5ED4A
BE296356
BDE9C2C2
BE15BDD7
3CB89720
BC2AC109
3C565A14
BE0032DB
BDD4FF86
BDB4D50F
3D5BDE83
3CD230BA
3C8B9FDC
3DB2FCAD
BCE1F18D
BBE8FB01
3E1832FD
3CBA3012
3CE5E892
3DD72D5E
3D099AE9
3CAD1288
3DB4DF05
BD2034F4
BD33F423
3D695960
BE037260
BDE17226
3DE7AAEF
BD4A59C0
3CCDF267
3DDE9AF6
BDF5FF61
3D497A68
3D68C8AC
BD901C93
3C8E3CDA
3B9845DD
3D16CF85
3CC7DE51
BBE59AFA
BD896D4C
3CB05532
BC010E88
BE415B14
3B76DFC6
3E88CE4F
BC862D41
3DCAC9F3
3C689A89
BC954003
BE238716
3E25E41D
BDB422CD
3D4522EA
BCE1CFFF
3D968D76
3CD59D56
3D8D2CBF
BDD51BD6
3E2BD124
3CBE6C4C
3D3F4342
3AF8C650
3DCB4C7F
3D81437C
BD7F6E3F
BDFDBE3C
3DBA322B
3BCC4695
3D78982D
3DED099E
3C92BA17
BD0E9A2C
BE1C254A
3E12ECF2
3CB5696E
BE127781
BD26DDF0
BDF3D20F
BD24302B
BC633ACD
BC9231C6
3E21819D
BE11A3F4
3CEE0B0B
3BFC610F
BD851761
BDC599ED
3D5A9329
3C4E8102
3AE043A2
3E321251
BD5FB1E2
3D84DEC2
BC550657
BDF4152B
BD3F6A0E
3C040E17
BE095422
3E5D9946
3D8F25A2
3E439325
BCBB2357
3DFFD60F
3D3ADE22
BCF11B61
BCC842FA
3DD9B1B8
3C8791C5
BB3B2BBB
3DE4E50C
3E5744F6
BC7DBD30
3D71E3A8
3DB53CDE
BCEA4EBE
BD771327
3CDC5719
BDA9C77A
3CF5AFB0
BDD480A6
BCF6965F
3DE23422
3D817CA2
3D9D8F93
BE83A8E7
BD67A744
BDD03E21
BDFEB0FB
3E1C00DA
BE13953E
BDED3CFF
3CE6601C
BD314014
BD80168B
BDD3CC4B
BD4636B1
BD7DC487
BCAF1CB9
3D4C069E
3B196B76
3D89C77A
BCC6D3FA
3CA031CF
BD7B506E
BD423B79
BC6F06B3
BE13BC90
BC13D966
BDAA70D2
BC9C8430
3DB0E560
3CFFAA04
3E0F8488
3DE30447
BD277708
3DE84168
3CE06D94
3D96EC5B
3D1157AC
BD9E9C02
3D7D04A3
3E309310
3E203644
BC3B9064
3AFF327B
3CFCC187
BDF0D307
3C680BED
BD3D3E4F
BB81908E
BD2EDDCE
3D803819
3CC69D73
BDD9F2BB
3E1C8EEF
3CEE9FF1
BD68A2EC
BD7C5CDD
BD624CC7
BD89FE00
3E03B18E
BD3C243E
BCE6601C
3DDECCC4
BD9B1184
BE1B7A5F
3DA997C4
BDFBF26F
BD65119D
BDCB0100
BC9F4D38
3C0C47A1
3B618266
BDE2AE4B
3CA47885
3DAC4A41
BB9595FF
3CBA27AF
3C7687B1
3D4A276B
BCF6BC1F
BC8023A7
BE2C84F9
3D9CC20D
3DFF51F0
3D64FFC9
BDB3E35C
3E332724
3CDCE5B4
3DF06AB1
BD49FB61
BDED349C
BDB5653D
3D87FC33
3D5AC57E
3DFD41FA
3DBF4C2B
3D6BBBA5
BD2A6F3F
BCF5CD0C
3D21D96F
3DFCBAB6
BD3F1950
3E1F3E47
3C8E6299
BDC428D4
3B18F606
BBE75793
3D7F1E8E
3C37670A
BDC78317
3DB95465
3D8FD4BF
3E424DD3
BDED4456
3D110E45
BE14D7F1
3B9728A6
3E61C25D
BE0DB7AE
3D6ED99D
BCB0403A
BD8A3A4B
3D05D639
3DC08E15
BD0A01AC
BC6F9980
3D996207
BC0B32CF
3BDEA034
BDAE7360
3CA2F273
BC8E9920
BD947A5B
BE427525
3E3520D1
3D2D8E43
BD0896DD
BDAFE932
3DAE0115
BD05718F
3D67B6FE
3B1DADFB
BE1641F6
BCACB85A
BC0E043A
BE2E3CDA
3D54983D
BC6C2481
3CE31727
BD09DBEC
BD19E1F4
BB399913
3E2BC4D2
BD006D0D
3E0F6C27
BC0FC0D3
BDD8AB93
3DB29670
BC833615
3E374645
3E37A461
3DDE8039
3D078D93
BDD1D580
3E864FDB
3D190D17
BC505293
BD890FF9
3DF9A177
3DB81301
BD80841F
3BA600B0
BE321D97
3CFAFC8B
3D80AE97
3CF9CC75
BD72830A
BC30AB2E
3DB76D55
3DA70B8D
BD6D3C79
3DB15B57
3D8835DF
3D91569F
BE40F3CB
BD19DBA9
3D05E1C1
BE054CDB
BDEF1993
BD6964E9
3D1E492C
3BD1A650
3D1B4352
3BF6837F
BD77FCFC
BD698677
BDF1F81A
BE84BD77
3E15DEDF
398B75EA
BDE05FF2
3DA02FB6
BC8E3044
3E090E24
3B15182B
3D62584F
3DA69AD4
BD6C41DD
BDC3E426
3D99988D
BD72EDFE
3E5487FD
3E7F6CF0
3C4610F1
BC0EAC00
BE0523F6
3D95464E
BD1785F9
BE9CCC47
BD12D98C
3E0A6117
BDDBABA8
BD26E43B
3DC2B1F7
BD731A09
BD2965F5
BDA3D9A9
BCC87336
BDADEE35
3CCAC6CE
BCB3D6C7
BC1E16D7
BCA92C49
3D0E7AB7
3CAE0E30
3E08EBCC
BE1B5E96
3D4764AE
BC6AEE20
BE27310A
BD4532A5
BC2B3248
3D449881
3D0BB4D5
BD2B851F
BDB16441
3D073797
BE069AD4
BE62656B
BE46F4BF
BD334D6A
BDAB10BA
BE133ACD
3C27589F
BD8B1359
3E3306A3
3CC944ED
3E0B62C7
BD7DFF3F
BC100C52
3DCF28C8
BD360179
3D536D65
BD1C0011
3D4B2A6B
3DBF0B28
BD0A05DE
BD692924
BD941073
BD998F1D
BE89F3A5
3D8DAD32
BC70DC77
BE5FDC59
3E068406
BD889763
3D60CE0C
BCED8905
BE07F499
BD1ED6BB
3D3F0026
3CF49ADD
BCC7A17F
BC7CEB79
3D00EE07
3E5A9974
3D5FF3F1
BDDF39D2
BE302C91
3E64C6A4
BDAAA971
BD8D23D5
3E1BCB60
3CC2A23C
3DA6A099
3D1D7881
3C4814D7
BD60F909
3DA2699C
BCAD57BC
3D2C4502
3D30C133
BE378855
BDA06F26
BD8026CC
3D77F7BE
3D61144D
BBF3C2DB
BE2E1AC5
3D315B57
BDC279DD
BDD578A3
3E1CB0C0
BE249060
BDA90CD4
BDE81B22
BE3636B1
3DB3C925
3D7C792D
3D810F95
BE68637C
3DB2F4CF
BCA12945
3DE21F2A
BE70196E
BE19BCFD
3E4FBB95
BDCE1F7D
3DE7863C
3D33AFFB
BE0BD7B2
BDD0CBB0
3DBC06E2
BD045FE1
BE298890
BCD1526E
BCCFACE6
3EA658E6
3DB44C38
BE57CD03
3D95D895
3E18D823
BE38201D
3E0E0DAA
3E13CD9A
3D53B4B3
BBBF4CB2
3AD38CDA
BD6698BB
BC4ECC81
3E9ED289
3D1D744F
3DFEE808
3E92EB3E
BE6F13CF
BD3CC187
3DE5D6BF
3C05F4A1
BD8AAC97
3C3B3C82
BD056712
BD455758
BE5156E2
3D3F7DFA
3E211948
3D8DF267
BDDC13FD
3E1A7CE1
BD9017DB
3C9F3C71
BD664E48
3E5CF9E4
BD735C18
3A1E12A5
BD1A3E3A
3DEA515D
BE670C99
BD08EAC0
3E51E29B
3B756EAD
3C7DC593
BD73E682
3D6ABDE4
3D01CB47
BD0E9707
3D03EA70
BE0CFAAD
3D032FCB
BBC66905
3D67EE91
3E83CEC8
BDC4039B
3D590C0B
BC2FAF86
BD9C9F73
BE1E68A1
3DBD8B61
3D40FECE
3E669F8C
3D430F49
BD14BDFD
BEC37ED4
3D1E742A
3C3EC67A
BD198394
3DA8637C
BE2F27BB
BCE7E847
3CE4CD75
3C2A79BC
BD163BAC
3D893D10
BCE3C31E
BE02FA94
BB9DA598
BC0EDE55
3E52DE87
3E85477C
BE28FA7B
3D5CAD15
3DD442C8
3E1134CE
3C544135
BCA35F81
BD9C4D23
BCA593A3
3E6554FC
3CE5F0F6
BE43AEAB
3E09845E
3DCD117B
BCC814D7
BE5BEC25
BD742246
BC81BEB2
BD1B9E8C
BDCF1993
3CE50E78
BE556367
3CFE889C
BD575297
3DE3BE66
3E2DD228
BDF76790
BE063AE2
BDDBEF4A
BD7B84DC
BD3EC461
BA784018
3DE74645
3E20FECE
3D454046
BD3BCB1D
BE200C52
3D5B5632
BCBA450B
BD52C387
3DF0F302
BDA43138
BD8A4B12
BE066D7A
3DFA0F91
BDE087CA
3D415C21
BDFD46B2
BDA1B542
BDA03819
BCA21A72
3E335E74
3E2EC5F4
3BA36199
BCFD9125
3E82B66B
3BF2AE08
BDB2263E
BDB89C5E
BD8C3B0C
3D42F944
3E5A59C0
BC761672
BCCC9214
3E39CD3E
BC634331
3D7F3494
BE4EC56D
BD416378
3CA60B2D
BCC180D4
BE25B7D0
3D17F951
BDEF41F2
BAC2E771
BCA71FFF
3E2E9186
BD813900
3CC692F7
BE94B3C4
BE6BDE40
BBEEB702
3CB5D463
3CEC17EC
3D63ED0F
BD3C45CC
3DC3CD9A
BD9F4ECA
BB4D7492
3E15DAAD
BD3BF834
3D9B9F12
3D86B591
BD2EBC41
BD045FE1
BDEE07E6
3DA2B6AE
BD84DB9C
3E374645
BE1087CA
3D535C9E
BD8E8D11
3D149F95
BD504B3C
3DFB9303
3D384EC6
BE30A3D7
3DD8F1D4
3B08D6D4
BC502470
BDE9973E
3D16073E
3DAD1633
3D8DF71F
3BD948DC
3BDC5D64
3E44CB5C
BDD5DD4C
BDA0D802
BDB5C183
BC047F56
3D16CF85
3C314EC2
BCCFB331
3DCB923A
3D619EB6
3DB19264
3D258E65
3E0FECDD
BEAEF6B6
BC691C8F
BDBD67BA
BDBBB0E6
BE0DB164
3D1B22D1
3D01CF78
BCDC6195
3B1F1F15
3D38E5C5
BD913837
3E8C9ADD
3E00867B
3B4A1CEF
3E1ED634
BD9F8CA8
3E2AD3A6
BDA9118C
BD69BAE4
BBE7E62E
BD9CCFAF
BC90A783
3D293E1D
3DEBF013
BD6089E3
BC464FDB
BDFA3B15
BD6E83A1
3DEFFC98
BDBB39E2
BD3F401C
BD293D10
3D13DEA4
BE1670A0
3DFB85E8
3DA961C3
BE1CF2D0
BC84A2FD
3E11D7DC
BC86A4CA
BE1EE526
BD332485
3DE8CF7D
3C9FBA45
BDB656EF
BD8D1B71
BC598394
BDA2C6EF
3E1E5A36
BD877EE5
BD9B0814
3DCB5DCC
BE7D4BAD
39FA15DB
3DB73B86
BD0E0653
BD492BC3
3DB80022
BBDF04DE
BD67DBB1
3CE43244
BD138690
BDC5C9A3
3E1A4C62
3BFF5409
3C42E771
3DBFB9BF
BC9FA97E
3E37CFE6
BC9628CC
3D5B078E
BD657EAA
3C291106
3BDF266C
3D728A61
3E310A9A
BC6C84F9
3C701B86
BE0800A8
BDD70CDD
BCE0DAA1
BC395E5B
BE1AFF6D
3986BDF5
3CB51DEF
3DB9BAA1
3D8D288D
3D5758E2
BE1C11E4
BD169A0B
BC831F04
BD213F4B
BE13A3A9
BCC8A15A
3E5EE84B
3D68A1E0
BD703C08
3B0C3F3E
3DB04F6E
BDF34699
3E3D16FD
BDA7B02D
3C7D9BA2
3D2E5CD5
3D96E371
3CA03819
3E4D4B6A
3C1E8816
3CE94680
3B04E832
BC5F5CF2
3D989939
BE1182ED
BB3E61D0
3BCB20FB
BC880D80
BDAEC4A4
3DC53437
BCA0E411
BD9D0071
3DFA0A52
BCE87D2C
BC361FE2
3D386F48
3D0299D9
BDD49731
3CA2D517
BDA6B69E
3DEC660A
BDCCA03C
BDA9F40A
BDD090F7
BE1CBE62
3D361459
BDDF91E6
3D13D534
3D1C1509
3E0AD0C4
BDAAB042
3DBE132B
3D30F5A1
BDCBD33D
BDB3226C
BDC80B67
BD9A2CED
3D8BDA94
3E2A2058
3DA51EB8
BD03F5F9
BD8D8F50
3D68DFBD
BD6C7EAE
3D94D270
BD8C4BD3
BD982BA6
3CFEF9DB
3DB14339
3C60C176
3E47B80B
3D97F0ED
3DA85EC4
BDFB8AA0
BD4B1DD6
BCA03C4B
BE09BDC7
3D059642
BE137DA6
BE3A4B55
BDE69729
3D2937D2
BE29E3C9
3D05F17C
3DA87A8D
BB99A62F
BD0E7254
3E17B2CC
3CD35654
BCA7D242
BD823C00
BE1D8772
3D5D0D8D
BD8E84AD
3C830A0B
BB96C3FC
BD1F4F51
BC930BE1
3DCD4AA1
3CEDDF01
BDD46CB9
3CECAAB9
3D36D00B
3C7A54C5
3D9BCD36
BD995B36
3D9F9724
BDDDEACD
BCD02689
3D89C4DB
3C9AED57
BD220DDC
3D4C1765
BD2CD078
BD88BDA9
3E095F67
BD23A3A9
BD339F34
BC7B3312
3C978705
3D8DDACF
3DC1CBCD
BD733FC8
3E16DCA0
3DE10ADD
BD88F8E8
BDAD972D
3D22D83C
BDE985F0
BDBDDA8C
3BE75FF6
BE3CB8E1
BD1ADD9C
3D48301A
BDC6F04A
BD52007E
BD597E56
BD916B12
3D3DAE82
3A9DCF89
BCDF4A12
BD776923
BDAB67C3
BCD8D152
3DC71A3B
3BB4B72C
3E4C9E67
3DAEEE95
BD8E8FB0
3D9DF19D
3E36C722
BD090710
BD4E28ED
BDA116EC
3BA02321
BD759579
3DFD2FA1
BC26E32E
3E02DB1F
3B1A2403
3D8BEAD5
3D38FEEF
BD3FDB4D
3D3AB756
3D3E7F2C
BB3C7B46
BCE2F7B1
3CA311E8
BE3BDCAD
BC9D1B2E
3C8BB906
BE14F9C2
3CBE0371
3DAF73C1
BD9DBA91
BD074752
3D0D477C
3CD3FC01
BDE239E7
3D5EF955
BD928C7A
BD95F4E4
3E230FD0
BD32E59B
BDE71CDA
3BB545C8
BD97689D
BD7D4068
BDBFCF3E
3CBC9EED
BD01CF78
3D083A97
BCC3D039
3C278290
3DA8F8E8
3DEB0425
3DC0DED3
3D497E99
3DC19B0B
38B88CA4
3E2FFA7F
BD8EA423
3C2F4ADC
BE2F7C24
BDA08312
BE5AC8E7
3C70F5A1
BE0C3A86
BC26937D
3DB2580C
3E33BD9D
BCAB3248
3E38433D
3C3C7714
3D5D56F3
3C91C087
3CC70004
3D032442
3DA14A4D
3D4FFB8B
BE53BF2F
BD5680E0
BC98F81F
BE445D42
BDB1F46F
3D43211D
BC249C2C
BD4AD57C
3C0E325D
3D4158FB
BB6043A2
BE3D4174
BCDF99C4
3D563561
3E3CC576
3DDAAAC1
3C887875
3CFB139D
3C71D81F
BD8A2CAA
BE2A3E7D
3DCC069E
3C2A582E
BDC4FB12
3B9131EC
BD3255F3
3E4E3AC1
3E869E80
BC79053A
3D95F80A
BCE89657
3CFAA25E
3E1B1BBD
BDA242D0
BE11187E
BDC0BCBE
3C7E5C92
BE257FFA
BDB712A1
BE1E5E24
BE619B4E
3D2AE18B
BCBD145E
3D431CEB
3CFA072D
BAC6B485
BCF5E204
BB3EA4EC
BC15896A
BD9ACABC
3CF96180
BDF69015
3BF1886E
BD5D28D0
3D8B7458
BD99A177
BE229DC7
BD89FB61
3DDF2991
BD816D6E
BDDB4A23
BD8BA387
BD57E564
BD19DA9D
3E477814
BB4942D5
3DB29B28
3DC624DD
3CD8F2E0
3D868FD2
3CF26AEC
3DD3458D
3CCB8173
3DE7E1FC
BDC1669D
BDF25AAB
3DA59AFA
BD460DCC
3DBADC0A
3DF0FF11
BDACA3E8
BBB178B3
3C7C1DF3
BD355582
3CBF7058
3B947065
BE2B51BD
3D4D26FA
3D917C5F
3D285DB7
BE14B663
BCE07A29
BD81094A
3E02DB1F
BDC7485E
3D92178F
BD45D639
3D93CFF6
3D3A94BC
BDAB90A8
BCC894C4
3D3DFD26
BD4F7FD0
BE26B50B
3C6518F4
3E01FD15
3D305426
BDAE7D56
BB0765BA
3B417657
3E31F256
BDAF294E
BD01A587
BDAEC8D6
3C7127F6
3DB93682
3E197DD0
BBE37154
3C9B60AF
3DA486AD
3BCB4289
BD064346
BD98FDE3
3D1C7043
3DF1E3A8
BDB36DEC
BC728416
BDA56ABE
BC699631
3D02F838
3C4215BA
BD3F1950
BDEA009F
3DADB270
BD291969
3DBB9D80
BDD54E2B
3DE0F5E4
BD7394B8
BAA37260
3CAF05A7
3E19346A
BD988440
3E093922
3ACD8559
3D83EA70
BE00F495
3C6FAA47
BE03D252
3D8F4278
BE23BD16
BD3404EA
3C0BD662
BBF038E3
BCC39DE5
B927C5AC
3D615DB3
3C5987C6
3CA83F4F
BCD12A95
3DA480E9
3D12135E
BC489B0F
BCF57710
3D1A8262
BD0779A7
3D9F8FCD
3DD3E78E
3DED8666
3DDD3D43
BDD22963
BDCB85A5
3D3A1F4B
BD875600
BD2F177A
3DF96B76
3E0E48E9
BD9C93EA
BDCC5B08
3DFA2835
BD969DB6
3E02B2C0
BDD4A772
BE297C81
BDAF7E3D
3C9AD42C
BDD57604
3DF648C7
BDADFB50
BBF69446
3E541787
3DB6049F
BD821427
3DB0E3CE
3CDE2479
3DBF6E3F
3D27136A
BCD818C6
3E0E1006
BDA1AF7D
BDAA3B58
BC4AC8E7
BDC2784B
BC68CCDE
3D97BBF9
3CA836EB
BCBB9F12
3D540CC8
3D85521A
3CE646F1
3D935B0C
3E1E3D60
3DE923E6
BC4A42AF
BE54A2BA
3C633ACD
BD900F77
3D466B1E
BBFF7DFA
3D52E621
3D835C5B
BB252696
BE058FB4
BDF0813D
BBDD3FE2
BD83FCCA
3C315B57
BCC6EB0B
3E0F8F47
BDB20EA6
BDBCEF24
3DD7CA21
BD4B30B6
BD8368F1
BE3A3DF7
BDB036CA
3D5F6DB9
BCD45C79
3C87DD44
3E2A91DA
3D39A390
BE0BE511
3E7AA6D2
3DB2B021
BE8D2EB6
BC0283D3
3E315486
3C125354
BD86BA49
BDB599AA
3DA430B1
3C54F15E
BD712B1B
3D5EBB77
BE1CD856
BBE13F4B
BD07229F
BDBF3733
BC92018A
3E23D85A
BD854CDB
3C4DAB19
3D97A56E
3E12567A
3E2D4AE4
BC6C99F2
BEAC93C9
BC2A7DED
3DE2D949
3D903298
BCDD6170
3D6043A2
BD27D999
3DBF17BE
BDE54A3C
BDAEE0F4
BDECAFF7
BCE53C9B
3E2073DE
BE5D9903
BCAEDBB6
BD605AB4
3DC6C5D2
BD12B2C0
BDA961C3
BD9BAA9B
BC8C47A1
3DFF3D7D
3DCF483D
3C996B76
3E02584F
3D8BF551
3E22A66E
BDD60200
3E268512
BCA10BE9
BDA6DB51
BE6E2479
3E2B1811
BD1244A6
3C97CE53
BD387161
3CE73605
BD4E2E2C
3DC0A5AD
3C11819D
3CCA558F
BD51C194
BE13AABD
BD91B79E
BD941180
3DD5DCC6
BD1AAC54
BD80FBA9
3BDA22F7
3DDD5022
BD8F166E
BD989E77
BDBDA37F
3CDA78F2
3D93354C
3E09F278
3D8A59C0
BD522963
BD0280AE
3D6F826F
3CA4FCA4
3D9F290B
BE14E486
3CEAB368
3D9C4439
BDF27B2D
BD58C6D6
BD31044F
3DA6F2E9
BDBF0670
3A8C60CC
BDF7C915
3DD029AE
3DBB8ED2
3D9F8099
BDDDF330
3D766E87
BD845027
3C7AA476
3DB5896A
BE3878FB
BC36F5CB
3DCB7889
BD30FBEC
3DBE9AF6
BE0784EC
BD72E8C0
BD3F79C8
BE12CE89
3CCF3FD9
3DEC9EAA
3C8E7360
3E2B6998
3D966D7A
BDBEE2CA
BD6D2CBF
BC9F1AE3
BE1F1F58
BDE2680A
BD82A77A
BCA02321
3DFCCAF7
BE2664D4
BDB1C21A
3E3CFE9B
3D0A2553
3D75781C
BD413A93
3E199C39
BDE3CD14
BDD0E12F
3CFD1351
3E0D51F8
3E44B125
BD035CE2
3C2A1D75
BC0038A0
BDD1CA7D
BDC2E3C5
BCDB91F7
3D8B0425
BC3ACF74
BCBDD335
BDE3EF28
3D7C419A
3CA0A527
3E1F84CB
BD843FE6
3D853F3A
BE16B767
3DA234A8
3DAC0CE9
BE9E4FDB
BD8FB331
3E399F5E
3C07485E
3D8C8605
BDD77FAE
BCE63A5C
BD8A65CF
BDD87BDD
3BC70868
3D8E22A3
3B4DA6E7
3D866B1E
3D028E50
BBA1F080
BD9672B9
3D3F1D82
BDCFB118
3C077681
BE12FA51
3D6CAAB9
3D38DB49
BE82E233
BDACE0B9
3E13A323
3D203B3F
3D866ECA
BCF5946C
3D494706
BD60E0EB
BD8E95FB
B9FECDD1
3E110518
3E159F2C
BD480F99
3D991B3F
BD9A8A40
3DC86F05
BDDC304D
3D341180
3CC00325
BBE2FBE3
3C28198F
BB97FA5D
3BFA8B4C
3CCF1801
3D521EE6
3C876C05
BD87E282
BD8D844D
BE0926C8
3DB9E493
BDADE1A0
3D53DC8C
BBBF2B24
3E18F53C
BE03269E
BDBA4F87
3D60E51D
3C18CC14
BD744E51
3C088723
BD6351DF
3DF1C971
3D91E6CD
3D5627BF
BD377186
BD57D49D
3D9DAA50
BD22C775
3D823290
BD154FBE
BD1EC80C
BDC77469
BCC34C1B
3C9C90C5
3DCEF77F
BAC36DA8
3C7C2225
BD9F090F
3CC258D6
3C570A3D
BE10956C
3CB7D417
3D97A80D
3E58DB8C
3D987F88
BD53B18E
BDE12945
3E29463D
BD50ADCD
3D5E6ABA
BDBE6D59
3D62456F
BDC15B14
3D96598E
BD2F4491
BE00BAE9
BC8D3F18
BCFE2A3D
BE61437C
3BDFE75C
BD8A5DF2
3D5D883C
3CEF826F
BB82D7B6
3D3ACC4F
3D99B802
BE234092
BC8E6D16
3DD864CB
3D98E9F7
3DFF8A8F
3C69680E
3C170718
3DB2CE89
3D7C5048
3D70BAE9
BB8B007A
3DD62739
3D523D4F
3C1BE8FF
3E1E108C
BD6BE271
3D041893
BDD0E886
BC871A3B
3DFCD24E
3D5A9B8D
BC802C0A
3C930BE1
BC1C779A
BD97AB32
3D930AD4
BDE2E1AC
BCAD57BC
3D95FEDA
3C1A2403
3D50E66D
3B6B56FC
BD5C79B3
3E70E172
3CA8CBD1
3D2A411C
BE0C6823
3D9DAB5C
BDBF2778
3DDA9A80
3B623AF3
BDC8DA7F
BBD7C6FC
3D652AC7
BE1BC87E
BD32A7BD
3DA01366
BDDE835E
3E608C82
BD4C6823
BE31C92E
BD330B5B
BD9F31F4
3D84FDB1
3DC2EFD4
3E024E9C
3DC43E53
BD49613D
3CF9591D
BD55A9EB
BCCBF8FD
BBE0F3CB
3C63608D
3D87B99D
BCDC39BD
3E6F6988
3E2A1E82
BD34BE83
BD85881A
BE429670
3E04E2B0
3D564C73
BE00A6FC
3D362846
BD492CCF
3DDAFA72
BDDAC040
BD5F0803
3D0711D8
BD190082
3CDE9C02
BDD39DA1
3DC450AD
3D8555C5
3DB504C5
BB06594B
BD04C9C9
3BA07F67
BCB2EBE6
BDA2DC6E
B969D51B
3D8FD439
3E14BCF1
3D04EA4B
BDB5AB7E
3C1F0E4E
3DDAF7D3
BD152F3C
3D3178B3
BDFCB253
BAB9346A
BDAAF577
BC12189C
BE329DC7
3C931444
3DC7A9E3
BA93532E
3D9D4D83
3BBDCAD1
3DAB2D0A
3D48893B
BD729A1C
BBAD0C3D
BD653975
3D8D801B
3C70D413
BC1FFD61
3E0A7158
BD0B8280
3CAE8C05
BCD04817
BE1CEE5B
3E807161
3CDB6C37
3D066B1E
3D8C1A05
BD8D0353
3C74A559
3C7034B1
BE0ADD9C
3DEA7371
BD4E0221
BE66D091
BDF4C76D
BCFC957D
3C5A09CC
3D86C3B9
3D6DA76E
BDC24357
3DEC1F43
3D1F090F
BD630FD0
BC1CED0B
BDB9AAE7
3E13779F
3DD692B4
BE1866A1
BCF980F5
3DC64DC2
3C468A93
3D37B7C8
BD680AE1
BDA3E8DE
BE11769B
3D5BF163
BE35C5B5
3D388A8B
3E522681
BD6F5665
3CD62E0A
BDFC45CC
3CF3B42D
BD800D1B
BD625C81
BD1D5D3E
3B61932D
3BEAE9EE
3B04C6A4
BD0919F0
3D1D66AE
BE4D4068
3D1669CF
BD379746
BE069E80
3DA1E2DF
BDE0E172
3DAF7CAA
BC6878FB
3D8EB13E
BC8CEF67
BD699D88
BE44F4C7
3DF4E54F
BBE3C537
BDDC7A3A
BDF45E0B
3D972820
BD798E97
3D47B678
BDC74539
3CDFE75C
3DC07BBB
3DD7310A
BE052D66
BBA39C52
BE0980B2
3E397CC4
3E5AEDDD
BC8E6AFD
BB8EEF1C
3E76F4BF
3DAA65CF
3D7E79EE
3E00507A
BCC9EA9A
BC8F51AD
3E034A45
BDE5EBB7
3E1977C9
3DDD9664
BCFD5022
BD691A76
BE493DD9
38C0F020
BD8C1B11
BB4EB357
BCD3671B
BD101F32
3D717BD9
BA7DC161
3C4EE17A
BDD5FC3B
BE5F6A51
3DD2E7B4
3DC33B54
3CBB2DD3
BDBB9064
3C43DEE8
BC999BB2
3C474752
3D976F6D
BDC40315
3DA72A7C
BDAB1BBD
3E271E6D
3D77EC35
BC57CF5F
3D8F2171
BD988C1E
3C8CEF67
BC3DF8F4
BDFE82D8
3D7838C1
3CF40810
3E07E176
BCED0B31
BD8088D7
BD82F05A
3D9C44BF
3D8B3EDE
3D87C287
BD579AF2
3E125397
3D28101F
BDD10236
3DF3061C
3E045C79
3DFB1A6D
3D9FC86D
3C816ACF
3C3341E1
BD13CFF6
3DBAF8DF
BC0BC9CD
BCA9930C
BAD02470
BE0E0935
BCCA2553
BDBE414E
BD0053E3
BC4F1C32
3C9984A1
BD9C768E
BDFFD827
BDE5082D
3D24EDF6
3D23C750
3E1985F0
BE1AEC4A
3B66E222
BD7F4342
3CD93C47
3CF720C9
BD89BF16
BCD05F29
3E22E7B4
3DD121AB
BC9EABBD
3CA0125A
3E187E7C
3CB3D07D
BDA47347
BCCBEE80
BE35681F
3DB56755
BDB206C8
3D4D79D1
3E08B589
3C9DE482
3CEF5665
BDB7D1FE
BDBEA572
3C97CC3A
3CDDE58E
BDC14F05
3DAC2B52
BCEEA20A
3E04A98B
3EA599AA
3CFAD081
3BBF6E3F
3E43E319
3D73E9A7
BE359210
BA4069E8
BD4622C4
3D2F9336
3CCF312B
BD3A786C
3D915CEA
BCF68DFC
BBB545C8
3AAA0019
BD984988
BB468230
396CFA6A
3DE32096
BCACA362
BD59BC34
3DE8A505
BD71209F
BC29EF52
BE83BF51
3D33BB84
3DB4C22F
BDA64BA9
3D1BA2BE
3D54AA11
3C8791C5
BD31DD5D
3E49ACBD
3E089EBA
BDDF4773
BD722292
BD01E796
BC8EB67C
3D3D2C7C
BD4A1AD6
BD4EE17A
3DC4A7B5
BD47485E
3D0CA2DB
BE110386
BDECBC8C
BC0D3F18
BD7E22E6
BE095E18
BE17B13A
3DD13E81
BDD1183B
BCBC2DAE
BB01B21C
BDB38716
BDCA6A87
BD23E7D1
BDB5DEDF
BE548F11
BC387BDD
3DAA2553
3DAC5B08
3E22A2C2
BBAA3AD2
3D80D802
3D3B40B3
BDE56D5D
BD9B8B26
3D384A94
3E18AAC9
3E291C4C
BD6363B2
BD8D6D3B
3E583B60
3E2CB3E5
3D11D799
BC605037
BCCFCA43
3C90FD7E
3D96FB8F
3CFCBF6E
BD889C1B
BE46ABDE
3CF1ED18
3E0441FF
BE01B8AA
BDC0A0F5
3D9599AA
3DE8F7DB
3DAD1E97
BDB29132
3DB466F5
BDE3D46B
BDE6A11F
3C729D41
3CC6FDEB
3D66277C
3D863411
3D6327EE
3CF27BB3
BDC7685A
BE0DB3C0
BC6AC860
3C896788
BE597892
BDF05187
BD801CD6
BE3B06C4
BDDCCC03
3D2543F2
BDC56CD7
BD93E9A7
BE3F0D41
3D0E28ED
3C8C3D25
3D41FA76
3DB846E9
BC3F7271
BD9B37CA
BD801A37
3D6C56D6
3D733B97
3BDC981C
BDC6DF83
3CB4E981
3A5801B4
3E49029B
BD2F0175
3E53AFB8
BD8CF5B2
3C077681
BD19B802
3D3A5F42
BDA5DE16
BDCCF5B2
BD0B3700
3CBFA8F8
BE70E172
3D6ACB86
3DE0EC74
3D67B4E5
3E316E37
3C8FE692
BD08D3AE
3D8657B8
3D8786C2
3DFE3B04
BD187725
3E0CC5FC
3E32E558
BD96AB58
BD2CC815
3DE5D181
BDA913A5
BD94384C
3D9CC07B
BEAC371E
BD5F8F47
BC2C7DA2
BDE1BA80
BD99B2C4
3E216B12
3D1C25D0
3DCD19DF
BD862132
BD17C5EF
BDBBA5E3
3D73EFF2
3C58ADAC
3CEFAC60
BC62541E
3CE28AA4
3CE1B4BB
B9ED80A1
BE05DAAD
BDC3686A
BC8FFFBD
BD8C386D
3E1C3DEE
3DCC204F
3E917CA2
3B25375D
BC990AFE
3C0433D7
BC94FF00
3B369553
BE69D020
BCEE75FF
BDBD1B2E
BD93A366
3C07B13A
3D4F3344
BDD9F6EC
3D9DFEB9
3E130C24
3DC5AD54
BCEB2075
3DFA49C3
BBAB92C0
BB1070FC
3DB3F39D
3E0B15B5
BD8C5543
BD657FB7
3E6E874D
3D13FE19
3D384231
3D76F199
BDE69835
BDE2D1F2
3CC3A42F
BAD0AAA8
3C72CF96
BD8BA494
3E2C0831
3DDD284A
BD0AF3E4
BE2D00B4
BE5F9F45
3D1DE7A7
3DF551D7
BD436EB5
3D87C30D
3D017FC7
3D2D959A
BC9DA7B1
BE4F98B7
BD58B1DD
BD28B3B3
BDBDA61E
BD2F31B1
3CBF6A0E
3D60285F
3E4F090F
BD394424
3DBAF4AE
BC8F7B9E
BD8A393F
BE31F538
BD52E621
3CEEC9E2
3D83022E
BD27C17B
3D0DDD6E
BD83E7D1
BE01A0CF
3E519DAA
3D60EA5B
3D6872B0
3D305D96
3D5DE376
BD97D8CF
3E1537A0
BD58F92B
BD75A31A
3CD069A5
3DBE89A9
3D3A1D32
3C202321
BB784018
3D9340D5
BDDE0158
BBE7924B
3E233E36
3D187619
BDC0114D
3C8E1B4C
3D9662FE
3E2BCC29
BDB67EC8
BD4ED917
3AE1F7D7
BDA0E7BC
BCC388EC
3D346994
3DA0C847
BCA89DAE
BDCB0100
BD2731D3
3D8072D2
BCE7F90E
BE3E7968
BE2C2FC7
3B5F47FA
BDA2ACB8
3E152F7F
BD8A2014
BD1D8A55
BDC200C1
3D07B02D
BB1B62C7
BCAF48C3
3D43254E
3E1AEB3E
3DEDB9C7
BD878D93
3BA979E1
BDA86F8B
3DCBD3C3
3D3D3E4F
3C223C00
BDCB2AF1
3C4C78EA
3C0E6D16
3D22D2FE
BE11FD9C
BE45C704
3CC5FBF8
BD855A7D
BBC100E7
3DACDA6E
BDDECE57
BCA65ADE
3CDE02EB
3D1A8DEB
3E43AEAB
3C31E5C1
BC90470B
BCC89F41
3DEB1CC9
3DBC7B46
BCC0B34E
3E174363
BC4E7CD0
BC39170D
BDF25919
3DC290EF
3DB847F5
BD11A006
BD96E8B0
3D6E4F33
3BA9BCFD
3D544135
BE2F46AA
BDFF25E5
3D45015C
BCEAF683
3D031DF7
BD3329C3
BC5BB59E
3D5CAF2D
3DAE46D0
3E7D96EA
BD6C269A
BC6F73C1
3E1410F9
BC025E14
3CD9E625
3D87F5E8
BC9A8694
BE3FB58D
3C3B98C8
BCC22899
BBA6CA04
BC3C5155
BD7F290B
BE0E0E73
BE7D8F93
BDA15F46
3D15BAB2
BDE3ED0F
3D415A08
3E459AFA
BD9E364C
3D68166A
3D5B21C4
3CAE5797
3D403DDE
3D229846
3BC8ABD6
3D052C5A
BC233376
BC38E8EA
3D648F97
3E870CBB
BDC8C3F4
BD681A9C
BDA2C450
BD9198AF
BD49D8C7
3C99999A
3BCC35CE
3D8AD8A1
3DD8B3F6
3CDF19D6
BC917B53
3ACD423E
BCDD1809
BCB8FDE3
BD793CCD
3C9CBEE8
3DAE5FFA
3D2CE033
3D5628CC
3D8199FE
3DB9652C
BD32FBA0
BC8C79F6
BD97164C
BD079F66
3DC97A68
BAC8ABD6
BE6D6990
3CC0CE92
BCAFCAC9
BDD52A84
BC4F2496
3D5A554C
3BE1E710
BD82D2FE
BCB191DE
BAF23897
BD82B94E
BBEAA6D2
3C98AEB8
3D937543
BDC5FFA4
BAAE74F3
BB2A21A7
BB156C0D
BDF105E2
3E426C7F
BE0817B9
BD16BA8C
BDEF13CF
3E8528D0
3DE41C3F
BC967A96
BDE15F46
BD8CA70D
3D577D95
3CB13166
3D0A6117
BDB74EEC
3E2DA1EC
3AA71DE7
3C380ED0
BD45C9A3
3DA9528F
BD99B563
BCC4B09F
BE2A0CAE
3DC86A4D
BDA245F6
3A1BF9C6
3E0F4A56
3E4BDA0E
3C615012
BDF59CD0
3CBC2FC7
BDACE810
BCDF1173
3C2EDDCE
3DBC347F
BDC3ED96
BD26362A
3D0D099E
3C3DDB98
3D246BF0
BC91BE6E
BE038F36
3DFBE4CD
3E1B51BD
3C6F1BAC
3CB60D02
3DD5AF29
BC98F606
3D2B27CC
3D6EBE59
3DB71C97
BD4E4FB9
BE3FF195
BE0ED84D
3E1DDE37
BC5976FF
BD8AC5C1
BCF9A06A
3E30C997
BD7890D6
3CC35CE2
BDF4A4D3
3D32DC2B
3CC8C932
BD0880D8
BC4D5736
3D1AAE6D
3CFC6FBD
3C7CAC8E
3D6072D2
3D6DE226
3D3F0FE0
3C9D3027
BA7D7E46
BD9DBFCF
3D71B691
BDC730C6
BAC026CC
3C8EC311
3D7E8251
BD95275F
BE12F9CA
BD0BA40E
BD79830E
BD7EF391
BDC7D135
3D1233DF
3D41F751
BD902B41
BD13879C
3DE43569
BAEB0319
3D082F0E
BDC2FE82
3E4B9A5B
3D77867F
3D1804DA
3E17B1C0
3DFB2032
BDDAB325
3D989F84
3E1279DD
3CA62CBA
BD0CAC4B
BE3240FB
BE0545C8
3C49D5A2
BC74E875
BD4CAA32
3D3721D5
BD262563
BE530A91
BCE7C8D2
BDB2E59B
BCFE60C4
3C811B1E
3B9BB6AA
BB41DB01
3C81908E
BE0EABBD
3D45EA25
BD0256BD
3E365F52
3D078A6E
3DA249A1
BE196F22
BC58BA41
3DBDC161
BD2E2110
BE075B3E
BBFB3312
BD2CDC01
3C5F6988
BD9717DF
BCEC3761
BD994C01
BDE4B663
BD7EE0B1
3E20F0E9
3E81AE92
BD66937D
3C896FEB
3DE66341
3D898BB5
3D91971C
3C6A5F85
3E1EED46
3C238759
BBB43958
3E0A3D2E
BC8094E6
BDA0FDC1
BCED17C6
3DB418D7
3D44AF92
BDF7EFE1
3D543E10
BD8CF744
BDCD0D4A
BC9E94AB
3D6C5198
3DBA1E3F
BDC3E6C5
BE5BB9D0
3BD338F8
BBF5C28F
BD447D3D
BD0A2FCF
BDDC6D1E
3D263411
3D9F609E
BE216C61
3CF33659
BC849668
3E2A2835
BD3A7B91
BC4DF267
BDE3E8DE
3DBD4F9C
BD594C01
3CE88DF3
BC1220FF
BD2D8905
3B25ACCD
BDCD7B63
3DA72E27
3D4F3238
3D561805
BCC638C9
BD865B64
3D5E56CD
3E64D6A1
BCF6BE38
BCA48302
BD3125DD
BCAAC53B
3C261177
3B5551D7
BD18F606
BBFC9BC7
3DB81A58
3CBD0BFA
BDFE7EA6
3D407571
BE0F80DC
3D86FEF8
3D8E9CCB
BDBE0158
3E41F6CB
3DF6F199
BE5D4AE4
BDF511E0
3DCB3D4B
3CC959E6
BD8B2BFE
BCC42E99
BDB32160
3D9C89F4
BD30E1B5
BCF26D05
BD235936
3DC3F78C
3D8C0CE9
3D81FB83
BD5796C0
BC8813CB
3D7BB2FF
3CC6C765
BD5C896E
BD9E4E6A
3E324463
BE0FD7A1
3E082129
3CB1FEEB
BD8CD4AA
BC987E7C
3DB0DE8F
3DE623D1
3D98C4BD
3DEC38F3
3DA092CD
3E071434
BCB32F01
BC9B6D44
3C072B02
BD225C81
BBB0E1B5
BC95A294
3CD8EC96
3E0F7660
BDD9C0EC
BDF525CC
BD0284E0
BDAD65E4
BDC3CD14
3C9426FE
BD915F89
BE25FBB5
BCD3A1D3
3D304684
3E323C43
3DA83EC9
BD8A7BD5
BD1E6ABA
3D765A9B
BDDB213E
3D58FF76
3E4462C3
BD4CA1CF
3E001041
BBF96E16
BDA99BF6
BD9CF030
3CC7496B
BD840AF2
3DA192A7
BE0B8E4C
BC502CD4
3D2836EB
3D6908A2
BE323E9F
3E535760
3C81450F
BE00307F
3DB0BE94
3D7AC711
BE102A35
BDFDECE5
BCA5E354
3E18EDA2
BE122F27
3D964E8B
3D03FD50
3D9FA7EB
BE17FCFC
BE08F1D4
3CD2AA5C
3D2C8A37
BC7F10ED
BCE67B5F
BCF3604A
3D230A91
BE49BAE4
BDCC3223
BDAD7061
BDCD612C
BD29D1F6
BCE20AB7
3CE088D7
BE69C561
3B58EC96
3D8C6B48
3DD4B381
3D8DCB9B
3D9D9DBB
3D415C21
3DAEA6C2
BD911A54
3D86772D
3E2FD86B
3D3B54A0
3D9DB3C0
3C9081C3
BD90BBF5
BD1692B4
3DADB941
BE1ED4E5
3DFF9160
BD490C4E
BDA12839
BD0E5D5B
BC082ADC
BAA84BE4
3E1F0F5A
BD97531E
3CDECC3E
3D07EAE6
3CCC8BCA
3D116335
BCFB4E55
BD8AD03E
BCF79421
BD807DD4
3D70BD01
3D4C197E
3AC4588A
BE1069E8
BE07503C
3D9B3B75
3D305D96
BD04955B
BCAFFB05
BD7C536D
BCA93294
BCE3ED0F
BD92DECA
3D66362A
BC2B6D01
BDD99568
BCA2834D
3D90C77E
BE0EABBD
3B1B8455
BC35286B
BDE68BA0
3DDDF97B
3D5CCB7D
3DFE80BF
3BDC8755
3D7C30D3
3DBBA776
3D488A48
3D53EE5F
3AA24463
BD3CC7D2
3D5DA8BD
3D8F605B
3C856E69
BDB82B1F
3DD0A5F0
3B9CCB7D
3CF4E22A
BE110E88
BCB6C58F
3CD3FE19
3DAFDD23
BD166278
3BBA5A04
3D142B30
BE40BD01
3D2BAE04
BE983B82
BDF2EB5F
BE313B9F
3D161911
BDD271BD
3D2DB403
BDE23854
3C66F2E9
BD825AEE
3D2C0618
BCFA1A0D
BD1F8A09
3DE503FB
BCCBA51A
BD5C853C
3D092EE8
3D7ACA36
BD9546D4
3DCC3E32
3CA1C476
BDBD0A67
3DCE8E1D
3D116FCA
3B1B62C7
BC86594B
BE3FDE72
BD14C554
3E43708B
BCE0F1B2
3D846067
3DE4BD34
BD896C40
3D3E37DF
3DB30F06
BD5AFAF8
BDC621B8
3DB9A283
3DA46F9C
BDC12A52
3B054CDB
BD518E32
BC511BE7
BD3CAA76
BE194C01
BDA90471
3E41D430
BD470FBF
3D0EE393
3CBC536D
BD9CF249
BE585B18
3D9B773A
BDEE7C4A
3BE807BC
BDAEBF66
3D804B7F
BD863498
BCD30AD4
BE30BBB2
3DAAC109
BD50257D
3DFF9E7C
3D830B9E
BCD39B89
3D5F5276
3CE5625A
BC83DBC2
3E34C7B0
3B8D972D
3D9A4ACF
3DDDA7B1
3D0E8A72
BD9E4ABE
BD9F66E8
3DB497B7
BBF27BB3
BDDD206D
BD6E30CB
BE3FEAC4
3D9BC233
BACCDD94
3D73CE64
3E1ACAFF
BE82A498
BD4333FD
3C8B6955
BDAAA2A1
BD267E84
3DCAF790
3D2324C8
BCFA311F
3DB62AE5
BE0B295F
3D2D9AD8
BD41DF33
BE543F60
BD0955B4
3D360F1B
BD801041
3E587D2C
3D9028A2
BBC3DAB6
BDA8BEB6
3DF3482C
3CD27A20
3C6B399F
BCF71434
BB248F97
BDA8754F
BC8D1959
3DBB8BAC
3E13647C
3D17B84E
3DC7021D
3DAD9CF1
3AFBA882
BD610492
BC8919F0
BE172FBA
3DADF71F
BD3F37B9
3D228ED6
3D55A294
3DBF02C5
3C97F1FA
BDEBAB65
3E15479D
3DC01EEF
BDE789E7
3D9B4FE8
BE19AC36
BD71897A
BDBB0468
3B69B38D
BD936695
BE2C636B
BE0B584B
BD282D7B
BDA8F7DB
BD76AE7D
3C9897A6
3CF9E9D1
3B299B6F
3D9F2E49
BDA3C212
3D892DDC
3D178D50
BD957604
BD68F191
BD63B14B
BE1420F7
3DE92791
3C2A821F
3D7DA61E
BCF5BA2C
3D52B5E5
3E6DDEBE
BCDE17E3
3D609EDC
BD4A9260
BC39C305
BD1100A4
3E4503FB
3E523034
3E1AC14C
BC8F40E6
BCD95140
BD96ACEB
BC54C33B
BD0D7492
BCEDBB5A
BC8FB656
3CB300DE
3D34B2FB
3C3EEC39
3C0533B1
3E011F4F
BDF307AF
3DE4217D
BDABBB1F
BB03558A
3D82AFDE
3C6AB368
BDB1A2A5
BD62089E
BD327675
BCEFA616
3DAEE957
BCCD67FD
BD2393EE
3BB252CE
BD4A600B
3D572FFD
3C81797D
BDE7B5F2
3D280065
3D337C9A
3D806A6E
BDA31162
3D030A0B
3D776816
BDB84902
3BD5CFAB
BDA85FD0
3DFFCB92
3D8CDD94
3D9CA31E
BE528912
3E27FB6A
3DB59F6F
3D1183B6
BE0AE1CE
BCEBF445
3C9437C5
3E1A5DF2
3D57310A
3E2D8CF4
BC70281C
3C1B8455
3C891C08
3CEB56FC
3C14E5D6
3E5AB368
BD072086
3DD95BBC
BC9235F8
BE06540D
3D567DBB
BC4E2D1F
BBF53C58
BD494E5D
3C06338B
3D160E95
3DDB6ED6
3E29E775
BD180F56
3DB368AD
BDCDE658
BE26A9C5
3DD5B35B
BCFE5A79
BC1BBF0E
BE03E35C
BD926D05
3C13C03C
3D810F95
3A07CA64
BCB19A41
3CE088D7
38DA1A93
39DDC619
3CD50A89
3D016378
BE2D7ADD
3C5F1E08
BDC4095F
3DE9795B
BD40431C
3DEC953A
3BAE18AD
3DE7E521
BACB295F
3D344C38
BCFE8039
BDF30E80
BAF605AB
3CA424A2
BE1AAB04
BCDFE75C
BC9B8887
BD6A1D75
BBDFE75C
BC9465E9
3D2AE8E2
3D9197A2
BE13D46B
3D1A8262
BDA5E80C
BE0184C2
3D80A0F5
BB3E5109
3DC51FC5
BC843E53
BC176790
3D111E00
BB2936C6
3E8F20C9
BBF21709
3D690796
BD862BAE
3E0788DB
3E439C0F
BD92D128
BD381627
BDC4ACF3
3CB4BB5E
3C90257D
3D6B313C
3B69A2C6
BDB0F8C6
3E2FACA3
3D25C811
3B22B9D4
3D982667
3D8CF399
3D357929
BDC539FC
BE3089A0
BAC111AE
BDA2DADC
BC14CCAB
BDCB252D
BDF3892F
3CC91D15
3DC1B5C8
BCF28416
3D0AA10E
BDA13FD1
BDD7635E
BE3BBF51
3E0DAB9F
BC9E96C4
BDC2541E
BD470974
3C01F538
3DE22B39
3D0C8798
3C410518
BB5306A3
BCCC0BDD
3AE86402
BCB36DEC
BD9DB339
3E86FA61
3DABA1F5
3C103644
3DE69058
BDCC63F1
3E2C8712
3D470868
BCCC9A78
3D567989
3DE9B068
BD2CE896
3DA89A02
3D994C88
3D78C975
BD7FD934
BD968BE3
3907442C
BD5465E9
BD947065
BD9D3BB0
BC346FDF
B9E496EE
3D926C7F
3D437718
3DA9EB20
BDC0296B
BB2D794A
3C99A1FD
BDEA172B
BDC92E62
3E175BC4
3C0537E3
3D1C9C4E
BC589CE5
BBC25072
3DE77DD8
BCFE2C56
BE9FA2AD
BE3D5561
BDA2F599
3C41C609
BD82FE82
3DEBB55B
BCB01EAC
3DE23E9F
BD33647C
3E1DD723
BD18A548
3D385B5B
3D01376D
BDC46AE4
3C5E58E6
3E089CA2
3DFC0336
3DC5B8DC
3BB649D4
BD49DCF9
3CB955F8
3CA975B0
BE43D923
3CD94AF5
3E31D430
BE496638
3E207D4E
BB9F8C22
3D37C137
3CC03BC5
BD8A1CEF
BDDF6B1A
3D9AD213
3D99841B
BDC3C9EF
BD65EEDD
BCE19115
3DD66E01
BCF82F51
BC344A1F
BD018612
3E29420B
BDD8E001
BCB4BB5E
BC19FE43
3DBFBA45
3C5F4C2B
BA388CA4
3D01322F
3C3B83CF
3E3543F2
3CA6A012
3BCBAF96
3CB32CE9
BE350375
3C1A3D2E
BD89D7BA
BD813CAC
BD1A8156
3D69142B
BE016B55
3E189C1B
BDED84D3
3D788DB0
3CA02B84
BDD1FA33
3C4408D9
BDD69DB6
BCA47022
3CE53A82
BD35A31A
BDCC3654
BE44C661
3CFA02FB
BE2EFAA4
3DB8E193
BE28A223
BDF05E1C
3E83FB7A
BDB307AF
3E12E2B9
3D7DEB53
BDF4C900
BE3D55A4
3D46B69E
3D404428
BDFFFA3C
BE342678
BD1B280F
3E01EA36
3CF43E96
BB2B4FA5
3DC644D8
3DD2CBEA
BE1F36F0
3E132CE9
3DD7353B
3DDD1A22
BE0D5FDD
BC2250F8
3BF240FB
BD882E02
3E7B86B1
3D54E5D6
3DF0ACC1
3E6F6D76
BE4923E6
3C9DA9CA
BB781E8A
3CB293D1
3ACBF2B2
BC84AB60
BD4B2FA9
3D3A658C
BE0FF7E0
BD3138BD
3D2F5233
BDB69553
BD01871E
BE935632
BE603819
BC205DD9
3B9246BF
3DB3B646
BEAF5E42
3CDC9603
3E521F6D
3D0D7BEA
BE19FECA
BCC7F994
3DE277C4
BD78DD61
3D17B635
3D0B4AED
BE33C46E
3D05D420
3D38E087
3D82DA55
BDD8C21E
BDBDAD75
3BCDFACA
3D1220FF
BA8D4BAD
BE31A6D7
3E36705D
3DE60136
BAC4BD34
3DF7FB6A
3E766730
BCB1B79E
BD11D580
BD54195D
BA9D8C6D
3CDB39E2
3DA54C55
3D92BF55
3E0169C2
3E0D9C28
BE1BFC65
3D4B5675
3D7A615B
3DDBAA9B
3CC067CF
BD65F527
3D7723EE
BD7EE914
BDDE0A42
BDD09FA5
BDEDCA08
BD1E7A74
BD2D3D86
BE872F98
BE258A33
BD8B6AE8
BD62CECD
3DB99674
BDF5C0FD
3D5DDD2B
3ECE17E3
BDB944AA
BDCBC7B4
3E0486AD
BDB456B4
3C36848C
3C9E44FA
3BB5C39C
3AC2C5E3
3CA0535D
3D7878B8
3DE3C7D6
3B2AEAFB
BE0E7211
BD8A4FCA
BDC0E51D
BD3CF1C3
3C067F0B
3E464B23
BE52B90A
3D0AFB3B
3E69D1F6
3D6006D1
BB747304
BE274FB5
BD3A604E
BDDD0E13
3D76BC1F
BE244C38
3BF44913
3E66E58A
3E211490
3D8788DB
3D77AC3F
3D99E519
3BC0F020
BD621FB0
BDE7D6F9
3D028805
BE17B5F2
3DB9E27A

