BD0D0FE9
3E387A4A
3C3EC248
BCB111F1
BDCC0B56
3D394962
3C8D4BAD
BCD6084A
3D8B0D0F
BD03B928
BDA1A3F4
BDD722E2
3D0E0DAA
3D798B72
BE0F8A8F
BE0DADB8
BD4B06C4
BCC39581
BD05E6FF
BD87CD03
BDD02BC7
BD8C4E72
3DFFC8F3
BE0A1F08
3CBB59DE
BD6AE9EE
3DF35D25
BCB0C459
BD88259E
BDA8A9BD
3DCB6630
BC9904B4
3BC52A41
3D9AC81D
BDCCB5BB
3DBC2331
BBAB4FA5
3E3B9629
BCAFD977
3E11904B
BCAD0E56
BC222B39
BD0CA2DB
3E374928
BC4219EB
BDBB9842
BCBDA512
BD1BF26F
BD84095F
3DD3176A
BDE7210C
BC82C4D6

