3DAD594F
3E05243A
BD8A38B9
3D899F1B
BCCF7015
3DCC64FE
BD9E6927
BDEE08F2
BE0C6D61
3CA4C1EC
BDF27C39
3D8496EE
BCC67382
3E55842B
BC32D0A2
3E21FDDF
3CC32010
3D8C6046
3D3CE209
3D1A6613
3D856473
3D433722
3D801F75
BE0992C9
BC9FA54C
BDAAF46B
BD96909B
BD0811B2
3E2FBC5E
BDCB5ED9
3DEA4B12
3D328B6E
3DB8BC5A
3CB3E575
BE113AD6
BE067275
3D56C615
3E2189BE
BCC19C17
BDBFEEB3
3D0A42AF
BCF4ECA7
BDB22425
BDF6E8B0
3C3BADC1
BD43914F
BD9376D5
3D47064F
3D2A8651
3DCB6E0D
3E17E671
3DB9B025

