3D994291
3DE544FE
BD327FE5
3E2A4D6E
BCB280F1
BD0E11DC
BE0B73D2
3D5F5BE6
BE6B6417
BDAA8113
BE186013
BE03825E
BCF76A2F
3D95D67C
3D202FB6
3D9A0AD9
BD4FD8F1
3D9B8CB9
3D0DC65C
3CA8F191
BDAF3FD9
3C8F94C8
3D0C319C
BDD26528
BD9D6388
3D5A5333
BE62003B
BE34CDB8
3D02D384
3E079464
BDC065B6
3D5D5800
3CA7CBF7
BD7214F0
BE03C969
BD4CC35D
3D578705
3E43D9EC
3D516873
BC1C23B8
3D40229A
BCAD98BF
BCC4955B
BDEC63F1
3D44F3BA
3C9DD1A2
BDE18DEF
3D5537A0
3D19F905
3DB3F749
3E0BC233
BC064021

