3C876C05
BD87E282
BD8D844D
BE0926C8
3DB9E493
BDADE1A0
3D53DC8C
BBBF2B24
3E18F53C
BE03269E
BDBA4F87
3D60E51D
3C18CC14
BD744E51
3C088723
BD6351DF
3DF1C971
3D91E6CD
3D5627BF
BD377186
BD57D49D
3D9DAA50
BD22C775
3D823290
BD154FBE
BD1EC80C
BDC77469
BCC34C1B
3C9C90C5
3DCEF77F
BAC36DA8
3C7C2225
BD9F090F
3CC258D6
3C570A3D
BE10956C
3CB7D417
3D97A80D
3E58DB8C
3D987F88
BD53B18E
BDE12945
3E29463D
BD50ADCD
3D5E6ABA
BDBE6D59
3D62456F
BDC15B14
3D96598E
BD2F4491
BE00BAE9
BC8D3F18

