BBB43958
3E0A3D2E
BC8094E6
BDA0FDC1
BCED17C6
3DB418D7
3D44AF92
BDF7EFE1
3D543E10
BD8CF744
BDCD0D4A
BC9E94AB
3D6C5198
3DBA1E3F
BDC3E6C5
BE5BB9D0
3BD338F8
BBF5C28F
BD447D3D
BD0A2FCF
BDDC6D1E
3D263411
3D9F609E
BE216C61
3CF33659
BC849668
3E2A2835
BD3A7B91
BC4DF267
BDE3E8DE
3DBD4F9C
BD594C01
3CE88DF3
BC1220FF
BD2D8905
3B25ACCD
BDCD7B63
3DA72E27
3D4F3238
3D561805
BCC638C9
BD865B64
3D5E56CD
3E64D6A1
BCF6BE38
BCA48302
BD3125DD
BCAAC53B
3C261177
3B5551D7
BD18F606
BBFC9BC7

