BDD578A3
3E1CB0C0
BE249060
BDA90CD4
BDE81B22
BE3636B1
3DB3C925
3D7C792D
3D810F95
BE68637C
3DB2F4CF
BCA12945
3DE21F2A
BE70196E
BE19BCFD
3E4FBB95
BDCE1F7D
3DE7863C
3D33AFFB
BE0BD7B2
BDD0CBB0
3DBC06E2
BD045FE1
BE298890
BCD1526E
BCCFACE6
3EA658E6
3DB44C38
BE57CD03
3D95D895
3E18D823
BE38201D
3E0E0DAA
3E13CD9A
3D53B4B3
BBBF4CB2
3AD38CDA
BD6698BB
BC4ECC81
3E9ED289
3D1D744F
3DFEE808
3E92EB3E
BE6F13CF
BD3CC187
3DE5D6BF
3C05F4A1
BD8AAC97
3C3B3C82
BD056712
BD455758
BE5156E2

