BD25C3DF
3D73B42D
3DDE0DED
3DD0E992
3CE6772D
BD882E02
BE00D7BF
BDD24F22
BC3DDB98
3DAD1E11
3E0B71B9
3DD6DCA0
3A45A815
BDA05E5F
BDEEBD4D
BD91DA38
3C22F8BE
3D8468CB
3D8240B8
3C92DBA5
3C077250
3C024D4D
3A2393EE
BC8E29FA
BD79B025
BD6DAEC5
3DB50EBB
3DE29846
3D4A2553
BD8154CA
BE241E58
BDE815E4
3C9DC93F
3E1529FE
3E32A498
3D9946C3
BD8C3B0C
BE1C1E79
BE0667F9
BD211FD6
3D5E9F27
3DBE17E3
3DB13943
3D3F0FE0
3CB267C7
BD104D55
BD963A19
BDD75D14
BD9F51F0
3C5D4C77
3E001BCA
3E171F79
3DEFE1DA
3DE593A3
3CE25E9A
BD915F89
BDEFE586
BDCA10E0
BC667946
3D9F7BE1
3E05C140
3DE070B9
3C634B94
BDB00A39
BE062D41
BDB7928E
3B6C0F88
3DB38A3B
3DB34268
3D329B28
BC4C6823
BD0CA4F4
BC92C8C5
BC8BE2F8
BCFA99FA
BD229846
3B4FD08D
3D6DFF82
3D8A6CA0
BD1C0011
BDFD0071
BDF965B2
BCC7C526
3DE86A4D
3E3A1661
3DC8BD23
BD2C343B
BE273F31
BE22324D
BD6BFA8F
3D94A44C
3E0810E9
3DCC825A
3D0E10CF
BCBC70CA
BD88826B
BD9F0B28
BDA100E7
BD7F3494
3C791601
3DBF5515
3E0B738E
3DB98FA3
BCC64DC2

