B92F1CB9
3AA9BCFD
3B2EFB2B
3AA5CE5B
3A14A2BA
39FB224B
BB4CFF22
BBA087CA
BBA10E02
BA9C1B54
3B8461FA
3BE3D5FE
3BCE9A2C
BAA5ACCD
BBB8E087
BBBB98C8
BB435CE2
3B7CC5B9
3BBB0A2D
3ADAE3E7
BAE30447
BB8CAC4B
BAB912DC
3ACD63CC
3AA009F6
B8F776C5
BB73CB3E
B9D23D4F
3B4564F9
3B0F96E1
3B1784EC
BAA50508
BB3124D1
BACA1CEF
B98FA7A8
38C73ABD
3A541312
3ABD017E
3ACBAF96
3B878748
3B08E79B
BB086163
BBA98AA8
BBC43F60
BB3EB5B3
3B14812C
3BA79357
3B61A3F4
3AC0485A
BB4A3E7D
BB3EB5B3
BAA19C9D
3B65C4EB
3A5DC619
BA88509C
3A41333C
BB32A6B1
BB489B0F
BB7483CB
BAF3ECCC
3B76BE38
3BEF459E
3BD4994A
3AC67169
BBA3D70A
BBDC5D64
BBA79357
3B369553
3BA5614E
3B9EF523
3AA5CE5B
BB9D16FD
BB922D95
395C3372
3A378034
3B069C67
BAF08462
BB86BDF5
3A94E5D6
3B3C7B46
3B1331A1
BA837718
BB4868BA
BB1DADFB
BAC0485A
3A9B3073
3B31897A
3B0D1959
3AB912DC
3B05F4A1
B9DD3FE2
BAB08DD2
BB3C6A7F
BBBEF8CF
BB2DEEBB
3B447A18
3BD96A6A
3B94D50F
3AF42FE8
BB07EBF2
BBB1897A
BB24F441
3A131013
3B308DD2

