3B832336
3B24C1EC
3BCB5BB4
BC1656EF
BB446951
BCB4FA48
BC0E4B88
BBD03D9B
3C675FF6
3C5F090F
3B67EE91
BBD0678C
3A97C808
BC806078
BA7F9724
BAEE06D9
BB8533B1
BB323140
BBF90108
3AE30447
3C0E043A
3B848388
BB069C67
BB833C60
3BC2DF0D
BC192429
3A4BAF96
BBB0856E
3A630447
3B3F1A5D
3C47DA1F
3BA8112C
3C670C13
B9895D0B
BBF8487C
BBB53D64
3B032336
3B248F97
BB883772
BC487981
BBDA4CE8
3BB15F89
3B90A351
3CB14014
398398A6
3A0D0892
BC3823C8
BA1528F2
3B6F1349
BA76AD71
BC84295A
BC452A41
BC6FCBD5
3C30142F
3A37C350
BCA3AB00
BBC332F0
3B21272D
3BC4DEC2
3C3A83F5
3C4E789E
3B2222D5
BC1DF97B
3BEF77F2
BAFC2EBA
3B286D72
BB3EB5B3
BC116441
BBB6F199
39980B24
3CAC6477
3C4CF28C
3C448F11
3A8D0892
BB492147
BC0433D7
3B15BFF0
BA9528F2
3AF32379
BB84A516
3B864884
3C243782
3C886595
BC1E83E4
BC0B007A
BC7D2A63
3BF459DA
BB7BCA10
3AADAB9F
3B103EA7
BB9F2778
3BFC47E5
3C1AC365
BBE18ACA
BB9E55C1
BC08FC93
BC4764AE
BB80D802
3C3E121F
3BEA747E
3C24095F
3BAD2568
BC7633CE
BC1D909F

