3CCE4A7B
3D78E6D1
3DBA79FF
3DADC098
3D0C0592
BD38D2E5
BDE63843
BE0BD72C
BDC9B952
3CEE9FF1
3E0956C1
3E2C9364
3DE896DD
BCE45804
BDE5FD05
BE135547
BDE17B0F
BD42A66E
3D2C18F8
3E0F25A2
3E05AD97
3DB46562
BB315726
BDD22D0E
BE063843
BDD95DD5
3D4E464A
3D9D4281
3D5199BB
BB1C1B54
3C821AF8
3CA1A933
3C965908
BC8A02B8
BDBB163C
BDF80A18
BD74CD31
3D4C63F1
3E0DEFC8
3E14C059
3D5656EF
BD8BFF47
BE0AC083
BDD934F0
BD15000D
3D783276
3DA39A39
3DA4345D
3D0B7803
BA102DE0
BD5AA3F0
BD658A33
3D861D86
3D1F47FA
3C96A055
BD37A3DB
BDC9C12F
BDF12770
BD9657FB
3D09EDC0
3E01A587
3E22DBA5
3DC4A9CE
BCF3A366
BE090215
BE1EB745
BDDF6C27
BCCA9260
3DB87DF6
3E0E62DC
3E0988D3
3D8D70E7
BD21F9F0
BDF54D1F
BE0BC276
BDC564F9
BD02C908
3D8F6599
3D905532
3CEC2EFD
BCD92D99
BCEDD484
BAAEFB2B
BCA6D699
BD8A17B1
BD8D4AA1
BD774FF8
3D0449DC
3E01537A
3E1CF6BE
3D5E6363
BD8D3847
BE14D728
BE05479D
BD370EF5
3DAEE73E
3DED362F
3DDC193B
3D2A90CD
BD401F75
BD7518B1
BD83326A
BD88BDA9
BD33ADE2

