3D96177F
3D519AC8
BC9D55E7
BD8BFB16
BD9F61AA
BB618266
3CD5E28B
3D23D5FE
BB96AAD2
BD33F63C
BD083233
3CA8DEB1
3D890E67
3D216723
BCB78034
BD8E0EB6
BD71A5CA
BCAC8605
3CA07703
3D0461FA
B9A393EE
BCA63F9A
BC37ED42
3CBCE209
3D022681
3B9B280F
BD837C57
BD28E821
3BEF0282
3D09528F
3D26A982
3A6A9E6F
BBACEAAF
3C21E81D
3CC091C1
39E0EB68
BCF49492
BD578812
BD1377E2
3C27C17B
3D499F1B
3D4CE0B9
3A817FC7
BCDB8BAC
BC4A4F44
3BB9D3CC
3C78CEB3
BC7FB04F
BCD568E8
BD180E49
BB263305
3D00AAEB
3C3B8C33
BD98F68C
BDB0FE8B
BCFE08AF
3D01E796
3D871045
3D23DA30
BCD718EC
BD26AB9B
BBDCA8E3
3D222813
3D58D25F
3BBF5515
BD6CF52C
BDA0B88D
BCFEE0B1
3D017DAF
3D852AC7
3D19695E
BC46088D
BC95C422
BC7B86F4
3C38C75C
3C88BB90
BC93E5FB
BD64723B
BBDC65C7
3D0660A2
3D511383
3CF8F041
BC6AEE20
BC33FA6E
BC40A8D2
3A9F1F15
BC35BF6A
BCEEB702
BCE9C886
3BA3A4B5
3D03CF2D
3D702F73
3CCA3401
BCD4C76D
BD07B02D
BCB8476F
3C4768E0
3BB0C027
3B461D86
BCB7329C
BC709529
3CFF7165
3D1613D3
3D427B70

