BCDBAD3A
3D314446
3D6B67C3
3D15C422
3C5DFCA0
BBCC4695
BC0CC9A7
BC51F601
BD2D2242
BD659D13
BCC48F11
3D2C7000
3DCCCE5F
3DE5A709
3D3265AE
BD51C5C5
BE04AEC9
BDFA6C5D
BD1D627C
3D4ABD5E
3E0324C8
3E00D024
3D6E3D60
BCB352A8
BDC01E69
BDF790FB
BC0B1141
3D9F0F5A
3E07C632
3DF3F184
3CF33659
BD846E09
BE0AF3A1
BDFC7FFE
BD11372A
3D9C0A07
3E11ED9E
3E068662
3D3BDDFD
BD8CC35D
BE14BDBA
BE0E3433
BD39B23E
3D8AFB3B
3E214120
3E0DFEFC
3D1D14E4
BDB30BE1
BE22CFD9
BDE64F55
3C28F7DB
3DE5EE57
3D8C4AC7
3D7587D7
3C6E568A
BD0C1DB0
BD03BB41
BCC6BCE8
BCA602C9
BCBEAF68
BC2A3F03
3CC68662
3D8FFFBD
3DBE2930
3D12F7F5
BD40FCB5
BDF92D99
BDF26528
BD4941C8
3D8A3162
3E035BD5
3DFCDA2B
3D4404A7
BD369015
BDDE18F0
BE04A1AD
BD8DF71F
3C484B5E
3E09D9D3
3DCDC875
3C84039B
BDA01C50
BE0E5F74
BDF530CF
BCAC81D4
3D8F1FDE
3E12B40F
3E02F901
3D23DF6E
BD9C1F00
BE181494
BE0F91A3
BD4A57A8
3D814AD3
3E16494D
3E11E647
3D3D35EB
BDA15B14
BE2D1AA8
BE0C304D
BCBD0397
3DDE5754
3E18BAC7
3D954867

