3B2A64C3
3BF0307F
3B595140
3AA37260
BBDCFCC6
BB7D6D7F
BC4A7D67
BB096DD2
BB2DEEBB
B9E62995
3BC2A455
3C2E4F33
3B052B4E
BAC564F9
BC0919F0
3AC5436C
3B098F60
3AA58B3F
3A64DA0A
BC280496
BA417657
BAD5E8D5
3A44156E
3C28826B
3A97C808
BB403793
BC9C1722
BB59C6B0
3B909AED
3C51E109
3C4B039F
B965A35D
3B779852
B9B34E77
BB90795F
3B52E515
BA9F40A3
BAED5F14
3BBE5109
3B7ABDA1
3B5F7A4E
BB04D76B
BC00CB6C
3A52C387
3C5D2285
3C4475E6
BBDD2F1B
BC9EADD6
BCA413DB
BA9B951C
3CB3E143
3CC48F11
3C999FE4
3BD740C4
3A8BDA94
BC1D12CB
BBB6AE7D
BB99E94B
3B0ABD5E
3ADC3372
3C05D745
3BEC17EC
3C343958
3AD82342
BBC6045C
BBA6F3F5
BB7FEB07
3BDEA897
3B57CF5F
3B9930BE
BBB70AC4
390C825A
3AE0EB68
3C30D951
3AC8472C
BBBB773A
BC32788E
BC132D6F
3B97F1FA
3BE15875
3BB7B289
BAD4FDF4
BB9CE4A8
BBBE7297
BB4C0379
BB52F5DC
B9A17B0F
395B2703
3BA3400C
BC0EF34D
BB80AE10
B9F9096C
BBED3522
BC078748
3B2DBC66
3BB11C6D
3A9784EC
BC475C4B
BC58E432
BBF837B5
3C65796C
3CF0E4DA
3C634763
BC026AA9
BDA9A911
3D13C255
3DFA75CD
3DDCE28F
3D23CFB3
BD4929AA
BDD74EEC
BDBB40B3
BC8D9D77
3D560200
3DAF4517
3D4B007A
BC0CB8E1
BD9A3D2E
BDB3F078
BD1FD9BA
3CDDD8F9
3DD0AC3B
3DD06141
3CB80453
BD8828C3
BE112D77
BDE709FA
BC3F876A
3DDE1112
3E18C79F
BD3381D8
BDD276FB
BDC07C42
BB9CB253
3DA45FE1
3D90E454
3C93293D
BD475819
BD882518
BC503969
3CF4BE83
3D5C90C5
3D379746
BBBE835E
BD29BE0A
BD0F1F58
BCB686A5
3CA54C55
3CEFDEB5
3CC6759B
BC961805
BD40CB6C
BCB2BFDB
3C8D8A98
3D5FEA81
3D5FC2A9
3DF74257
3E0871E7
3D621EA3
BD1CCC8A
BDE0370D
BDD48345
BD16BDB2
3D3E1A82
3DCAD70E
3D77574F
3B8A265F
BD55AE1D
BDA3A6CE
BD64D09A
3C81626B
3DA977C9
3DBBA66A
3D41AAC5
BD4C7193
BDE64ECF
BDD712A1
BC2A2A0B
3DB9E061
3E0B5137
3DBE4580
BCE466B2
BDF0A351
BD425397
3D652589
3DB9285B
3D4DB7AE
BC4DFACA
BD86002A
BD6492BC
3C4447C3
3D8B0AF6
3D520C07
BBB86B16
BD2D6A9C
BD6B53D6
BC892685
3C175F2D
3D34CB19
3CD8F92B
3C001F75
BD30AF60
BCA99B6F
3C5A9004
3D0C3C19
3D3F37B9
3CE04E1E
BCD73A79
B92F1CB9
3AA9BCFD
3B2EFB2B
3AA5CE5B
3A14A2BA
39FB224B
BB4CFF22
BBA087CA
BBA10E02
BA9C1B54
3B8461FA
3BE3D5FE
3BCE9A2C
BAA5ACCD
BBB8E087
BBBB98C8
BB435CE2
3B7CC5B9
3BBB0A2D
3ADAE3E7
BAE30447
BB8CAC4B
BAB912DC
3ACD63CC
3AA009F6
B8F776C5
BB73CB3E
B9D23D4F
3B4564F9
3B0F96E1
3B1784EC
BAA50508
BB3124D1
BACA1CEF
B98FA7A8
38C73ABD
3A541312
3ABD017E
3ACBAF96
3B878748
3B08E79B
BB086163
BBA98AA8
BBC43F60
BB3EB5B3
3B14812C
3BA79357
3B61A3F4
3AC0485A
BB4A3E7D
BB3EB5B3
BAA19C9D
3B65C4EB
3A5DC619
BA88509C
3A41333C
BB32A6B1
BB489B0F
BB7483CB
BAF3ECCC
3B76BE38
3BEF459E
3BD4994A
3AC67169
BBA3D70A
BBDC5D64
BBA79357
3B369553
3BA5614E
3B9EF523
3AA5CE5B
BB9D16FD
BB922D95
395C3372
3A378034
3B069C67
BAF08462
BB86BDF5
3A94E5D6
3B3C7B46
3B1331A1
BA837718
BB4868BA
BB1DADFB
BAC0485A
3A9B3073
3B31897A
3B0D1959
3AB912DC
3B05F4A1
B9DD3FE2
BAB08DD2
BB3C6A7F
BBBEF8CF
BB2DEEBB
3B447A18
3BD96A6A
3B94D50F
3AF42FE8
BB07EBF2
BBB1897A
BB24F441
3A131013
3B308DD2
3C0B1141
BC3A16E8
BC228FE2
BC617E35
BC9ABD1B
3C1CD3E1
3C57C6FC
3C5130E0
3C8DBF05
B9A393EE
BC947AE1
BC4DEE35
BC22EC29
BB4FE154
3B82949A
3B25BD94
3C28826B
3C31EE24
3C37C350
BBADD591
BC7FA3BA
BC77164C
3A2F5FD4
BB9D0636
3C6F416C
3C4DEA03
3BA2C237
BC10C0AD
BC2B5808
BBCEEE0F
BB5AB192
BA84A516
3C051655
3BFCC5B9
3BD67770
3C97891E
BC58D79D
BC39D3CC
BC7FEB07
BC9A0275
3B5C5500
3C5F548F
3C7DC593
3C59988D
3BCE4EAD
BC07F456
BC566ADB
BC3A8C58
BBFF21B4
BAB502AC
3C047B24
3C365A9B
BC1C7369
BC594D0E
BCBAD18D
3C5DFCA0
3C17A249
3C4FFEB0
3C8D434A
BC621965
BC4AC083
BC37457C
BC21CEF2
3AC5436C
3C202B84
3C14C87A
3C2E03B4
3C034D27
3BA6F3F5
BA230DB7
BC0FF328
BC41376D
BAB2E9CD
3C0EAC00
3C252696
3C6DA22F
3C243782
3B0E9B39
BC68815E
BBBE7AFA
BB978D50
BA1741D1
3C075D57
3C026677
3B8A5050
3C446D83
BB8EC52A
BBC54BCF
BC42C5E3
BCB6B6E1
3C16249A
3C90795F
3C9DB446
3C61B08A
3B7722E2
BC2E1049
BC4E95FB
BC5E3327
BBFCB4F2
3C0E79AB
3C38D823
3BD16335
3C816ACF
3C82D59D
3D5F9BDC
3E170DA6
3E0FE8EE
3D9AC797
BD18622C
BDAF13CF
BDC503FB
BCCBFD2F
3BA20147
BBE46499
BBCEE5AC
3D00CE92
3D6E8C05
3DC8BE2F
3CC6F9BA
BD3A3FCD
BDDE94AB
BDC5CFEE
3C047F56
3D9E3865
3DD93576
3D15464E
BD3BF61B
BD3EA0BA
BCA441FF
3CB020C5
BC65AFF3
BD2D2ED8
B6EAE18B
3D86759B
3D7DCDF7
3C9A261C
BD7761CC
BDBBDF09
BD462A1B
3D31F57B
3DDE34B9
3D79CF9A
BC918C19
BD9C243E
BD10C5EB
3D38B589
3DB51E75
3C6043A2
BD8F1887
BE0E65BF
BD8C20D5
3DA82ADC
3E341206
3E3F587D
3D3383F1
BDFFF60A
3E4296B3
3DBCC187
BD10E12F
BE11E604
BDE5FF1E
BD4BB6ED
3D17E23F
3D44AB60
3CFA9C13
3CCE50C6
3D352EB6
3D5B9735
3CB382E4
BCF7C676
BDDE5647
BDBB1E9F
BC8D60A6
3DAC9AFE
3DCD3E92
3D849ECB
BCF0FBEC
BDC69729
BD818266
BC10B418
3D3215FD
3D230878
BCE1F7D7
3A81A155
3D3D0071
3D18958E
BD01A693
BDA3211D
BD7E74B0
3C356FB9
3DC49A99
3DA67CF2
3C99A62F
BDB2DCB1
BDB7531E
BCAB53D6
3D427632
3D766F93
BC7A4830
BDCB7671
BDBA0AD9
3CFD6F97
3E08A8F4
3E1A4053
3D43A861
BDCA18BD
BE5C1EBD
BE32DBA5
BD793BC1
BD2F6C6A
3C82ECAF
3D677708
3D83C643
3AFC5048
BCB6A1E8
BD091AFC
3BA07703
3D1AD107
3CE924F2
BC8D90E2
BD6681AA
BD0A2121
3C94D728
3D6C7000
3D495F24
3C9096BC
BC83211D
BCDB0575
3A345AE6
3C8D477C
3C1C27E9
BC9FCB0C
BCDAA2E4
BB873366
3D5BA2BE
3D0CCCCD
BBC929AA
BCE451B9
BD095F24
B9F2BECF
3B9C12F1
BC0AE74F
BCA2F6A5
B99246BF
3CCDEA03
3D34B620
3CF4B620
BC1A5226
BD2B14EC
BD2BE37E
B99CC31A
3CC13FD1
3C35286B
BB934ACB
BC583409
3C4C814D
3CAD87F9
3CFA26A2
3AD6F545
BCD72BCB
BC279FED
3D7E4ABE
3D92F33D
3CCF93BC
BCD9817C
BD5FC3B5
BD05CCC9
3CBBF2F5
3D0E50C6
3BB9DC2F
BD0A8D22
BD37F8CB
BBB6C7A8
3D4562E1
3D869271
3CD7E88A
BCD56B01
BD5DCA4B
BCFD86A9
3C299FA1
3C7A3337
3C4DA6E7
BC211A97
BC694EE4
3C7733A9
3D3F2B24
3BBAC711
BCE0956C
BD2D5CFB
BCCDAD32
3C4A7935
3C127D46
3C1ADC90
BAB28523
3C1B024F
3CC7C0F4
3CC37E6F
BB96BB99
BCDFC3B5
BD48D7E0
BCA4C61E
3CBA6267
3CE8B5CC
3C9AFE1E
BC305FAF
BBB30B5B
BB4A8199
3C9782D4
3C4BF6E4
BCD2220C
BCF7F067
BD20B3D5
BD1729B3
3D09EDC0
3C090929
3C84295A
BBA704BC
3C398C7E
3D2514C2
3D4D1740
3B1E236C
BBB0E1B5
BD28A71E
BD5A5871
BD035EFA
BC577319
3D3444E1
3CC5F7C6
3C1D12CB
3BA7C5AC
BD0F8402
3D2F07C0
3D17518B
3B03DBC2
BD931983
BD8DC2B1
BD04B7F6
3BE57109
3DA5CA2A
3D3B7846
3C0D64D8
BCBE186A
BD441AAC
BD19EF95
BD6A0019
BC3F6A0E
BC852D66
3CCF7CAA
3D2F3A15
3D00DA1B
BB6D5F14
BCC436FC
BD180B24
3CBFE7E2
3CDE310E
3D000B89
3B6D9168
BC382C2C
BCE1E710
BD50E022
BCA975B0
3CE5082D
3D60D34A
3DA75AB8
3C669AD4
3D850375
3C8A808D
BCB1337F
BBF3A9B0
BA24E37A
3CC7FDC6
BAED80A1
BD26E115
BD947F99
BD54940C
BCB0B9DC
3D8C8712
3D45CFEE
3D0A8C15
BC27C17B
BC8C62E5
BC77F8CB
3CEE978D
3C418F82
BC62584F
BD39CA5C
BB7062D4
3C97F844
3D80999E
3DA3033A
3C2E89EC
BC7FC116
BD84FB98
BCAF7F4A
BD02656B
3AAD46F6
3C51BF7B
3D0D92FB
3C817B96
3CD5B467
395801B4
BC48BC9D
BCB04CCF
BC83FF69
3C929ED4
3C6FD86B
3B6B7889
BD23C42A
BD6BFA8F
BCD50870
3B677920
3CB5A20E
3D7A68B2
3D4AF4F1
3C968D76
BD565F52
BB61E710
3D023FAB
3C133E36
BD1233DF
BB2DDDF4
3C9C27E9
3DC529BB
3D68F6CF
BD082CF5
BD8D844D
BD4F4517
3C4D67FD
3DBD73C9
3D88DF37
3CD7D5AA
BD80D6F5
BD9A1E3F
392D03DA
3D8F5A10
3DA83904
3B95421C
BD6C6CDB
BD9F2A9D
BD2EE419
3D49F2FE
3DAD8BA4
BB5AF4AE
BD4BFE3B
BD7B2570
BD2F2841
3B656042
3D21DA7B
3CD3E0BD
3CE88590
3D41871E
3CF301EB
BD108C3F
BD80E62A
BDB274E2
BCEBA8C6
3D1000C9
3DA595BC
3DA446B7
3CA4DD2F
BD69802C
BDA3BC4D
BD5E8F6D
BC45E2CE
3CA7E73A
3C7DFC1A
3D09C0A9
3CED2242
BC986DB5
BCA97E13
BC7B0920
3C7A0946
3D02E771
3D3C4F3C
BC967CAF
BD5640EA
BD8B3B32
BCE7F0AA
3CFEBF23
3DB14446
3D2DC8FC
BD18D36B
BD88405B
BD677B39
3C620CD0
3D986445
3D7852F8
BD0B9ECF
BDBD3B2A
BD3B0F6B
3CE2FDFC
3DAB0FAE
3D99641F
3B7E6927
BD5D0E99
BC9289DB
39D349BF
3D0110A1
3D266235
3C883340
3D0BB6ED
3C089C1B
BCDFFA3C
BD18F606
BD8BC622
BC208BFC
3CF7403E
3DA350D3
3DB9713B
3C992A73
BD792D13
BD919EF9
BD6C7757
BBF0281C
3C605CCD
3D44EC63
3D19AD86
3C691C8F
3C65753A
BD599DCB
3D11C087
3DC0DD40
3D85D313
BD057AFF
BDC672FC
BDA88F86
BC1131EC
3D9EDAEC
3DC97529
3CA74C0A
BD6F08CC
BDB6FF3B
BD30DA5E
3D37BD06
3D8544FE
3D2005C4
BD23CC8E
BD5BE4CD
BC529DC7
3CCD5B68
3D9B0468
3C931CA8
BD5B823D
BD9F97AB
BD14855E
3D4A9479
3D8D716D
3B03126F
BD9D5CB8
BD9EBBFD
BD08BA84
3D228028
3DC011D3
3D949518
BA87EBF2
BD690EED
BDBB1961
BD51F4F5
3D3E5FB7
3DBE0F80
3DA522EA
3C193D53
BDA286F9
BDC41FEB
BD0FB54A
3D4FFDA4
3DAFE47A
3D407464
BC9BBCF5
BD58BA41
BD1CE8D9
3BDA5DAF
3DBC0443
3CCF6DFC
BD9A8588
BDD0EF56
BD03D89D
3D663843
3DD4152B
3D623077
BCDE6363
BDCD0E56
BD83B03E
3CADCB14
3D97B203
3D73ACD6
BC073BC9
BD4E9F6B
BD52C6AC
3C73CF70
3D4B2E9D
3D54D728
BC22EC29
BD6A8113
BD634EBA
BB621965
3D9E2047
3DA174C5
BD5F7729
BDD567DC
BD6B4D8C
3C8B32CF
3DA1E471
3DC1B9FA
3D06AD2E
BD83A084
BDB62CFE
BD6C7DA2
3C6DC7EF
3D762952
3DB7E458
3CA3A084
BD5DC400
BDCEEC7D
BD5FE32A
3C5AA92E
3DB4B381
3D803AB8
3C0A6549
BD415A08
BD92B991
BC9C2E34
3D337436
3D5F0F5A
3CDCB791
BD324745
BD6CD5B7
BD1667B6
BC5DDB12
3BCE2D1F
3C0CE2D2
3C50F1F5
3D2D6452
3D6699C8
3CC5F9DF
BD2CB210
BDCD898B
BDE67AD9
BD334C5E
3D524AF1
3E051CE3
3DFB4E55
3D1DC832
BD4B838C
BE039714
BE0131A9
BD6ED890
3CB471F8
3DC0DC33
3DF86CA9
3C0BAC71
BD9FAE36
BE08444A
BDF4DDF8
BCF46888
3D84F65A
3E0B823D
3DFD8277
3D11A438
BD9CAC08
BE127D46
BE070B8D
BD3CAB82
3D8D362F
3E154541
3E0EC6BD
3D3AA25E
BD8B7996
BE21D4FA
BE0E8965
BD1D8B61
3DB3CBC5
3E236F3B
3DE71E6D
BC2B5808
BDE6FC59
BD8D2568
BD769B9D
BC6EB702
3D0CC9A7
3D046738
3CC70436
3CA62CBA
3CBF7CEE
3C2C3223
BCC65626
BD90635A
BDBEED46
BD13BE23
3D416CE8
3DFA01EF
3DF34C5E
3D4A1598
BD8ABE6A
BE03CCD1
BDFDA837
BD445996
3D376C48
3DDEF1FE
3E051655
3D8E6EA8
BC49539C
BE0A56DE
BDCE7F6F
BC845DC8
3DA0D5E9
3E0EF0AE
3DF620EF
3CAD234F
BD8FB5D0
BE13458D
BE0388EC
BD24851B
3D9CAAFC
3E18AD69
3E102689
3D4B4070
BD81AC58
BE16D3FA
BE12849D
BD3E3D1D
3DA1F31F
3E2DBF48
3E0CB8E1
3CBD46B2
BDDF5515
BE195D0B
BD95CAF3
BCCCA0C3
BD775FB3
BDB992C9
BDAD490E
BD0BDDBA
3D37AF64
3DE54B49
3E0B40F6
3DC8D866
BCEDCC21
BE08C693
BE2BD2FA
BDE768E0
3CE31B58
3DE4D65E
3E12962D
3DE059A7
3D41FC8F
BD2B0532
BE0E703B
BE051ACA
BDB3C57A
3B2AC96D
3DD13AD6
3E05C076
3DD88659
BD4D7386
BD9C9D5A
BD508D4C
3B1CC31A
BC810E88
BCA15769
BC95B9A6
3C89331A
3DBA42F2
3DF70260
3D73CC4B
BD4B7A1C
BE0D5A9F
BE1424E6
BD5567DC
3D8B6D01
3E0A1F8E
3DD852F8
3D14488C
BD76D656
BDA2DA55
BDA36EB5
BD0AE105
3A056E69
3D595BBC
3D648840
BD8581CF
BD1E7968
BC96AF04
3D3649D4
3DC8F3AA
3DF0563F
3D95C4A8
BD095E18
BE01187E
BE222813
BDC3BD5A
3CF36EF8
3E0869C6
3E1DF4C3
3DDE44FA
3CC97FA6
BDB77D95
BE0DB09A
BE08DB05
BD8CEBBC
3D20FB22
3DF42FE8
3E0B3AAC
3DC4B3C4
3D02699C
BD8EDDCE
BD8FBB95
BCEB15F9
3CD89268
3CED0B31
3AB22079
3CA597D5
3D896B33
3D8CAF71
3D767B1C
BD03D35F
BE00CD42
BE1C48F1
BD5D67BA
3D8CA926
3E143B71
3E04A83B
3D3620EF
BDAE221D
BDEC2CE4
BDDB17CE
BD299D88
3D3F3387
3D73F20A
3D82AA9F
3D88038A
3D3291B8
BE7783E0
BDED8559
3D948D3B
3E39BC77
3DBB19E7
BD6A4010
BE01C151
BD454DE8
3D6A4FCA
3DD250B5
3D1E7104
BD2F0AE5
BD8F76E6
BC3CF4E8
3D5E5AFF
3D5C970F
3C403793
BD688CE7
BD53A3EC
3B8EF77F
3CF6CCE6
3D04DCA9
BC8E453D
BD0068DC
BC095076
3D2C29BF
3C825397
BD95219B
BDBB480A
BD6088D7
3C352008
3D90880E
3D61F7D7
3CC75600
3C720642
BC13BC0A
BBDCEBFF
BCE01798
BD87368B
BD31EF31
3C213C25
3D43AFB8
3D4FF10F
BC416590
BCB4B72C
BB503537
3DA110A1
3D9C896E
BD0A7610
BE3A25D9
BE462414
BD1DF655
BC078FAC
3E2B0707
3E365ADE
3C8A3726
BE01511E
BDF55150
3B3A94BC
3DD327AA
3DB1287C
3BB0F27C
BDB35EB7
BD8EAA6D
3C3E3C10
3D94152B
3D3BC3C6
BCD2F7F5
BD89AFE2
BD111490
3CD3F5B6
3D19DBA9
3C7E4BCB
BD29D628
BD12F09E
3C937D20
3D6B3355
3D24CE81
BDABC9CD
BD82CF53
3B729D41
3DA7D4E1
3DA2A348
3CD97918
BC4F56EB
BCE555C5
BCC9EA9A
BCD1D8A5
BCFEDE98
BC8F16F4
BBEABFFD
3D5AF07C
3D650939
3CDF41AF
BCEF73C1
BD09E55C
3B30F27C
3D6122FB
3A0919F0
BDC6BDF5
BE19FBE7
BD8902DE
3DD4C2B5
3E83DC8C
BD817CA2
BD1BDE83
BCFAA045
3CBE9857
3DC490A3
3DA5058E
3D75B4EE
3C15BBBF
BD9F687B
BDB94A6F
BDBB267C
BC175297
3D5802C1
3E01D68C
3DEBBA99
3D83632C
BCF75FB3
BDABC9CD
BDECCEE6
BD652264
BB9ACBC9
3D6D794A
3DEE3E6C
3D7F8983
3D10752E
3951B717
BD5F7729
BD981E04
BD5AEE63
BD3444E1
3D13415B
3DD43AEB
3DE8900C
3DB52221
3C630878
BD9C0336
BDBD4739
BD6A9F7B
BD02E44B
3D424F66
3D8B0A70
3D79E59F
3D3E6D59
3C5CC20D
BD06C871
BD99F87F
BDBFD8AE
BCFAA68F
3CA25FA6
3D8F1ED1
3DD16F44
3DA69F8C
3B65F740
3D4A6762
3D893FAF
3D9E3D1D
3C7BCA10
BD4E5C4F
BDC2FCF0
BDCE39B4
BD89C993
3C2B4741
3DCC7B89
3DD265AE
3DE900C5
3D903C08
BD6F9A8D
BDE6DBD7
BDFDF224
BD14024B
3D580C31
3DD0AEDA
3DC9118C
3DD2BFDB
3CB7585C
BD00F239
BDD2BCB6
BD5EACC9
BD6D2136
BA562BF1
3D1A2510
3D9C8C93
3DEC154D
3CCB1AB1
BD30B5AA
BD9BF7AD
BDCE86C6
BD8F483D
BC04E400
3D0B8173
3DB28848
3D7531DB
3C71E083
BD15DA27
BD4B0C02
BD292F6F
BD319A41
BC86961C
BC453B08
3D7126E9
3DA919F0
3D54CB9F
BBB37004
BD5E3DA3
3D00D802
BCEC050C
BD5FA227
BC94FACE
3C9F4D38
3C704578
BD356B87
BD18B828
BC398C7E
3D3ABFBA
3D8134CE
3C5F4C2B
BD0C64FE
BD4BBC2C
3C09CE4A
3D8F5B1D
3D2F33CA
BD2109D0
BDBF2D3C
BDA086BE
3CB649D4
3DBF7CEE
3D8BD3C3
BC2F4ADC
BD9DC832
BD8C1FC9
3D5E7536
3D4944ED
BC59CAE2
BD6F5FD4
BCD5AE1D
3CA37479
3D49203A
3D068987
BAA91538
BC94FCE7
BB91D9B2
3CDD0FA6
3CA51E32
BCBA5A04
BD5220FF
BCA72863
3CC64BA9
3D430C24
3D0D91EF
BD1D3133
BD7AEEE9
BC982ECB
3D9933E3
3DB1B8AA
3BEFED63
BDF94E1A
BDC47E4A
BDB4573A
3A913A50
3D1EE45C
3C3FCEB8
BCE748E4
BCEA3BDE
3C52391D
3D879896
3D17F951
BCD50225
BD2AAD1D
BD1552E3
3CBECEDD
3D312A0F
3C0CAC4B
BD88D3AE
BD5BB279
BC4B0C02
3D889225
3DC01CD6
3CD60419
BD816F00
BDDD156A
BD27DAA5
3D11C7DE
3D16D6DC
BD4D22C9
BD9620EF
BCA85CAB
3CFE5C92
3D83DEE8
3CF56C94
BD0E5B42
BD03AD9F
3C73D3A2
3CDEF1FE
3B13964A
BD5E108C
BD44CBE2
3B81C2E3
3D035372
3D5FF2E5
3BA83B1D
BD28C9B8
BD6493C9
3C3BADC1
3D912A95
3D0D3E0C
BD0EC311
BDFB3398
BDB37B07
BE196D4C
BDDF4667
3B5D6170
3DB7C1BE
3E0A28BB
3DC4295A
BBFD9770
BDB4013F
BDF7481B
BDB46888
BC438B05
3D309C80
3D90214B
3D2D9BE5
3C4914B1
3BFD5CB8
BCE6BC62
BD0766C7
BCE35E74
BCC3979A
3C036A83
3C5A9004
3CEC95C0
3CC0A4A0
3BA82A56
BD2871A4
BD0FE154
3D6F72B4
3DD32485
3DA0828C
3BAFF6D3
BDE0AB71
BDE60781
BD016484
3D55F56A
3DDF9831
3D46C227
BD3547E0
BD4F95D5
BC243BB4
3D82A90D
3DADB50F
BC0FEAC4
BDBEF9DB
BDFAAF79
BCB9F98B
3D99CCFB
3E0D5E8D
3DB66ADB
BC3AF534
BDF45F9E
BDCA73F7
BBD51F82
3DCF4E01
3E1D3F18
3DD27C39
3C05B185
BDCF733B
BE0F1306
BDC90D5A
3A13532E
3D64DF48
3DCBF6E4
3DA65E89
3C686402
BCF062D4
BD6D45E9
BD405F6C
BC9FA11B
3C4B4F1E
3C0B60F2
3D07E176
3CC3A42F
3CE043A2
3C140358
BD351DEF
BD88FB01
BD369CAA
3D9BA344
3D90C1B9
3BFC6973
BDB6D19E
BDED594F
BD4B71B9
3D19BD40
3DCFDC16
3DACAB3F
3B97C808
BD86B485
BDA18D69
B914E5D6
3D45C897
3D36640A
BD505E1C
BDC2938E
BD6FA82F
3D516A8C
3DF9CBEF
3E058AB9
3C332CE9
BDDC27E9
BE00A809
BD788228
3D21719F
BD25C3DF
3D73B42D
3DDE0DED
3DD0E992
3CE6772D
BD882E02
BE00D7BF
BDD24F22
BC3DDB98
3DAD1E11
3E0B71B9
3DD6DCA0
3A45A815
BDA05E5F
BDEEBD4D
BD91DA38
3C22F8BE
3D8468CB
3D8240B8
3C92DBA5
3C077250
3C024D4D
3A2393EE
BC8E29FA
BD79B025
BD6DAEC5
3DB50EBB
3DE29846
3D4A2553
BD8154CA
BE241E58
BDE815E4
3C9DC93F
3E1529FE
3E32A498
3D9946C3
BD8C3B0C
BE1C1E79
BE0667F9
BD211FD6
3D5E9F27
3DBE17E3
3DB13943
3D3F0FE0
3CB267C7
BD104D55
BD963A19
BDD75D14
BD9F51F0
3C5D4C77
3E001BCA
3E171F79
3DEFE1DA
3DE593A3
3CE25E9A
BD915F89
BDEFE586
BDCA10E0
BC667946
3D9F7BE1
3E05C140
3DE070B9
3C634B94
BDB00A39
BE062D41
BDB7928E
3B6C0F88
3DB38A3B
3DB34268
3D329B28
BC4C6823
BD0CA4F4
BC92C8C5
BC8BE2F8
BCFA99FA
BD229846
3B4FD08D
3D6DFF82
3D8A6CA0
BD1C0011
BDFD0071
BDF965B2
BCC7C526
3DE86A4D
3E3A1661
3DC8BD23
BD2C343B
BE273F31
BE22324D
BD6BFA8F
3D94A44C
3E0810E9
3DCC825A
3D0E10CF
BCBC70CA
BD88826B
BD9F0B28
BDA100E7
BD7F3494
3C791601
3DBF5515
3E0B738E
3DB98FA3
BCC64DC2
3B832336
3B24C1EC
3BCB5BB4
BC1656EF
BB446951
BCB4FA48
BC0E4B88
BBD03D9B
3C675FF6
3C5F090F
3B67EE91
BBD0678C
3A97C808
BC806078
BA7F9724
BAEE06D9
BB8533B1
BB323140
BBF90108
3AE30447
3C0E043A
3B848388
BB069C67
BB833C60
3BC2DF0D
BC192429
3A4BAF96
BBB0856E
3A630447
3B3F1A5D
3C47DA1F
3BA8112C
3C670C13
B9895D0B
BBF8487C
BBB53D64
3B032336
3B248F97
BB883772
BC487981
BBDA4CE8
3BB15F89
3B90A351
3CB14014
398398A6
3A0D0892
BC3823C8
BA1528F2
3B6F1349
BA76AD71
BC84295A
BC452A41
BC6FCBD5
3C30142F
3A37C350
BCA3AB00
BBC332F0
3B21272D
3BC4DEC2
3C3A83F5
3C4E789E
3B2222D5
BC1DF97B
3BEF77F2
BAFC2EBA
3B286D72
BB3EB5B3
BC116441
BBB6F199
39980B24
3CAC6477
3C4CF28C
3C448F11
3A8D0892
BB492147
BC0433D7
3B15BFF0
BA9528F2
3AF32379
BB84A516
3B864884
3C243782
3C886595
BC1E83E4
BC0B007A
BC7D2A63
3BF459DA
BB7BCA10
3AADAB9F
3B103EA7
BB9F2778
3BFC47E5
3C1AC365
BBE18ACA
BB9E55C1
BC08FC93
BC4764AE
BB80D802
3C3E121F
3BEA747E
3C24095F
3BAD2568
BC7633CE
BC1D909F
BB8F10AA
BB7E9B7C
BB63AC0C
BB931013
3B183D79
3B81CB47
3BA265F1
3BAEEA64
BA5CFCC6
BB6B67C3
BB70E90C
BB854478
BB50891A
3A8BDA94
B9217B0F
39852B4E
3BA85447
3B451117
3B1F5169
B892CCF7
BB35DCC6
BAF5C28F
BB2C0831
BADAE3E7
3A54562E
3ADC768E
3BC53B08
3B232F45
BAF5E41D
BBED56B0
BBF2BECF
B9A17B0F
3B9ABB02
3C002C0A
3B305B7D
BBEFCBD5
BBF1A198
BBBEF06B
3B9552E3
3C2D3A60
3C03D790
3B04944F
BBCD184C
BBCEF673
BAD6B229
3B49A77E
3B163561
BACD423E
BB7A9C13
BB199DCB
3BA0A0F5
3C026677
BB0094E6
3A99E0E7
3B4D0FE9
3B37A1C2
3BA68F4B
3BBDC26E
BA9E774F
BB7F64D0
BB9AD42C
BBBAADE6
B80637BD
3B5EE350
3B1A5658
3B056E69
3BA4A05E
3ACB295F
3AA91538
39473ABD
BBA7AC82
BB3F7F06
BAB3D4AE
BA1F6230
3B2C7DA2
3A6E8D11
3B877681
3B82730C
B9D4DC66
BBFC829D
BBEEE957
BADC981C
3B3AF966
3C0B04AB
3BE2D1F2
BB8F3A9B
BBA3E7D1
BBF21709
3A50678C
3C141C82
3C175297
3B94573A
BBB4E981
BC2D81AE
BBC0CE92
B9AD8A11
3B874C90
3B0A58B4
BABB9064
BB37F5A5
3B045133
3BB7D417
3BBAADE6
39AE1049
BAC2C5E3
3AA15981
3B13C89F
B9FC2EBA
3B1C5E70
3A70A5F0
39D90E24
BB5E7EA6
3A0F2171
3B2C18F8
3AC47A18
3A0D4BAD
3B622A2C
3B324207
3A1FE868
BC1185CF
BB04D76B
3B84406C
BBF94C88
BB35AA71
BBF251C2
3C03F0BB
3C1B77C0
3B85A0BE
BBE9899C
BC334A45
3B2B7132
3BF398E9
3BDE2AC3
3ACEF673
BC0348F5
BB627E0F
BBD05F29
BB2B606B
3C481909
3855E8D5
3A078748
3B0637BD
3A1528F2
3ABC9CD4
BC1491F3
BC427A63
BBC01E69
BB8301A8
3B39DC2F
3AB3F63C
3C262670
B9F3CB3E
3B99D884
BBE3E6C5
BB56E47E
BB9906CD
BB7D7E46
BBBD1AA8
BBBF6E3F
3B7A8B4C
BB94D50F
3B7F327B
BAEF5665
BB1949E9
38E27E0F
3BA161E5
B8B88CA4
BA324207
3B31BBCF
BBF79852
3A9D4952
BBB4202E
BAF84018
BB91B824
BB332CE9
B990B418
3BA42AED
3BE0FC2F
BB54AA11
BB675793
B96CFA6A
BBCAC4B5
3C621533
3B668E3F
3A85D313
BB4E3DE6
BC17C3D7
BB006291
3BE53650
3C06EC18
3BCAFF6D
BB7F10ED
BBB2C83F
3BE1693C
3B878748
BB364170
BBA832BA
BA1B3073
3B6BBBA5
3C1906CD
3BF605AB
3B47C0F4
BA02CF53
3B751ACA
BAE86402
BBC521DE
3ACB07D1
3C1EBA6B
3C8B88CA
3BDD82FD
BAA88F00
BC369DB6
BC4C1CA4
BB4A600B
3BE9C454
3BD3F9E8
3AB5AA71
BB7F9724
BB94AB1D
3B69A2C6
3C199136
3ABD87B5
3B583409
BC34F616
BC0815E4
BBB28523
3B8C9321
3C71F57B
3BBC2FC7
B9AE9681
BBAEF2C7
BC05BE1B
3AFCD680
3BBDD335
3B9E3C97
BC8A43BB
BC9BC340
BC4471B4
3BA0663C
3C879C41
3C749CF5
3BA686E8
BC7A5094
BC9198AF
BC28EB46
3B7861A6
3C4981BF
3BAD2568
BAB0D0EE
BC5B7AE5
B9B45AE6
3C14E1A4
3BBE7297
BB64217D
BC60DAA1
BC000EAE
BAB9DC2F
3B92E621
3C79CE8E
B9191794
BB3AD7D8
BC7AD6CB
BC639F77
BB9984A1
3B172043
3C10AFE6
3BE52DED
BA9246BF
BBE04C06
3B100C52
3AC9FB61
3AE97072
3B0461FA
BBAE2110
BB80CF9E
BBBBA98F
3B2515CF
3BBAF102
3C37995F
3B43F3E0
BBDA4CE8
BC39A9DA
BC22F8BE
3BC436FC
3BEA4229
3C1274E2
BC85BE1B
BC0E043A
BA30F27C
3C708030
3CA3AB00
3B6DE54B
BC7A8F7E
BC5959A3
BC25870E
3B11D14E
3C6C397A
3C8F66A5
3B7722E2
BABDA943
BBB01861
3B573861
3BA7A41E
3BFDEB53
BBD40AAF
BBE6EA85
BBE00086
3B45FBF8
3C80778A
3BA93F29
BBA6655A
BC4BD988
BC712C28
BC0D8EC9
3B6ED02D
3BBBB1F2
3C0A697B
3B903EA7
B965A35D
B9F1B25F
BAA0F4D8
392BF76A
B92BF76A
BB4CBC06
3B270D20
B9F9096C
3B81DC0E
3AF0A5F0
3AAB0C89
BAE47560
39EF1349
BB0387DF
BBD5C747
BB98BB4D
B98E9B39
3B80E065
3B2E2110
B8DC3372
3AF648C7
3B055DA2
BB1CA18C
BC00F990
BB551F82
B84521DE
BAC7C0F4
3B2F8162
BAB0079A
3B10C4DF
BA8C1DB0
3AB8066C
BAA009F6
B9302928
3BD84D34
3AC564F9
3B7C610F
BB480410
BBBA94BC
BB5D82FD
BA36B6E1
BAC9FB61
B8D3CFF6
37D1B717
BA602214
3A0B75EA
3BA350D3
3C1578A3
3C656473
3BBB341E
BB903644
BABEF8CF
BBA6A876
B9D4DC66
3AEE49F5
39F7FCFC
3A070111
BB27F801
3B01908E
3B401605
3C2E46D0
B95801B4
BB9CF56F
BB1528F2
BBDF04DE
3A9B3073
3AAEFB2B
3B04406C
3B463F14
3B12AB69
BADA3C21
BB0EBCC7
BAEE06D9
B87BA882
BB918E32
BB129AA2
39D66F0D
3B9D27C4
3A067AD9
3ABB2BBB
392E1049
3B60A84C
BB95A6C6
3A06BDF5
3AFFB8B2
BAA84BE4
3B9246BF
3B112989
BBA63B69
BB372C52
BB985F07
3B2E2110
3A01C2E3
BA8ACE25
3ABDEC5F
3B779852
BB8D4BAD
BB480410
3C92E1EF
3C762739
3B3A0E84
BBF6B5D4
BC37DC7B
BBC33B54
3AFB86F4
3BD46F58
3B6BFEC1
BB809D49
BB027B70
BB41A8AC
3A473ABD
3C041AAC
BB7CE747
BC01A9B9
BC0F0C78
BAC32A8D
3BD8D36B
3C70B285
3C45931D
3B284BE4
BB560A63
BB22A90D
3BAD4F59
3C02A561
BC02B1F7
BC725A25
BC0A7E74
3B9D8C6D
3BB2FA94
3BFFB04F
3A0F2171
BB573861
3A904F6E
39FCB4F2
3BBAADE6
BBEF672C
BC4892AB
BB900C52
BB38E087
BA4CFF22
3C2CC4F0
3AF1B25F
3B839043
BA97E996
BB979E17
BB9717DF
BBFF10ED
BB656042
B9D5E8D5
3C1C8C93
3B475C4B
BC2E7925
BC64EAD1
BC3A16E8
3AC60CBF
3C02BA5A
3C1D55E7
3B33F63C
BBD7E88A
BBBB2357
3A52C387
3BB5B2D5
BB7A0514
BB333DB0
BC68815E
BB3CAD9B
3BF4623D
3C0F25A2
3C1A8049
BACDEA03
BBE27E0F
BC2ECD08
39828C37
3AB73D19
3B8E368F
BA67BC3C
BB9AB29E
3AA91538
3C14FACE
3C6A3DF7
3BB441BC
BA5A1A93
BA6F5665
BB4F28C8
3A15F245
BBD71F36
BB18C3B1
BC2704BC
BB917508
3B6D80A1
3C257A78
3BBD987C
3B2E1049
BA10F734
BBC62E4D
BBAB8A5D
BBB3CC4B
3969D51B
BB906898
3BD20297
3C232B13
3AD477BC
3B5B8BAC
BCFDAA50
BC10752E
3D0F0C78
3B2F2D80
BC96C1E3
BDC05575
BD6350D3
3D040182
3D89D0EA
3D4A148C
BC4753E7
BDB8C75C
BD850A46
BCD1A21F
3D7BB624
3D9656EF
B98D0892
BD8C2CE4
BDA461FA
BB931876
3D6704BC
3D9B773A
3D2AFFF3
BD44EE7C
BDA8F862
3B56B229
3D468449
3D7417CA
3D2A24CC
BB662995
BD1D377E
BCCDD2F2
BCE1C79B
BD3CAD9B
BCED8D37
3D0CA81A
3D7B480A
3DAE0F3D
3CE64D3C
BD0C5650
BDA17C1C
BDA02A78
BCA1D53D
3D63CB81
3D9F9831
3D5970B5
3C418F82
BCA35D68
BC77C244
BD061E93
BCE79896
3C959818
3CA513B6
3C74DBE0
BC72239E
BCFF8CA8
BD38359C
3C91E42E
3D509396
3D87BB30
3CE290EF
BCF76816
BDACF180
BD291C8F
3D15336E
3D84E50C
3D619C9D
BC5EB52D
BD94DBE0
BD72AAE3
3D087FCC
3DB8D8A9
3D36EF80
BCDCFEDF
BDA6CE36
BD95A07B
BB77DB6E
3D56F007
3C8DD617
B9EBEDFA
BCFAAEF3
BD21D756
BC831AD2
BD0817FC
BC060136
3CD8FD5D
3D15054B
3D884F09
3C1C5A3E
BCF0B285
BD9F572E
BDB4EEBF
BC951A43
3D734613
3D8E02A7
3D66BE7B
3BEA8DA8
BC5C22AB
BD401F75
BD1667B6
BC65753A
BC5F43C8
3D54C122
3DAA0EC7
BD11CD1C
BDF9BFDF
BDDCEFAA
BD2466B2
3D4868BA
3DD70AC4
3DBAF31B
3C8D1D8A
BD562F16
BDAEFBB1
BD4A0A0F
3C10ABB4
3D99BE4D
3DB3250B
3D1E8B3B
BCDE13B2
BDCFB331
BDCF5A10
BCB75643
3D87485E
3E104C06
3DE5C5F8
3C41A47B
BDDC4977
BE17F173
3D31AC15
3DD0FF11
3DBF7BE1
3BA05DD9
BDA34F40
BD901D19
BC921683
3D469F8C
3D876966
3C5013A9
BCF3A57F
BD5BC665
BD36DA88
3BBC9470
3D28C36E
3D0E820E
3CB53932
BCA3C85C
BCEDD8B6
BCC3EFAE
3C95D91B
3D3F66E8
3CB0C027
BC8D6B23
BD5F06F7
BD5ED9E0
BDF66F0D
BE083276
BD630B9E
3D1B530D
3DDFCC18
3DD4549B
3D16DB0E
BD3E37DF
BDCA875D
BD76CBDA
BB85E3DA
3D55FDCE
3DA33615
3D634224
BC82F512
BDA8EFFE
BDBAB64A
BD40431C
3D4BCADA
3DE534BD
3DD6134D
3C2BEAD5
BDB85F8D
BE0A821F
BDBD73C9
3CE14BE0
3DEF5126
3D41BA80
BD635C5B
BDB7FAE3
BD4C7B03
3C4C0BDD
3D8553AC
3D634B94
BC432A8D
BD8A82A5
BD513405
3BB5AA71
3D2C9C0B
3D6A68F5
3C88DD1E
BC170718
BD33E469
BCD7B203
BBFDB8FE
3D2F837B
3CA83D36
BC5B4891
BD0B5FE5
BD3DE721
BCDF633D
3CD55608
BC4A600B
BA8EBCC7
3BEA4229
3C577FAE
3C4814D7
3A541312
BBB2745C
BB0387DF
BBAE7D56
3A7FDA40
3B9D0E99
B9DCB9AA
BB2D14A1
3B87F456
3B1FB613
3B83D35F
3B4111AE
BB03A96D
BB76F08D
3B343958
3A50EDC4
BB928177
BBDBAD3A
BBF459DA
BB4B07D1
3C168512
3B0E4756
BB86594B
BC532C62
BC164E8B
3BE5FFA4
3C449774
3B9FF0CC
BB8EA39C
BC2237CE
BBFB1184
399E55C1
3C27B4E5
3BE2B8C7
3B8661AE
BAE86402
BB920C07
BB959E62
BB896DD2
BC068FD2
BB8EC52A
B965A35D
3B964628
3C2CC4F0
3C1DB22D
3B2B81F9
BC06876E
3BEA5B53
3C39C737
3C6175D1
3ABAC711
BC0B0D0F
BC248F97
BC1C5E70
B9755DE6
3B9CC31A
3A349E02
BADF9BDC
BA14A2BA
BA956C0D
3B5ED289
3BDA6613
BB052B4E
BBC77575
398FA7A8
B9ED80A1
3AB7A1C2
BB301861
BB448ADF
BB48CD64
3BD92FB2
3BB4D057
3B869C67
BC3D61F6
BBC88A48
BABED741
3BF8F8A5
3BFEE6FB
393ED741
BC2E70C1
BC03B1D1
BB600086
3C301861
3C0E92D5
3B8CD63D
BB3A40D9
BC281DC1
BBE88590
BB0A1598
38DC3372
39DDC619
3B08722A
3B92DDBE
3BE703B0
3C116441
3AC1FC8F
BBE685DB
BC5AF4AE
BC375211
BCFE260B
3CE9057D
3B738822
3D36D656
BA8ACE25
BBAE8E1D
BC380A9E
BB9246BF
3B82730C
BC2D81AE
3AE086BE
3C982ECB
BCA9D1F6
3D240C84
390205FF
BCDCB35F
BBA2FCF0
3BFB00BD
3C4BF6E4
BB0DC11E
3C92D341
BCB7A3DB
3BD33094
BB41DB01
BC6D1394
BC321C47
3CDE785B
3CD73C92
BC375EA6
BCC9C4DB
BBB7457C
3BD71F36
BC894813
BCEFD007
3C583C6D
3C5AF07C
3CE04E1E
3CB0C240
BC8F40E6
3B34D057
BCBFBBD8
3C22CECD
3C862B28
3AE77920
BC8E5604
3BBC72E2
3D14855E
BCA4C836
BB931013
3CA20792
3B7D5CB8
BCB4B72C
3D1DD6E0
BC56FDA8
BC87485E
3CA03819
BBCB07D1
3C1B23DD
BC0F2171
BB0EBCC7
BB91537A
BCAC1095
3B6496EE
BC34E11E
3B7765FE
BC7FC548
BCA99D88
3CA7ED85
BC2B0425
3D1DB984
BCDDD8F9
3BDFBD6A
3C8D8234
BB57CF5F
3B8C9321
BC437E6F
BC451117
BD22B9D4
BCC3C3A4
3C5A9004
3B9F383F
3C13C89F
3C406184
3C972ABF
3D14D834
3C0A0903
3B8DF373
3BE3D5FE
BBDACABC
3D032CA5
3C401A37
BD0BE511
BD16FA83
3D2CCF6C
3CA0663C
3B7CB4F2
BCE8AF81
3BE06530
3C694AB2
BCBEE808
BC4ED4E5
BC8BC9CD
3BC6B485
3CBDC6A0
BE1A4F44
BDAE453D
BCF0BAE9
3BDD8B61
3C9FE64F
3D0880D8
3D6C7EAE
3DCB7B29
3DA96031
3C90B418
BD68B2A7
BDB9E7B8
BDB98634
BD5360D0
BC81A155
3CDD2F1B
3D6F4491
3D9897A6
3DA9D7BA
3D559C49
3C01A155
BD2F5126
BD9DC93F
BDBA3C21
BDA24DD3
BD2AA9F8
3D7446FA
3DAD4DC6
3DC0589B
3D6AD81B
3BD466F5
BD25F634
BD89DC72
BD8E3CDA
BD32C626
BD09A134
3B21F080
3D3606B8
3D9518B1
3DBEC99F
3D91A976
3BDDF86E
BD587F88
BDB203A3
BD77D524
BD3E2824
BCC02081
BC87CE96
BAD3AE68
3D381733
3E043D04
3E1E1C9B
3BFFC116
3D8713F0
3DA549B6
3D75C4A8
3D412DFD
3D52DCB1
3D262670
BC4B85A5
BD8C17EC
BDC43138
BDB2E1EF
BCE35E74
3CAE4F33
3D92E621
3D912BA1
3D958080
3D38C21E
3D0A7B4E
BC94CA92
BD912BA1
BDBB3AEF
BDB3165D
BD666BA5
BA61B4BB
3D52BB23
3DB78A2B
3D859F2C
3C49A77E
BD13EC46
BD9EB314
BDB9378F
BDA1EB42
BCED6777
3C0AAC97
3D54EC20
3D84E054
3D97DB6E
3D8070B9
3CDC69F9
BC6E2C99
BDA10E88
BDE326E1
BDA4C6A4
BCACF95D
3CF70154
3D2E49F5
3CD538AC
3D210BE9
3D86E43B
3DC95853
3D47485E
BD32BECF
3CA13E3E
3E2CFFA8
3E3E2542
3D75FF61
BD9D8948
BE10E347
BD94A3C6
3CDA964F
3DA0A17B
3D8E3151
BBF5A965
BD9ED0F6
BD80C62E
BCA2B170
3DA3ED96
3DDF79C8
3D73764F
BD126E98
BDE7D4E1
BDDA4F87
BD5FFC54
3D53F078
3DFBED31
3DD652BD
3D16FFC1
BD9233DF
BDD36BD3
BC106898
3D93F423
3DB35760
3D9B24EA
3B90E66D
BD3F7BE1
BD529564
BD0F483D
BC9919AC
BC99D66B
BA8BFC22
3CD104D5
3D8259E2
3D85F634
3CE3FFEF
BD25BA6F
BDA21965
BDB1055C
BCD28284
3CA9B6B3
3D627286
3D71E3A8
3D28D10F
3CA52264
3ADF3733
3E3F46ED
3DC18506
BD4DCDB3
BE1759AB
BE0900C5
BCA30FD0
3D98D25F
3DD1D14E
3D121DDA
BD6F0F17
BDBB8ED2
BD07EF17
3D3E4367
3DC21EA3
3D8E336A
BCE77708
BDC89B95
BDDBBADC
BD35AD97
3D3B2BBB
3DDB7415
3DEF48C3
3D3C2657
BD797785
BE0D716D
BDF6BB99
3D9E468D
3E0322AF
3DA43B2E
390FA7A8
BD72FBA0
BDA4167B
BD555821
BBB074A7
3C0B47C7
3CF90B85
3CF470EB
3D5C1C61
3D1C5719
3C593815
BCDA3C21
BDA5AFF3
BDAB0D95
BC7E8251
3D337974
3DA44285
3D9676EA
3CEAB14F
BBA63305
BCF46888
BD5188F4
BDB27AA7
3A97E996
BB5C11E4
BBBC59B8
BB82BE8C
BB285CAB
3AFD3B2A
3B6ABFFD
3B791A33
3B21059F
3A81E471
B9FE4799
BAB7E4DE
BB230DB7
BA5C3372
B92AEAFB
3A220147
B9C521DE
3A51FA33
3AB47C74
3AD25EDD
3B22877F
3A9B3073
3A26FC59
BA828C37
BB525EDD
BA895D0B
BA788334
3A734507
3A573861
3AD32831
3A3E9425
3AB1140A
BA7C2EBA
B9E84274
B9B78034
B9DC3372
BB08F862
BB29478D
BAB02928
3A1C7FFE
3B127914
3B50678C
3B6EBF66
3A8B75EA
BA0205FF
BB309E99
BB3AB64A
BB7C610F
BB2C4B4D
B8B673C5
3B57F0ED
3B921CCE
BBA70D20
BBDD9C28
BB19F1AE
3B68101F
3B8DFBD7
3B6F88B9
3B3955F8
3A273F75
BB244C7B
BB54ED2D
BB10F734
BB806AF4
B8991794
3A55629E
3AC49BA6
3B25CE5B
3A982CB2
39E7BC3C
B86F1349
B8EF1349
BAE10CF6
BACF9E38
BB3662FE
BACAC4B5
BAB912DC
398C825A
3AE325D5
3B289FC7
3ABB9064
B94D8559
BB06F04A
B7E27E0F
BA80D802
B9766A55
BB22B9D4
B9A73F75
BA3A1F4B
B928D21C
3B376F6D
3B0F42FF
3B1F6230
3B5E6DDF
B99DCF89
BB371B8B
BB4532A5
BB63369C
BAF96E16
3A67BC3C
3B03EC89
3B2DCD2D
3BB25B31
3B6E6B83
3D96177F
3D519AC8
BC9D55E7
BD8BFB16
BD9F61AA
BB618266
3CD5E28B
3D23D5FE
BB96AAD2
BD33F63C
BD083233
3CA8DEB1
3D890E67
3D216723
BCB78034
BD8E0EB6
BD71A5CA
BCAC8605
3CA07703
3D0461FA
B9A393EE
BCA63F9A
BC37ED42
3CBCE209
3D022681
3B9B280F
BD837C57
BD28E821
3BEF0282
3D09528F
3D26A982
3A6A9E6F
BBACEAAF
3C21E81D
3CC091C1
39E0EB68
BCF49492
BD578812
BD1377E2
3C27C17B
3D499F1B
3D4CE0B9
3A817FC7
BCDB8BAC
BC4A4F44
3BB9D3CC
3C78CEB3
BC7FB04F
BCD568E8
BD180E49
BB263305
3D00AAEB
3C3B8C33
BD98F68C
BDB0FE8B
BCFE08AF
3D01E796
3D871045
3D23DA30
BCD718EC
BD26AB9B
BBDCA8E3
3D222813
3D58D25F
3BBF5515
BD6CF52C
BDA0B88D
BCFEE0B1
3D017DAF
3D852AC7
3D19695E
BC46088D
BC95C422
BC7B86F4
3C38C75C
3C88BB90
BC93E5FB
BD64723B
BBDC65C7
3D0660A2
3D511383
3CF8F041
BC6AEE20
BC33FA6E
BC40A8D2
3A9F1F15
BC35BF6A
BCEEB702
BCE9C886
3BA3A4B5
3D03CF2D
3D702F73
3CCA3401
BCD4C76D
BD07B02D
BCB8476F
3C4768E0
3BB0C027
3B461D86
BCB7329C
BC709529
3CFF7165
3D1613D3
3D427B70
3E1929AA
3DDE44FA
BB53BF2F
BDB7457C
BE09EF52
BDC41462
3BF21709
3DB32E7B
3DF71865
3DB42FE8
3C43E319
BD303E21
BD8FDC9C
BD2C97D9
BC48472C
BBF8C650
3CE5E02F
3D06130A
3CE3B8A2
3CC17CA2
BC055971
BC59DBA9
BCE98783
BCBF7058
BBA89FC7
3D287B14
3D0EEE0F
BD6F8488
BDD33094
BDA0A394
BBADFF82
3DE04296
3DE62802
3D01B867
BD544135
BDDEE45C
BD465D7D
3D343958
3D4E25C8
3C209CC3
BD82717A
BDADA33C
3C11EEAA
3DBED070
3DFA3F46
3CB8C975
BD99AF19
BE0CE24C
BDB57929
3C3AECD0
3DF3586D
3DC8DA7F
3BD77319
BDCF60E1
BE1CF6BE
BDD1C087
BC06E7E6
3DCF08CC
3E0EC354
3DC8DA7F
B9CBF2B2
BD636D22
BDCB4741
BDA5DE9C
BC6AAB04
3CF03D14
3D6C6690
3D3FBEFD
3C9E7968
BC4BFB16
BC0DB489
BD0780FE
BCC32CA5
BCDF5AD9
BC1702E6
3D34A234
3D8862F6
3D359AB7
BD9BFF04
BD910C2C
BBF84018
3DB667B6
3DED7F95
3D4BC9CD
BD191FF7
BDCF4E87
BDAC3654
BB9C12F1
3D85FC7E
3DA0B999
B8388CA4
BD451117
BD353719
3D51A21F
3DC29846
3D7009B3
BD509E13
BDF975F3
BE05360D
BC320FB2
3DDB3B75
3E000B89
3D769EC3
BD2045BB
3E2C126A
3DEBEA4F
BB385A4F
BD690BC8
BD7E7C07
BDCA9047
BCD4DC66
3D16E04C
3DBC25D0
3DD37F39
3D5B8994
3D22C669
BCDD590C
BD8C11A1
BD4E5F74
BD2426BB
3BAE9681
3DAC33B5
3D975D14
3D9BE4CD
3CB662FE
BD719F80
BD065519
BDD21DDA
BDA8CC57
BCD53EF7
3DA75254
3D970260
3D1C4A84
BCC8ECD9
BDAA9C56
BD90E6F3
BD4F15E8
3D22F05A
3DBF3D7D
3DD3B107
3DB3037D
3D2AEAFB
BD1DB76B
BCD1EFB7
BD82D517
BD96A37B
BD80B88D
BB953155
3CE2E6EB
3D986877
3DBC45CC
3D96249A
3BFF9724
BDBCA298
BDF246BF
BDFF0AA2
3C5323FF
BDAD538B
BE1E696A
BD94DA4D
BDA11234
BC6B52CA
3D9FA765
3D9F40A3
3D46C54C
3CBE1006
BC92BC30
BDD3A605
BD609EDC
BB349E02
3C2A8EB4
3D8C7F35
3D4286F9
3DD32592
3D8AB820
BC289FC7
BD80DFDF
BCB18330
BD52B90A
3C1E774F
3C2DEEBB
3DE3326A
BC252264
BD426677
BDC0DCBA
BDEE4324
BD05681F
BC775D9A
3D893533
3DD6E936
3DB2C40D
3D0F398F
BD5C7FFE
BDEA8DA8
BD84FA05
BD397354
BD0DDE7A
BBE1719F
3D031DF7
3DB9AAE7
3E016830
3D474539
BD68166A
BDBA2489
BDD11C6D
BDEC204F
3B5423D9
3E068E82
BCD909F2
BDABAA58
BD84FCA4
BD71FAB9
3C95FCC2
BBBDF4C3
3CF9C1F8
BC1A4DF4
3CE17A03
3D2786C2
3CA237CE
BCE38C97
BCE481F5
BDC63172
BCA8DEB1
3C9085F5
3D51233E
3D40BBB2
BCC5A5FC
BD225D8D
BD22B389
BBBE5109
3CF6555C
3C76CEFF
3C8A2CAA
BD321E60
3C1EF955
3C9AEF70
3BF08CC5
BD0650E7
BC00AE10
3716FEB5
3D8D8772
3D59E300
3C28AC5C
BD2F1023
BD8522EA
BCFC6541
3BAE642C
3CC6C765
3C242AED
BC852B4E
BD48216C
3D0FD6D8
3D22888B
3DAC0BDD
3C78B9BB
BD4C7C0F
BDC53B08
BDE7BCC3
BD7D145E
3D4431BE
BE12C55D
BCF5FD48
3CCD63CC
3D26F933
3D42278D
3CE7AFA7
BC5A059A
3B2276B8
3CA12D77
BA8051CA
BD3FCA86
BC899E0E
BCCC2939
3C8DBAD4
3D629A5F
3CFF66E8
BB13A711
BD3DA837
BBCF312B
BB9A4DF4
3D46EC18
3D7316E3
3CB1140A
BCAC6CDB
BCE5F959
BCE26B2F
3CE71045
BBAD14A1
BC9289DB
BB3662FE
3D5DB014
3CD099E1
3C80F777
BD3891E2
BD2F34D7
BD679032
BB726AEC
3D83E74B
3D3E7297
3CF74CD3
BC347842
BD6AF683
BB917D6B
3D2CABC5
3D041462
BCC8A9BD
BD53111F
BD9104D5
BB85553F
3D8F123C
3DC6705D
3DA87097
3B02CF53
3B3EE808
3A206EA0
B816FEB5
BB06F04A
3B186FCE
3B6325D5
3B470868
BB4B7D41
BB95D91B
BB408B76
39DFDEF8
3B5972CD
3BD98BF8
3A4564F9
BB376F6D
BB3AC711
BB33A259
3AFC9364
3B3955F8
BA9C3CE2
BA22877F
BA09E343
3892CCF7
391C3CE2
3B31CC96
B9FE4799
39C73ABD
B9302928
B9A0F4D8
BB450050
BAF38822
BB49539C
39606530
3B5A9004
3AE06530
BA7A58F7
BB2C7DA2
BA86162F
3B1DADFB
3B3B4D49
3A41FC8F
BA7D3B2A
BB9D0E99
BAA222D5
394C78EA
3B313598
38627E0F
BABB4D49
BA299B6F
3B31140A
3B7355CE
3BA03C4B
BB3EA4EC
BB5013A9
3A6AE18B
3AB9DC2F
3B0A04D1
B78637BD
BB1CF56F
BB9539B9
BB15BFF0
3B6CE9A3
3AFE047D
3AF7B9E0
BAFE6927
BB43D252
BB2D46F6
3AB5CBFF
3B319A41
BAE368F1
BA267621
BB372C52
BAE51D26
3A84406C
3B36D86F
3A24A05E
BA0205FF
BA6A1837
3A794C88
B9999DCB
BACEF673
BB56909B
3ACD423E
3B40AD04
3B6B8950
BA83FD50
BA76AD71
BB24095F
B9A5ACCD
3B27A41E
3A9F1F15
BA18915C
39FF5409
BA345AE6
3A0C3F3E
3B2393EE
3AC868BA
BAC308FF
BAD1526E
BAE0EB68
B98FA7A8
3B82517E
3AC9D9D3
BD12AB69
BD4299D9
3C137D20
BC7B43D9
BD135B92
BCF77293
3C07A4A5
3D38DE6E
3D87CF1C
3CBB0C46
BD5DFFC5
BDD672B9
BD812275
BCBFAF42
3D416052
3D83076C
3CB5A640
BCCF440B
BB9A34CA
3D24C836
3C91C4B9
BCF1C971
BD94CA0C
BE035936
BD720EA6
3D51537A
3DE3326A
3D718DAC
BD57D9DC
BE093101
BDA71609
BDA112BA
3B00303C
3D595AAF
3DB6DDAD
3DC0AA65
3D6236C1
BCBAFD97
BDB91AB9
BDF4A1AD
BDA203E6
3B08F862
3DA79703
3E08BC9D
3D839B45
3AC17657
BDD3ECCC
BDCECB75
BD4F073A
3BBEF06B
3D136934
3D86E8F3
BC414C66
BCA98CC1
3C059429
3CDE310E
3C1DD7ED
3D0F4D7B
3D044178
3CB1C64C
BCE8D973
BDA43CC0
BD9349BF
BC4D6C2F
3D3ED84D
3DACACD2
3D43E426
BCB9A9DA
BCCF850E
BC451DAC
3C2EAFAB
3BA3C643
BD673711
BD9FC32F
BD7D199C
3D28A3F9
3DAA30DB
3DCAA865
BDA26916
BE036113
BDDC0A07
BD8259E2
3D3968D7
3DB0EBAB
3D847B24
3DA31CEB
3CD4D834
BCC20D56
BDA79CC7
BDCF7CAA
BDAC6E6E
3B9CC31A
3DD20F2C
3E0C6B8B
3DBB59DE
3CACFB76
BD955A3A
BDE9203A
BD1F0F5A
3C4C9A78
3D93C819
3D9C04C9
3D2FED63
3C61693C
3D3823C8
3DC03E64
3D8BD3C3
3D375643
3D1144CC
3D4F93BC
3CBCBA30
BCCC0160
BDBE774F
BDEE2196
BD945309
3C2EF6F9
3D90B49E
3D8EF4E0
3D4115DF
3CFDF3B6
3D15896A
3C5DFCA0
BC9FA765
BD83A42F
BDC62563
BD997A25
BD14F052
3C802E23
3D2F544C
3D6C3116
3DB29889
3D212945
BD08E8A7
BDF193F7
BE0E6794
BDB51F82
3C37ED42
3DA04641
3DB5043E
3D14E4C9
3CA95422
3D0DE1A0
3D398527
3CBD4CFD
BD45FD05
BE01AC15
BE0A1E82
BD7C87DB
3D704DDB
3DE1E796
3DCE1501
3D364F12
3C76E829
3C4A31E8
3C6A5F85
BD319F80
3E0E09FF
3D444BF5
BB756EAD
BCB167EC
BC33A68B
BCD7A56E
BD8F0E0B
BDCD2DCB
BD7B2464
3CFA3550
3DB97B31
3DEA2DB6
3D76D656
3C2E9AB3
BCC55C96
BCDF1173
BD126634
BD56B335
BD8FBF40
BD86BB56
BBADD591
3D0B7A1C
3D934E77
3D9EF523
3D876189
3D1EE02A
BD5F4C2B
BDEE52DF
BE049A56
BD933659
3CAD490E
3DD5C4A8
3E00B73D
3D96CBDA
3C45F395
BCF09B74
BC652589
3AD2E515
BD43C5BD
BDA8240B
BDDFA8F8
BD6F49CF
3D5B37CA
3E0DC65C
3E0795F6
3D6F7F4A
BCDD95DD
BD87A850
BD44E0DB
BCD612C7
BDA3ED0F
BDD0ACC1
3C2D2136
3AE84274
BBFC47E5
3AB86B16
3C5F9BDC
3B59E83E
3B2C4B4D
BC068FD2
BB9E55C1
BAEC52A4
3C807358
3C858362
3C6A63B7
3B847B24
BB31465F
BC2E89EC
BBB6BF44
3B866A12
3BB15726
BB230DB7
3BCD20B0
BB69E5E2
3B03558A
BABCBE62
BC0811B2
BB8893B8
BB5DF86E
BC12DDBE
BB5BCEC8
3B4D3177
3B3B0A2D
3C3F2F55
3C687D2C
BB2EFB2B
3C01E471
3BD9CF14
BB55C747
3AD4562E
BC5F8B15
BC0BFC22
BAFC5048
3A8B9778
3C5972CD
3C2743A6
BB40CE92
BC6C5B08
BC5373B0
3BBFDB4D
3BFB97BB
3B7CD680
BC483EC9
BC95F890
BC0A0D35
BB92E621
BB310343
3A8D2A20
3B97D8CF
BBB8F14E
BC1613D3
BC11E215
3C0A5482
3C41D6D0
3C3ACB43
3BA15981
BC42938E
BC621102
BC188095
BAE1B4BB
BB462E4D
3C7B0920
3BEFE500
3A4069E8
3AAAC96D
3B3E1EB4
BC2CDE1A
BB4E8102
38C73ABD
B8E496EE
3AAAA7DF
3B10E66D
3B5CA8E3
3B1F5169
3C1F8C22
BBC3B0C4
3C08B114
BB0ACE25
BB18C3B1
3B9478C8
BC1ED395
BC20C283
BA59D777
3A6D3D86
3C3FF045
3C140BBB
BA8ACE25
BC3738E7
BC0D4BAD
BB0EDE55
3A2D8A11
3C070DA6
BB116CA4
BC3B517A
BB343958
3AA63305
3CCE4A7B
3D78E6D1
3DBA79FF
3DADC098
3D0C0592
BD38D2E5
BDE63843
BE0BD72C
BDC9B952
3CEE9FF1
3E0956C1
3E2C9364
3DE896DD
BCE45804
BDE5FD05
BE135547
BDE17B0F
BD42A66E
3D2C18F8
3E0F25A2
3E05AD97
3DB46562
BB315726
BDD22D0E
BE063843
BDD95DD5
3D4E464A
3D9D4281
3D5199BB
BB1C1B54
3C821AF8
3CA1A933
3C965908
BC8A02B8
BDBB163C
BDF80A18
BD74CD31
3D4C63F1
3E0DEFC8
3E14C059
3D5656EF
BD8BFF47
BE0AC083
BDD934F0
BD15000D
3D783276
3DA39A39
3DA4345D
3D0B7803
BA102DE0
BD5AA3F0
BD658A33
3D861D86
3D1F47FA
3C96A055
BD37A3DB
BDC9C12F
BDF12770
BD9657FB
3D09EDC0
3E01A587
3E22DBA5
3DC4A9CE
BCF3A366
BE090215
BE1EB745
BDDF6C27
BCCA9260
3DB87DF6
3E0E62DC
3E0988D3
3D8D70E7
BD21F9F0
BDF54D1F
BE0BC276
BDC564F9
BD02C908
3D8F6599
3D905532
3CEC2EFD
BCD92D99
BCEDD484
BAAEFB2B
BCA6D699
BD8A17B1
BD8D4AA1
BD774FF8
3D0449DC
3E01537A
3E1CF6BE
3D5E6363
BD8D3847
BE14D728
BE05479D
BD370EF5
3DAEE73E
3DED362F
3DDC193B
3D2A90CD
BD401F75
BD7518B1
BD83326A
BD88BDA9
BD33ADE2
BCA599ED
BE2EF30A
BE409891
BD784DBA
3D9FEF39
3E13022E
3D971F36
BCDC1E79
BDA3265B
BD9039EF
3BF62F9D
3DA0D5E9
3D827D89
3CA400FC
BDA5C704
BDE26F61
BD765450
3D15336E
3DEA704C
3DDD6302
3D634FC6
BD566491
BDFF9831
BDD92E1F
BD192535
3D93CA32
3DD677F7
3C14CCAB
BD954E2B
BDB503B8
BD9D30AD
BB924F22
3D402081
3D53FD0D
3D0F8E7E
3C995EE1
3C9C4DA9
3ABA1F4B
BCD0D6B2
BD833F85
BD8786C2
BCE6234B
3D26F1DC
3DA36DA8
3DB2CD7D
3CD4AC2A
BCAA087D
BD653EB4
BD74BC6A
BD2A7265
BCA5332B
BAB5243A
BE419D67
BDC2EFD4
3D51361E
3E193815
3E0AB2E1
3CA3F035
BD9AD320
BDD4C661
BD14B6A6
3D715A4B
3DBDCB58
3D0913A5
BD3F8876
BDC486AD
BD8FCF81
3CEB50B1
3DCB2BFE
3DDE5D9E
3D3866E4
BD3DB5D9
BDDE20CD
BDF2617C
BD3DCAD1
3D7CB5FE
3E0F6124
3DFA4591
BD9F8983
BE047065
BDA67CF2
B8E06530
3D745176
3DA58A33
3D578D50
3BB0E1B5
BC0CEB35
BCF9830E
BCF51266
BD5D65A1
BD1D93C4
BC5EBD90
3CDA4CE8
3DA6D7A5
3DAC8E69
3C7D156A
BD35D031
BDA5D0FA
BD98116F
BCECDD0E
3BAC6CDB
3CF7E804
3D544CBE
3DB40896
BE2A908A
BE06783A
BC878D93
3DA54584
3DE58B3F
3E02E515
3D5870DA
BCE57753
BDBF7165
BE046131
BDA71DE7
BCCD551D
3D54BAD8
3D963CB8
3DABF120
3D7966BE
3BA6F3F5
BDA2F6A5
BDC279DD
BDBAD645
BCFD4BF1
3D059967
3D603926
3DD6073E
3D996BFD
3B76598E
BDD38477
BDCAB68D
BD6B1811
3CFD86A9
3DB8A2A9
3DDCD1C8
3DB8B264
3C4D8559
BDAABC51
BDFB7176
BDF4A772
BD968512
3D0D26FA
3D975B81
3DD6030C
3DC086BE
3D3F1950
BBFB224B
BD509BFA
BDAC5975
BDD230BA
BDAFE261
BC6C52A4
3DDFAFC9
3E1FD3F6
3E13B1D1
BA7301EB
3DC0FECE
3E276AF9
3DE66E44
3D8A9692
BCD7060C
BDC58B3F
BDF77964
BDA4CA4F
BC4FC82A
3D4AA759
3DE47E4A
3D971002
3CBB6ED6
BC9F9CE9
BD9FE6D6
BDAB0B7C
BDAD6990
BD43BF72
3D0C660A
3DA9081C
3D6B80ED
3D5AFC05
BC9096BC
BD528177
BDD95358
BC8CD20B
3D2E9681
3DC84F90
3DEC5198
3D7C73EF
3CA1144D
BD8A8976
BE06A5D7
BDF88EBD
BD4DA4CF
3D5C0DB2
3DFBAF53
3DD718EC
3D98116F
3C946801
BCF8EE28
BDA81BA8
BDCE746D
BDC03148
BD1B2703
3D596C83
3DBA48B6
3E138045
3E06F827
3C5C37A4
BE027D03
BBD26741
BBEC84F9
3B6DA22F
3C100C52
3B9A34CA
BA9BF9C6
BBCD5305
BBA7503C
BB11F2DC
3B795D4F
3B016F00
39313598
3996787D
BA83BA34
BA88F862
3B47F349
3B835DEE
B8CF9E38
BADA1A93
BB67253E
BBD5CFAB
BB2B3EDE
3AB1FEEB
3B8BC16A
3AA63305
3AA8D21C
BBA72EAE
BB847B24
BB015E39
3AF776C5
3B63BCD3
3AF8A4C2
388C825A
BACBAF96
BA997C3D
394C78EA
3B307D0B
3B54024B
3A21BE2B
BA9AAA3B
BB09F40A
BB02CF53
BB203C4B
BA7C71D6
3AAED99D
3B71E4B4
3BBB44E5
399AAA3B
BB70B6B7
BB654F7B
BB9E98DD
39D2C387
3AF84018
3B6BEDFA
3BF8AD25
3AD306A3
BBB8E8EA
BBC3D252
BB473ABD
3B2D794A
3B909AED
3B4A2DB6
3993D966
BB4CFF22
B80E9B39
3AC9320E
3B93F291
B9F0A5F0
BA9CA18C
BBA48733
BBB30B5B
BAD95140
3A88D6D4
3A4026CC
3AEF9980
3B3CDFF0
BB74D7AE
BB9BCFD5
BB87B99D
3B880D80
3B832B99
3B3C6A7F
B926B93D
BB1E01DE
BB159E62
B9D5629E
3B081E47
39041EDE
3A0F2171
3B0B75EA
BB72BECF
BACDC875
BAF7121B
3A41B973
39B78034
3B20E411
3B86BDF5
3B3D5561
39DAA0CB
BBAE18AD
BB9DE050
3AE581CF
3966AFCD
3B666CB1
BD2F8056
BDD8CF3A
BDE80629
BD2646F1
3CED15AD
3DD9D3CC
3DB6377A
3D18116F
BCED6345
BCD0507A
BC0A47ED
BC6279DD
BD3B7846
BD141A69
BC451DAC
3D1F559B
3DB106EE
3D9AA25E
3C293F29
BD70691F
BDBE53A8
BD1B9629
3CF7A701
3D2F1562
3C15D0B7
3C2337A8
3C0B0D0F
3D0F6DFC
BBBC9470
BD50763A
BD89D302
BCB78CCA
3C6A704C
3D851B0D
3D48E369
BC86DB51
BD9AD9F1
BD412CF1
3C8A8F3B
3D91D2E1
3D0BD44A
BD24F00F
BD854153
BD3CF4E8
3D4D4DC6
3DC45996
3D8DB2F6
BD66B724
BE04BC27
BE03E4AC
BA5887EC
3DDFBDF1
BDDAD18D
BDAE8965
3CABE8BC
3E0B3461
3DC09891
3D113D75
BD07E7C0
BD7138BD
BD569C24
BCEB7671
BC5E657C
BD4DAF4B
BBBE48A6
3CAC12AE
3DA9E98E
3DA956C1
3CB8D60A
BD7BFE7E
BDE8E475
BD951BD6
BBA9CDC4
3D8732DF
3D685016
3CE18698
BCEE1BD2
BCC92360
3C22E7F7
3B782F51
BD23B689
BD2D0D4A
BBFD9FD3
3D971C97
3D790D9D
3CC679CC
BDA229A6
BD4BF4CB
BC9C6B05
3D50B524
3D8C2BD8
B91D4952
BD432A8D
BCC5C359
3CB2702A
3DAADE65
3DA7A9E3
BC857082
BDEE3609
BDF734B5
BD5C1616
3D72B453
3E3456F7
3E0F89C6
BCDBAD3A
3D314446
3D6B67C3
3D15C422
3C5DFCA0
BBCC4695
BC0CC9A7
BC51F601
BD2D2242
BD659D13
BCC48F11
3D2C7000
3DCCCE5F
3DE5A709
3D3265AE
BD51C5C5
BE04AEC9
BDFA6C5D
BD1D627C
3D4ABD5E
3E0324C8
3E00D024
3D6E3D60
BCB352A8
BDC01E69
BDF790FB
BC0B1141
3D9F0F5A
3E07C632
3DF3F184
3CF33659
BD846E09
BE0AF3A1
BDFC7FFE
BD11372A
3D9C0A07
3E11ED9E
3E068662
3D3BDDFD
BD8CC35D
BE14BDBA
BE0E3433
BD39B23E
3D8AFB3B
3E214120
3E0DFEFC
3D1D14E4
BDB30BE1
BE22CFD9
BDE64F55
3C28F7DB
3DE5EE57
3D8C4AC7
3D7587D7
3C6E568A
BD0C1DB0
BD03BB41
BCC6BCE8
BCA602C9
BCBEAF68
BC2A3F03
3CC68662
3D8FFFBD
3DBE2930
3D12F7F5
BD40FCB5
BDF92D99
BDF26528
BD4941C8
3D8A3162
3E035BD5
3DFCDA2B
3D4404A7
BD369015
BDDE18F0
BE04A1AD
BD8DF71F
3C484B5E
3E09D9D3
3DCDC875
3C84039B
BDA01C50
BE0E5F74
BDF530CF
BCAC81D4
3D8F1FDE
3E12B40F
3E02F901
3D23DF6E
BD9C1F00
BE181494
BE0F91A3
BD4A57A8
3D814AD3
3E16494D
3E11E647
3D3D35EB
BDA15B14
BE2D1AA8
BE0C304D
BCBD0397
3DDE5754
3E18BAC7
3D954867
3D1EABBD
BD6AC216
BDD5B707
BDC8BFC2
BCDC26DD
3D834331
3DF81A58
3DCA5E78
3C34677B
BDA6BD6F
BE064C73
BDCF0308
BA684274
3D9A4F01
3DE61848
3D8CB85A
BC1B1748
BD7F0564
BD7BA344
BC8D9514
BC015A08
BBF826EE
BA38066C
3C8856E7
3D708AAD
3D64D6E4
BDAE26D5
BDDA3F46
BD42A348
3D79378F
3E1E1BD2
3DDFB0D5
BC98201D
BE0FC86D
BE2C660A
BD93DFB1
3D873BC9
3E16948A
3E01BB06
3D1B9A5B
BD56A055
BDB71972
BDAAE297
BD3877AB
BCACC0BE
3D0AE42A
3D90CF5B
3DCFAC60
3D99BBAE
BC532C62
BDF6D091
BE119978
BDE71F79
BDDC72E2
BCD7BC7F
3D8BF1A6
3DE6DDF0
3DC21D11
3C5B9842
BD99AB6D
BE00C522
BDD82DBE
BC5CAD15
3DA986FD
3E0150DB
3DB107FB
BB57ADD1
BDACF8D7
BDACDD94
BD2C636B
3C458687
3D07CE96
3C8E2C13
3C868DB9
3CF1A9FC
3D1C7043
BB423FAB
BD64C2F8
BD853FC0
3D163886
3DF3892F
3DF062D4
3CC0A8D2
BDE00FBB
BE335C9E
BDC192A7
3D260F5E
3E213E3E
3E1C8B44
3D63DE61
BD8F4CF5
BE033333
BDC55087
BD09A88B
3CB4C1A9
3D83571D
3D992535
3D9B6673
3D769CAA
BC6E9574
BDB83DFF
BE06616B
BDB31CA8
3CBD1EDA
3BC9C90C
BAF29D41
3B41EBC8
3BD35222
3A4026CC
BB9EECC0
3B11C087
BBB356DA
BB0A265F
3A90B418
3B63BCD3
3B7BDAD7
3BE68E3F
3BD959A3
BB58CB08
BC50A244
BB47192F
BA5F9BDC
3B39CB68
3BA5EFE9
BBD5F139
BB20902E
3BD31FCD
3B8C60CC
BA15F245
3B3DCAD1
BC229846
3C195EE1
B9E496EE
3BD141A7
3B962CFE
BC0E086C
BC10D5A6
BBB673C5
39F23897
3ABE7297
3C2619DB
3B012BE5
BAC692F7
BAB28523
3B526FA4
BA423FAB
BB2686E8
BBBD1245
B9473ABD
3A677920
3B8B545C
3BE69F06
3BD5A5B9
BBB356DA
BB254824
BC24EBDD
3B835DEE
3A16BB99
BB96A26E
BA88722A
BB18C3B1
BB5A5DAF
BA9EBA6B
3B83B1D1
3AF4D7AE
3AF5A101
3BA46E09
3B8333FD
BB1BC771
BC3BADC1
BB2ADA34
BA4A1CEF
3B47C0F4
3BE1932D
BBB34613
BB3E0DED
3B823854
BAC26139
3B08F862
3B7F0026
BB62089E
BC078FAC
BB245D42
3BAE8E1D
3C34BF90
BC11AB8F
BBC31162
BB917508
BAA45D42
3B492147
3C43009B
3B361FE2
BB2AEAFB
3A8D6D3B
BB08A47F
B980F990
B8388CA4
3A4F1801
395801B4
399CC31A
3B3DFD26
3B8F6CF0
80000000
BB67CD03
BB15E17E
BC1E279E
BB82E87D
3C059429
3D989481
3CA4F228
BD6FA3FD
BDD29889
BDB8A43C
BD043C3A
3CAC300A
3DB9D5E5
3D758D15
3D272757
3C96DF40
BC1CD3E1
BD753A3F
BDBF8A8F
BD8F3ECD
3D261E0C
3DBEE3D6
3DBAE03B
3D915C64
BB0626F6
BD8E46D0
BDC79032
BD910F52
3C564D7F
3DA32874
3D81E1D2
BC164A5A
BCEC13BA
BCBA3012
BD087CA6
BC9F8A09
BC5490E6
3CAF6C6A
3D8D70E7
3D6597D5
3D21CAC1
3AF8A4C2
BD66F0D0
BD52B0A7
BD290FF9
BBC20D56
3CC662BB
3D1FADB0
3D28D866
3D830B9E
3D8DF612
3C159A31
BCD48ECE
BDF14F48
BDAC508B
BD7B4B30
3D66D267
BD860FE4
BDD5C422
BD5FE64F
BD2CB429
3D8727DD
3DAD5A5C
3DA45F5B
3D080410
BC351373
BD4D759F
BD6E1AC5
BD50C4DF
BD62A5E8
3CE3AE25
3D5FA00E
3DA9DAE0
3D97DAE8
3CC63498
BDB2513B
BDCCCEE6
BDC4167B
BCA222D5
3DB1843C
3D882C6F
3CACFB76
BB8E1501
BD59A1FD
BCF3E469
BCCFDD23
BB9FCF3E
3CFECDD1
3D34F723
3D44EE7C
3CDE2479
BCC0D90E
BD8A361A
BD5D8E86
BD58E970
BCC9A134
3C40EBEE
3D28F9F4
3D0AAB8A
3CD3111F
3D311516
BC0E4756
BC9C3CE2
BDA45996
BDFBA238
BD393BC1
3D8B5B2D
3DAD3954
3D82CBA7
BC12684D
BC91537A
BC5538AC
BA89A027
3C396F22
3C1D6F11
3A941C82
BB957471
BBD02470
BABB0A2D
3BE31D71
3C0CE704
3B81CB47
395C3372
BBC45027
3B8E043A
3C87075B
3A423FAB
3B9C8861
BC2E89EC
BC1FADB0
3B64B87C
3C8C953A
3BF6512B
3A3D017E
BC05DFA8
3A2E9681
3BA86D72
3C026245
3AA24463
BBF35E31
BB385A4F
3A3AE89F
3AFCF80E
3B27D673
B9B8066C
3A5306A3
3B3FB15B
3B8198F2
BB45B8DC
BB6E49F5
BC0F7985
BAAB0C89
3B155B46
3BDA2B5A
3B627E0F
399FE868
3A302928
BBC8EEF2
BB8F42FF
BA07442C
3B8BD231
BC8CDA6E
3996FEB5
3C18A655
3C7A2AD4
3C217B0F
3AC0053E
BC26DEFC
BBB54E2B
3B7E5860
3C30574B
3BED245B
3B267621
BC1E279E
B94D8559
3C3020C5
3BB955F8
3A3178B3
BBA7AC82
BC74B1EE
BBAB0425
3C114F48
3C11F70E
3B7312B2
BBCCE5F7
BC6D1394
BAC4BD34
3C19A62F
3BA48F97
BBAAC109
BC1DF97B
BB285CAB
BAFF5409
3C20A527
3AF29D41
3B80A5AD
BAA86D72
3B204D12
BAC3F3E0
BB02BE8C
BB917D6B
BBCC814D
3AE88590
3B947065
3C0B5CC0
3B4D5305
BA8AAC97
BC23B9AE
BBBB01C9
BB470868
3BCEE5AC
3C012381
BA7A9C13
3AD1B717
3C632E38
3C040182
3B70739B
BC042742
BC3E5D9E
BC68B3B3
BC216A48
3B029CFE
3C1FA97E
3C346349
3C0637BD
3A191794
BBAD794A
BBEBE597
BB03558A
BAA43BB4
BB5B6A1F
BBCB966C
3B4EB357
BB014D72
B9B99913
3ABD6627
BAE75793
3A749492
3A99E0E7
BB68B7E5
BB9B413A
BA9EDBF9
3AB4BF90
3BB75EA6
3C5E69AD
3B455433
3AF96E16
BBA41A26
BBCB966C
BBFFC979
BBC97D8D
BA8E9B39
3AADCD2D
3C2BF76A
3C7151E7
3BE34763
BB103EA7
BC68FB01
BC48E25D
BAFDE2EF
3BB87379
3C31465F
3C2E31D7
BB6F2410
BB6820E6
3BF9B131
3B8BB0A3
BB097E99
BC68A2EC
BC45197A
BC13B7D8
3BE88DF3
3C399D45
3C26CE36
3BBCB5FE
BB3D449A
BC3EDB73
BBC41DD2
BBDEA034
BA71F57B
3948472C
3A24A05E
3B25375D
BB3EF8CF
3B5B5958
3BA497FA
BB5338F8
3B497529
3AB75EA6
BB648627
B9B02928
375A1A93
3B749492
3B9C4DA9
3C49E668
3A852B4E
B98E9B39
BB8D434A
BC2BE6A3
BC2A8651
395801B4
BB1B1FAC
3B5FCE31
3C0D1D8A
3BEDEDAF
3BD2A1F9
B8E8C8AC
BC2C929B
BC7C2225
BBE4430B
3B70739B
3C6C460F
3C464778
BAC38F36
BBAC215C
BC34B2FB
BBFECDD1
BD98476F
BCA26C3C
3D6EB91B
3DD20FB2
3DB80DC3
3D04039B
BCAA94FF
BDB9018E
BD752EB6
BD269164
BC95D91B
3C1E774F
3D746FDF
3DBE82D8
3D8E9AB3
BD2615A9
BDBE3B04
BDB9D346
BD90DA5E
3B1363F5
3D8DFBD7
3DC6BACF
3D9001D6
BC5740C4
BDA28805
BD818937
3C176FF4
3CEC00DA
3CBAEAB8
3D08A372
3C9E7536
3C52AA5C
BCB10DBF
BD8D0E56
BD654D62
BD210386
BAEE2867
3D66601C
3D522856
3D28ED5F
3BC26139
BCC42203
BD1F3B64
BD28D003
BD82B9D4
BD8D4888
BC1274E2
3CD2EF91
3DEFFF37
3DAB6BF4
3D7A83F5
BD6496EE
3D85931D
3DD5A3A1
3D5F58C1
3D2B723F
BD86CFC8
BDACFE9B
BDA3B4F6
BD079A28
3C340B35
3D4C7D1C
3D6CE571
3D4F6380
3D621102
BCE3B689
BD5EB207
BDA908A2
BD970A3D
BCC46738
3DB1F256
3DCBF338
3DC32980
3CA0C06A
BDB08C3F
BD8793DE
BCABA7B9
3B9246BF
3D59B1B8
3CF4CB19
3CCE54F8
3B9E774F
BCFFFBCE
BD34DAD3
BD442C80
BCDCAD15
3CC03361
3D89E1B1
3D5D0310
3D585DFB
3CC99286
BC403361
BD288052
BD0AED9A
BCD3EB3A
BD31337F
3C0D3F18
3C9C5C57
3DA3B4F6
3DFA708F
3D38AF3E
BD8A875D
BDAC1872
BD826352
3D49D9D3
3CFD2A63
BC44D22D
3BFC3F81
3D1323FF
3CC2B51C
BCC942D5
BD81B003
BD820A31
BC9D9903
3D8BD902
3DF7B396
3D94EFCC
3CE1AA3F
BD80BD45
BD904791
BCCCA926
3CB18549
3C9B994E
BD63C85C
BD02D6AA
3CDEA466
3DC986FD
3E194291
3D8D3D86
BD522531
BE0D8A11
BD98904F
3D3D6D7F
3E0B6630
3DC64C30
3DB7D7C3
3CB295EA
BD396BFD
BD9EE243
BDCB777D
BD8F2CF9
3C0AEB81
3DB1F601
3DFB75A7
3DB89B52
BC3FC654
BDB54EB1
BE0E696A
BD7EB6BF
3B53CFF6
3DDF70DF
3DEE746D
3D66ACA8
BC8B4396
BD67F5E8
BDC4C72A
3BADBC66
BBF99807
BC73BA77
BC884838
BBC4588A
BD05E2CE
BD25C5F8
BCA0E842
3D332F01
3DD88B97
3DB6F438
3CA95209
BD9483CB
BDCC1334
BD725919
3CD206C8
3CFE62DC
3C9116A9
BCB4C3C2
BC1BBF0E
3D71B8AA
3DBD0C80
3D741E15
BD3F78BC
BDD61BB0
BE0157AC
3D907E9E
3E02AE08
3E0361DD
3D8CFA6A
BCF2A9D6
BDA81A9C
BD87F23D
BDB74C4D
BCFEDC7F
3C3D87B5
3D9E29B7
3DCE63A6
3DB526D9
3B0CE704
BDD59B3D
BE0ACE68
BDB3EB3A
BB5B163C
3DBDF5CF
3DF2220C
3D103644
BCAB7564
BDBF5947
BDBD5FDD
BD45521A
3C0EDA23
BD1490E6
BDC69729
BD8A704C
3D07B13A
3DCBAA58
3DAD655E
3C162CFE
BDA37586
BDCF6B5D
BCABA9D2
3D76D656
3DBD102C
3D37824D
BD3CEA6C
BD89C3CE
BD2631F9
3D273F75
3D61AD64
3C5B8349
BCD247CB
BD9F59CD
BC94F052
3D63779F
3DA49774
3D18AEB8
BD519264
BD9204B0
BB08E79B
3DA24C40
3DA3AEAB
3D0D22C9
BD270197
BDC59A74
BD98DAC2
3AA1BE2B
3D6FC9BC
3DC080FA
3D57BC7F
BD44CF07
BDC3B3EA
BDAA18BD
BC1E3865
3DA78E9F
3DCA0019
3D15171E
BD553CDE
BDB4CB9F
BD469729
3C9D5E4A
3D5CF56F
3D2007DD
BBE1A3F4
BDC25D8D
BCD95DD5
3D9E4CD7
3DD6FE2E
3D08A15A
BD6BB774
BDD9FC2B
BD689225
3CE5AFF3
3DD39D1B
3D882731
BCB3508F
BD9CB35F
BD7C3B4F
3C0487BA
3D54DA4D
3D59EC70
BC77164C
BD507421
BD5A8DEB
3C285016
3D715726
3D698890
3B58EC96
BDA383AE
BDA68A0D
3D66C2AD
3DDC2F40
3D7314CB
BC8EC311
BDA6A65D
BDC79D4E
BD0AA327
3D877EE5
3DBB8349
3D72D1AF
BC777293
BD7D8F0C
BDBD4E90
BCA79789
3D64C61E
3DD59EE9
3D672B88
BC5EB52D
BDB9F55A
BD84638D
BC156C0D
3D454CDB
3D9668C2
3CA14CEC
BD3790FB
BD63864D
3DBA1661
3D9B213E
3D2CC708
BD695FAB
BE0F8488
BDEF2841
BDA35BD5
BBC8CD64
3DAE1E71
3DFAB3AB
3DE53975
3B20E411
BD94FDF4
BDF3D7D4
BE09E98E
BDA49CB2
3C5EA466
3DA5E460
3E038D1E
3D9F85D7
3C96C1E3
BD04DB9C
BDF3CAB8
BD9C38B0
BD276641
3C7FC548
3DADC5D6
3DCFC58B
3D8FD5CB
3CA6D8B2
BD65D4A6
BE0A2F06
BE0F1B26
BDE11C2A
3B7722E2
3DD6AC64
3E00E2C1
3DB1FAB9
3C9554FC
BDBC7A3A
BDE0EA5B
BDB146E5
BD105F29
3A9331A1
3D6555C5
3DB13B5C
3DD95033
3D62CA9B
BBCB1034
BDC213A1
BE16D86F
BDEADEEC
BC3C382A
BD8E9036
BDCE3583
BDF29670
BCAE48E9
3D9B41C0
3DE4BA0F
3E103B3F
3DC56C51
BC4E24BC
BDE6E43B
BDE8754F
BDF59792
BD989F84
3D66EFC3
3DE7863C
3E128BF4
3D12B90A
BD2D2BB2
BDD55C53
BDE3126F
BDF620EF
BD05F06F
3D0CEA29
3DFA4B55
3D863411
3D8D5CFB
BBE2E2B9
BD696D4C
BDB36AC6
BE008744
BCE1804E
3D504E62
3DE659D1
3E09806F
3D9F67F5
BBFFB8B2
BD8474DA
BDFE4E6A
BDB203A3
BB64217D
3D8301A8
3DC70B8D
3D8667F9
3D072D1B
3C69C454
BB11C087
BD8CAAB9
BE077EA2
BDB18A01
BC44CDFB
3D933659

