BD078D93
BE3805A3
BD083EC9
3E17D242
BD890C4E
3DBD9EC7
BD9D798E
BE1C115E
BD58B71C
BDB68D76
BD90153C
3BC0CE92
3C8A45D4
3E1728E9
3DE7E0F0
3CA643CC
3D6109D0
3D527C39
BD88FF32
BD12D341
BD54C554
3DC4D339
3E216A8C
3E69C800
BD557BC8
3DAAE6C9
BE37A312
3E1B1AF4
3DC146A2
BE30357A
BD7A16E8
3D346994
3DC342AB
3C4942D5
BDA74F2F
3CDD9E41
3CD7A13C
BD182DBE
BE2D30AD
3D9090F7
3D8BEF8D
3DDD4A5E
3D8CF206
BE09FF93
3D5B4EDB
BBAF1CB9
BE1AF816
BC3D33D3
BD032767
BC2B2E17
BC83C4B1
BCB42AAA

