BCA21A72
3E335E74
3E2EC5F4
3BA36199
BCFD9125
3E82B66B
3BF2AE08
BDB2263E
BDB89C5E
BD8C3B0C
3D42F944
3E5A59C0
BC761672
BCCC9214
3E39CD3E
BC634331
3D7F3494
BE4EC56D
BD416378
3CA60B2D
BCC180D4
BE25B7D0
3D17F951
BDEF41F2
BAC2E771
BCA71FFF
3E2E9186
BD813900
3CC692F7
BE94B3C4
BE6BDE40
BBEEB702
3CB5D463
3CEC17EC
3D63ED0F
BD3C45CC
3DC3CD9A
BD9F4ECA
BB4D7492
3E15DAAD
BD3BF834
3D9B9F12
3D86B591
BD2EBC41
BD045FE1
BDEE07E6
3DA2B6AE
BD84DB9C
3E374645
BE1087CA
3D535C9E
BD8E8D11

