3CBD987C
3C7F822C
3DF0079A
3D25FB72
BE2DB835
3E313272
BD65F740
BE234B0E
BD98958E
3E0ACF31
3DA30CAA
BD333B97
BD6A3593
3D0F8940
3D0E11DC
BC294FF0
BCA584F5
BD9150DB
3D12DFD7
3C45B8DC
BD1C23B8
BD580A18
3E163800
3C1F5DFF
3D28D328
BCC436FC
3DD1DEF0
3E4120E2
BC1817B9
BE6EDC7F
3DCBAF96
3CA495E1
3D76AC64
BD3A1F4B
BD64FDB1
3C35BF6A
3D716A05
BE19E519
BE38E219
3D85BC02
BD38AD25
3E0205BC
BDC1C821
BDA71F79
BD096BBA
BD262563
BD66CE36
BCBAA583
B9D0AAA8
BC6EC7C9
3DB4F723
BCBA16E8

