3D497E99
BE046F58
3DD801B4
BD93CCD1
BB999568
3E697072
3E0B1AF4
BDECABC5
BCD379FB
BB97AEDE
3E43CAFB
3DBC10D8
BD286B59
3DF95AAF
BD68C155
BD582BA6
BD40CA60
BD0EFED6
3C9960FA
3CA582DC
3B9D5A18
B9E410B6
3DD47C74
3D19EF95
3DC2FB5D
3D34BD77
3D49D170
3E29AA61
3C1AF9EC
BE3F138C
BC1AA609
BDE1797D
BB182CB2
BD81016D
3E0ACFFA
3DCB3919
3D57891E
BDC0DDC6
BE6E2542
3CD421C0
BD5A5B96
3D715B57
BCB8FBCA
3D1B1E9F
BB4AA327
3C246174
3CC0DB27
BD84DB9C
BD238866
3CAF598A
3C61F3A5
BD7D230C

