BC0EDE55
3E52DE87
3E85477C
BE28FA7B
3D5CAD15
3DD442C8
3E1134CE
3C544135
BCA35F81
BD9C4D23
BCA593A3
3E6554FC
3CE5F0F6
BE43AEAB
3E09845E
3DCD117B
BCC814D7
BE5BEC25
BD742246
BC81BEB2
BD1B9E8C
BDCF1993
3CE50E78
BE556367
3CFE889C
BD575297
3DE3BE66
3E2DD228
BDF76790
BE063AE2
BDDBEF4A
BD7B84DC
BD3EC461
BA784018
3DE74645
3E20FECE
3D454046
BD3BCB1D
BE200C52
3D5B5632
BCBA450B
BD52C387
3DF0F302
BDA43138
BD8A4B12
BE066D7A
3DFA0F91
BDE087CA
3D415C21
BDFD46B2
BDA1B542
BDA03819

