3D149F95
BD504B3C
3DFB9303
3D384EC6
BE30A3D7
3DD8F1D4
3B08D6D4
BC502470
BDE9973E
3D16073E
3DAD1633
3D8DF71F
3BD948DC
3BDC5D64
3E44CB5C
BDD5DD4C
BDA0D802
BDB5C183
BC047F56
3D16CF85
3C314EC2
BCCFB331
3DCB923A
3D619EB6
3DB19264
3D258E65
3E0FECDD
BEAEF6B6
BC691C8F
BDBD67BA
BDBBB0E6
BE0DB164
3D1B22D1
3D01CF78
BCDC6195
3B1F1F15
3D38E5C5
BD913837
3E8C9ADD
3E00867B
3B4A1CEF
3E1ED634
BD9F8CA8
3E2AD3A6
BDA9118C
BD69BAE4
BBE7E62E
BD9CCFAF
BC90A783
3D293E1D
3DEBF013
BD6089E3

