BCF980F5
3DC64DC2
3C468A93
3D37B7C8
BD680AE1
BDA3E8DE
BE11769B
3D5BF163
BE35C5B5
3D388A8B
3E522681
BD6F5665
3CD62E0A
BDFC45CC
3CF3B42D
BD800D1B
BD625C81
BD1D5D3E
3B61932D
3BEAE9EE
3B04C6A4
BD0919F0
3D1D66AE
BE4D4068
3D1669CF
BD379746
BE069E80
3DA1E2DF
BDE0E172
3DAF7CAA
BC6878FB
3D8EB13E
BC8CEF67
BD699D88
BE44F4C7
3DF4E54F
BBE3C537
BDDC7A3A
BDF45E0B
3D972820
BD798E97
3D47B678
BDC74539
3CDFE75C
3DC07BBB
3DD7310A
BE052D66
BBA39C52
BE0980B2
3E397CC4
3E5AEDDD
BC8E6AFD

