3D497E99
3DC19B0B
38B88CA4
3E2FFA7F
BD8EA423
3C2F4ADC
BE2F7C24
BDA08312
BE5AC8E7
3C70F5A1
BE0C3A86
BC26937D
3DB2580C
3E33BD9D
BCAB3248
3E38433D
3C3C7714
3D5D56F3
3C91C087
3CC70004
3D032442
3DA14A4D
3D4FFB8B
BE53BF2F
BD5680E0
BC98F81F
BE445D42
BDB1F46F
3D43211D
BC249C2C
BD4AD57C
3C0E325D
3D4158FB
BB6043A2
BE3D4174
BCDF99C4
3D563561
3E3CC576
3DDAAAC1
3C887875
3CFB139D
3C71D81F
BD8A2CAA
BE2A3E7D
3DCC069E
3C2A582E
BDC4FB12
3B9131EC
BD3255F3
3E4E3AC1
3E869E80
BC79053A

