3CD681ED
BDBFF2E5
BD8F20EA
BC67CD03
BD61858C
BDFA9F38
3D31FCD2
3DEF33CA
BDB9DBA9
BD803361
3DF8FDE3
BE4CD8DC
3CB7CBB4
BD7B762E
3D388334
BE145D42
BD3DEA46
3E0C7193
BCEB6178
BD6D3847
BD57ADD1
3C84CAD5
BE0F1F15
3DEF1AA0
BCA6F60E
BD50F302
3E119371
BE6742DD
BD672DA1
3DB4898F
BD1780BB
BCA62025
3D41E365
3C8CF5B2
BD1C7369
3CF661F2
3C186B9C
BD26A444
3E069F06
3D4A233A
BCE94AB2
3DD19C5A
B9712C28
3E023E9F
BCC75A32
3E0738A4
BD432DB2
3D80D024
BD71C865
BC4B6C7A
3C52C387
BDCCC2D7

