BCFE2A3D
BE61437C
3BDFE75C
BD8A5DF2
3D5D883C
3CEF826F
BB82D7B6
3D3ACC4F
3D99B802
BE234092
BC8E6D16
3DD864CB
3D98E9F7
3DFF8A8F
3C69680E
3C170718
3DB2CE89
3D7C5048
3D70BAE9
BB8B007A
3DD62739
3D523D4F
3C1BE8FF
3E1E108C
BD6BE271
3D041893
BDD0E886
BC871A3B
3DFCD24E
3D5A9B8D
BC802C0A
3C930BE1
BC1C779A
BD97AB32
3D930AD4
BDE2E1AC
BCAD57BC
3D95FEDA
3C1A2403
3D50E66D
3B6B56FC
BD5C79B3
3E70E172
3CA8CBD1
3D2A411C
BE0C6823
3D9DAB5C
BDBF2778
3DDA9A80
3B623AF3
BDC8DA7F
BBD7C6FC

