BD657FB7
3E6E874D
3D13FE19
3D384231
3D76F199
BDE69835
BDE2D1F2
3CC3A42F
BAD0AAA8
3C72CF96
BD8BA494
3E2C0831
3DDD284A
BD0AF3E4
BE2D00B4
BE5F9F45
3D1DE7A7
3DF551D7
BD436EB5
3D87C30D
3D017FC7
3D2D959A
BC9DA7B1
BE4F98B7
BD58B1DD
BD28B3B3
BDBDA61E
BD2F31B1
3CBF6A0E
3D60285F
3E4F090F
BD394424
3DBAF4AE
BC8F7B9E
BD8A393F
BE31F538
BD52E621
3CEEC9E2
3D83022E
BD27C17B
3D0DDD6E
BD83E7D1
BE01A0CF
3E519DAA
3D60EA5B
3D6872B0
3D305D96
3D5DE376
BD97D8CF
3E1537A0
BD58F92B
BD75A31A

