3CA13E3E
3E2CFFA8
3E3E2542
3D75FF61
BD9D8948
BE10E347
BD94A3C6
3CDA964F
3DA0A17B
3D8E3151
BBF5A965
BD9ED0F6
BD80C62E
BCA2B170
3DA3ED96
3DDF79C8
3D73764F
BD126E98
BDE7D4E1
BDDA4F87
BD5FFC54
3D53F078
3DFBED31
3DD652BD
3D16FFC1
BD9233DF
BDD36BD3
BC106898
3D93F423
3DB35760
3D9B24EA
3B90E66D
BD3F7BE1
BD529564
BD0F483D
BC9919AC
BC99D66B
BA8BFC22
3CD104D5
3D8259E2
3D85F634
3CE3FFEF
BD25BA6F
BDA21965
BDB1055C
BCD28284
3CA9B6B3
3D627286
3D71E3A8
3D28D10F
3CA52264
3ADF3733
3E3F46ED
3DC18506
BD4DCDB3
BE1759AB
BE0900C5
BCA30FD0
3D98D25F
3DD1D14E
3D121DDA
BD6F0F17
BDBB8ED2
BD07EF17
3D3E4367
3DC21EA3
3D8E336A
BCE77708
BDC89B95
BDDBBADC
BD35AD97
3D3B2BBB
3DDB7415
3DEF48C3
3D3C2657
BD797785
BE0D716D
BDF6BB99
3D9E468D
3E0322AF
3DA43B2E
390FA7A8
BD72FBA0
BDA4167B
BD555821
BBB074A7
3C0B47C7
3CF90B85
3CF470EB
3D5C1C61
3D1C5719
3C593815
BCDA3C21
BDA5AFF3
BDAB0D95
BC7E8251
3D337974
3DA44285
3D9676EA
3CEAB14F
BBA63305
BCF46888
BD5188F4
BDB27AA7

