3CC69D73
BDD9F2BB
3E1C8EEF
3CEE9FF1
BD68A2EC
BD7C5CDD
BD624CC7
BD89FE00
3E03B18E
BD3C243E
BCE6601C
3DDECCC4
BD9B1184
BE1B7A5F
3DA997C4
BDFBF26F
BD65119D
BDCB0100
BC9F4D38
3C0C47A1
3B618266
BDE2AE4B
3CA47885
3DAC4A41
BB9595FF
3CBA27AF
3C7687B1
3D4A276B
BCF6BC1F
BC8023A7
BE2C84F9
3D9CC20D
3DFF51F0
3D64FFC9
BDB3E35C
3E332724
3CDCE5B4
3DF06AB1
BD49FB61
BDED349C
BDB5653D
3D87FC33
3D5AC57E
3DFD41FA
3DBF4C2B
3D6BBBA5
BD2A6F3F
BCF5CD0C
3D21D96F
3DFCBAB6
BD3F1950
3E1F3E47

