BD8D2ED8
3D5D883C
3CAB10BA
BD1B078E
3DF56C94
3E42B991
3C80A394
BCEB8B69
BDF07208
BD9C66D3
BC3C664D
3CB940FF
3BB0E1B5
3DEEBB34
BDAFDC16
BE81CD1C
3DB3AE68
BDE199FE
3C0F96E1
3B3D6627
3DC2DF0D
BDF20536
3D0728E9
BE176684
3E14B168
3D56A594
3D9FD695
BCC9AFE2
3D44577E
BE62452C
3D847F56
3CD2439A
B9C9D9D3
BC93A2E0
BD285EC4
3D2E09FF
3D10257D
3DCCE465
3D2D2029
BC7A5094
BDE114D3
B9F3CB3E
3DF86B9C
3E8BD72C
BD99E625
3C7C9FF9
3D616F87
3CEF9980
3D3C9BC7
BB553049
3DE221C9
3CFAB96F

