3D95F80A
BCE89657
3CFAA25E
3E1B1BBD
BDA242D0
BE11187E
BDC0BCBE
3C7E5C92
BE257FFA
BDB712A1
BE1E5E24
BE619B4E
3D2AE18B
BCBD145E
3D431CEB
3CFA072D
BAC6B485
BCF5E204
BB3EA4EC
BC15896A
BD9ACABC
3CF96180
BDF69015
3BF1886E
BD5D28D0
3D8B7458
BD99A177
BE229DC7
BD89FB61
3DDF2991
BD816D6E
BDDB4A23
BD8BA387
BD57E564
BD19DA9D
3E477814
BB4942D5
3DB29B28
3DC624DD
3CD8F2E0
3D868FD2
3CF26AEC
3DD3458D
3CCB8173
3DE7E1FC
BDC1669D
BDF25AAB
3DA59AFA
BD460DCC
3DBADC0A
3DF0FF11
BDACA3E8

