3D78982D
3DED099E
3C92BA17
BD0E9A2C
BE1C254A
3E12ECF2
3CB5696E
BE127781
BD26DDF0
BDF3D20F
BD24302B
BC633ACD
BC9231C6
3E21819D
BE11A3F4
3CEE0B0B
3BFC610F
BD851761
BDC599ED
3D5A9329
3C4E8102
3AE043A2
3E321251
BD5FB1E2
3D84DEC2
BC550657
BDF4152B
BD3F6A0E
3C040E17
BE095422
3E5D9946
3D8F25A2
3E439325
BCBB2357
3DFFD60F
3D3ADE22
BCF11B61
BCC842FA
3DD9B1B8
3C8791C5
BB3B2BBB
3DE4E50C
3E5744F6
BC7DBD30
3D71E3A8
3DB53CDE
BCEA4EBE
BD771327
3CDC5719
BDA9C77A
3CF5AFB0
BDD480A6

