BDD09FA5
BDEDCA08
BD1E7A74
BD2D3D86
BE872F98
BE258A33
BD8B6AE8
BD62CECD
3DB99674
BDF5C0FD
3D5DDD2B
3ECE17E3
BDB944AA
BDCBC7B4
3E0486AD
BDB456B4
3C36848C
3C9E44FA
3BB5C39C
3AC2C5E3
3CA0535D
3D7878B8
3DE3C7D6
3B2AEAFB
BE0E7211
BD8A4FCA
BDC0E51D
BD3CF1C3
3C067F0B
3E464B23
BE52B90A
3D0AFB3B
3E69D1F6
3D6006D1
BB747304
BE274FB5
BD3A604E
BDDD0E13
3D76BC1F
BE244C38
3BF44913
3E66E58A
3E211490
3D8788DB
3D77AC3F
3D99E519
3BC0F020
BD621FB0
BDE7D6F9
3D028805
BE17B5F2
3DB9E27A

