BD8DCC21
BE153EB4
BD8E06D9
BD393576
BC951612
BDEAF1CC
3D048494
3D104B3C
3E3718EC
BD4029F1
3E072C52
3D65A145
BDB38AC2
BD884168
BD8C6E6E
BE4D70A4
3DA2ED35
BBCCBC06
3CA67C6C
BD684BE4
3CD13D75
BC0259E2
3BAB367A
3E0DD54E
3B7C71D6
3B916CA4
3DF167EC
3CEEB0B8
BDCE581D
3DBC8E26
3DE15443
BC61B08A
BCB2F662
3C8DED29
3CB43958
BD4AA540
3D7DB3C0
BE021038
BDB7EC35
BDEC3A86
3D428912
3CB239A4
3C1378EE
3E04AC6D
BD5AC57E
393ED741
3DDD6170
BDA301A8
BD25C5F8
BD946F58
BE4114D3
3D8C0DF6

