3B287E39
3E63415B
BCCDE1A0
BD213B19
3B7F865D
BDA10386
BB78B589
3D8094E6
3DDA09CC
3D6F2D80
BE16EBD5
3D82BF98
3E26AA4C
BC75019F
BEA8A3D7
BE0E9963
3E1F1801
3C2E5FFA
3D993682
BC1C7BCC
BCD58644
BC868987
BDCBAA58
BD88405B
BCC26DCE
3CB85404
BE47BBF9
BDD7C3D7
3D6788DB
3D84B557
3E9BB0A3
BDAFE3F3
3D681CB4
BDA1E3EB
BD9ED95A
BDEA209B
BCD173FB
3D9E73A3
3C1ACBC9
3D748D3B
BCC3F812
3AB5ED8D
BCAEB1C4
3E1A3B15
3DB61DC9
BAADAB9F
3BEC7C95
BC76B5D4
BC8DEB10
3D2A6B0E
BD46F47B
BDE0FF54

