BD432DB2
3E550093
3D8656AC
3D9A88AD
BDEE1E71
3E054867
BC9A88AD
BD95EC81
BE4B8BF0
3E062C34
3DEA6656
BD31E18F
BE053B4B
BC8E23AF
3CC16DF4
3D3E4ABE
BCDB7AE5
BDE32DB2
3CECE571
BDA5CC42
BD320FB2
BDA1DDA0
BC8E0008
BE454BCF
3C95A6C6
BD6AC53B
3DC2BCF9
3DCAA327
BE1C49BA
BE0ABDE4
BDA047D4
3E1A92A3
3E042678
3DBA5DAF
BD834EBA
3D1EEFE5
3B97D06C
BDAD844D
BD46E7E6
BDFC1722
3C43CE21
3E43925C
BE552E73
BBBDC26E
3C539970
3E04013F
BD8319C6
3C6CBB80
BDA72757
3D294899
3E1C0F02
3E12FEC5

