3D6A6E33
3C95054B
3D26BA49
BD8F3DC0
BC5FF3F1
3E2796C0
3D344E51
BE0A732E
BD236E2F
3D7FE7E2
BD609FE8
3DAE7E63
BDA57E24
3E448840
BDC2F61F
3D4BC48F
3D9BABA8
BC89EDC0
3C4F2CF9
3D1E9E1B
BB61C582
BD192A73
3E3A2403
BD0E4218
BD46AA08
3C937B07
BCD8CB08
3D3CDAB2
3E0AC109
BE323D4F
3E4A35D6
3D9008A7
BD87DED7
BDDD25AB
3D596A6A
BE465F0F
BD948E47
3DD528F2
BE124313
BD431BDF
3D4EBBBA
B8B24207
BDB158B8
B9A8D21C
3CC18D69
3D6772D6
3DC25636
3B2C7DA2
BD9733A9
BD509071
3C243FE6
3D82070C

