3D2BE9C9
3E0E7D9A
3D75C39C
3CE10CF6
BA9B951C
BDF0CDC8
BDDAD645
BCC94F6A
BDBA6DF0
3E0B4FE8
3E0788DB
BC275CD1
3D7DE721
BDF72DE4
BC860781
BD44C059
3D4B8280
BD0AB0C9
BD38F473
3CE20CD0
3D8AA5C6
BC0F3A9B
BD157364
BE8B2314
3C1945B7
BD7C6B8B
BDE814D7
3E3F0CBB
3DA127B3
3DA16CE8
BBFA3FCD
BD24A05E
BD28F6CF
BCAA4FCA
BDD8B9BB
3D4CF9E4
3D656BCA
BDE5DD09
BD279BBB
BB12DDBE
3CD74B40
3C2F4F0E
BDBE414E
3D8615A9
3D485E3E
3DADE00D
3C995AAF
BC22A4DB
BE196C40
3DBF6230
3E11A9B9
BD4EE7C5

