3D66362A
BC2B6D01
BDD99568
BCA2834D
3D90C77E
BE0EABBD
3B1B8455
BC35286B
BDE68BA0
3DDDF97B
3D5CCB7D
3DFE80BF
3BDC8755
3D7C30D3
3DBBA776
3D488A48
3D53EE5F
3AA24463
BD3CC7D2
3D5DA8BD
3D8F605B
3C856E69
BDB82B1F
3DD0A5F0
3B9CCB7D
3CF4E22A
BE110E88
BCB6C58F
3CD3FE19
3DAFDD23
BD166278
3BBA5A04
3D142B30
BE40BD01
3D2BAE04
BE983B82
BDF2EB5F
BE313B9F
3D161911
BDD271BD
3D2DB403
BDE23854
3C66F2E9
BD825AEE
3D2C0618
BCFA1A0D
BD1F8A09
3DE503FB
BCCBA51A
BD5C853C
3D092EE8
3D7ACA36

