3C3F0132
3B8E6080
3C9C2C1B
3E19902A
BE0EB3DD
BD28C79F
BD85271C
BE2056C5
BE38A698
BC00E065
3E3A0BE5
BC328955
3DD888F8
3D2DFD69
3D8C97D9
3D0E9814
BE1B9F99
BC28FC0D
BC0E4FB9
3BA30DB7
BD005F6C
3C77A4E8
3DF55B46
BCA291FB
3D9D2179
BCC01605
BE3926C8
3E548627
BAA61177
3D5206C8
BD4BD76F
BB1784EC
3CFFB481
3CBD987C
BE088B11
BB252696
BCA224EE
BD994B7B
BE441E58
BCD55A3A
BB92146A
3DF5054B
3D0A233A
BC8F68BE
3D2DF1E1
3DABB129
BE3FDD66
3C3E09BB
3CDF3B64
3E6EE99A
3E356324
BD645804

