3D7F3CF7
BE377F28
3CAFF6D3
3B90ABB4
BD6C7326
3D41DB01
3D6E5FFA
3C3E835E
BDA2DE01
BD50BD88
BDC46499
BE4862F6
BD944D44
3DFC9BC7
3D7E3E29
3E1EF49D
BDAF7553
3CACF52C
3CFBD48D
BD8DB7AE
BDEE47DC
BDD9988D
3D1529FE
3E4739F3
3D63A4B5
BC415D2D
3E20DBAD
BD04DFCE
BD6086BE
BD88B75F
BDC6DB51
BD202D9D
3D2E09FF
3D6F2D80
3E023290
BC728416
3C8B9DC3
3E32F7F5
BCB9CF9A
BDCF49CF
BD219653
3D40B34E
BCF661F2
BE6359BC
BCA5BFAD
BD9F7CEE
BD96640A
B95F58C1
BB9EE45C
BD252264
BD7A450B
3D6D1F1D

