3CDCB791
BD324745
BD6CD5B7
BD1667B6
BC5DDB12
3BCE2D1F
3C0CE2D2
3C50F1F5
3D2D6452
3D6699C8
3CC5F9DF
BD2CB210
BDCD898B
BDE67AD9
BD334C5E
3D524AF1
3E051CE3
3DFB4E55
3D1DC832
BD4B838C
BE039714
BE0131A9
BD6ED890
3CB471F8
3DC0DC33
3DF86CA9
3C0BAC71
BD9FAE36
BE08444A
BDF4DDF8
BCF46888
3D84F65A
3E0B823D
3DFD8277
3D11A438
BD9CAC08
BE127D46
BE070B8D
BD3CAB82
3D8D362F
3E154541
3E0EC6BD
3D3AA25E
BD8B7996
BE21D4FA
BE0E8965
BD1D8B61
3DB3CBC5
3E236F3B
3DE71E6D
BC2B5808
BDE6FC59
BD8D2568
BD769B9D
BC6EB702
3D0CC9A7
3D046738
3CC70436
3CA62CBA
3CBF7CEE
3C2C3223
BCC65626
BD90635A
BDBEED46
BD13BE23
3D416CE8
3DFA01EF
3DF34C5E
3D4A1598
BD8ABE6A
BE03CCD1
BDFDA837
BD445996
3D376C48
3DDEF1FE
3E051655
3D8E6EA8
BC49539C
BE0A56DE
BDCE7F6F
BC845DC8
3DA0D5E9
3E0EF0AE
3DF620EF
3CAD234F
BD8FB5D0
BE13458D
BE0388EC
BD24851B
3D9CAAFC
3E18AD69
3E102689
3D4B4070
BD81AC58
BE16D3FA
BE12849D
BD3E3D1D
3DA1F31F
3E2DBF48
3E0CB8E1
3CBD46B2
BDDF5515
BE195D0B
BD95CAF3

