3B2A64C3
3BF0307F
3B595140
3AA37260
BBDCFCC6
BB7D6D7F
BC4A7D67
BB096DD2
BB2DEEBB
B9E62995
3BC2A455
3C2E4F33
3B052B4E
BAC564F9
BC0919F0
3AC5436C
3B098F60
3AA58B3F
3A64DA0A
BC280496
BA417657
BAD5E8D5
3A44156E
3C28826B
3A97C808
BB403793
BC9C1722
BB59C6B0
3B909AED
3C51E109
3C4B039F
B965A35D
3B779852
B9B34E77
BB90795F
3B52E515
BA9F40A3
BAED5F14
3BBE5109
3B7ABDA1
3B5F7A4E
BB04D76B
BC00CB6C
3A52C387
3C5D2285
3C4475E6
BBDD2F1B
BC9EADD6
BCA413DB
BA9B951C
3CB3E143
3CC48F11
3C999FE4
3BD740C4
3A8BDA94
BC1D12CB
BBB6AE7D
BB99E94B
3B0ABD5E
3ADC3372
3C05D745
3BEC17EC
3C343958
3AD82342
BBC6045C
BBA6F3F5
BB7FEB07
3BDEA897
3B57CF5F
3B9930BE
BBB70AC4
390C825A
3AE0EB68
3C30D951
3AC8472C
BBBB773A
BC32788E
BC132D6F
3B97F1FA
3BE15875
3BB7B289
BAD4FDF4
BB9CE4A8
BBBE7297
BB4C0379
BB52F5DC
B9A17B0F
395B2703
3BA3400C
BC0EF34D
BB80AE10
B9F9096C
BBED3522
BC078748
3B2DBC66
3BB11C6D
3A9784EC
BC475C4B
BC58E432
BBF837B5
3C65796C
3CF0E4DA
3C634763
BC026AA9

