BD4DC875
3D145E92
3DFA3DB4
BDA0E6B0
3E481BA8
3D1BB279
3D890EED
3D2C53B1
BE662068
BDFB4891
3D6FC159
3BE9142B
BD9FBA45
BD0A3B58
3E246CB9
BDEF416C
BC0DC982
BC4297C0
BD7B4A23
3C8A88F0
3DAB990B
BDC63BEF
BD9B58D1
BDC20CD0
3C8F5E42
3B615012
BCD2502F
BD8F251C
3D1B90EB
BD35D463
BD87F0AA
3C5A2F8C
BDAE935C
BDB34613
3D87DD44
3D625FA6
3D9268D3
BE158F2E
BC464778
BDFC7CD9
BD19A954
BDAAB25B
3E00F6AD
3DDFDD66
BD4BA626
BD442E99
BC9F87F0
BD04F2AE
BCACADDE
BD8147AE
3E3C0768
3DB2745C

