BC464FDB
BDFA3B15
BD6E83A1
3DEFFC98
BDBB39E2
BD3F401C
BD293D10
3D13DEA4
BE1670A0
3DFB85E8
3DA961C3
BE1CF2D0
BC84A2FD
3E11D7DC
BC86A4CA
BE1EE526
BD332485
3DE8CF7D
3C9FBA45
BDB656EF
BD8D1B71
BC598394
BDA2C6EF
3E1E5A36
BD877EE5
BD9B0814
3DCB5DCC
BE7D4BAD
39FA15DB
3DB73B86
BD0E0653
BD492BC3
3DB80022
BBDF04DE
BD67DBB1
3CE43244
BD138690
BDC5C9A3
3E1A4C62
3BFF5409
3C42E771
3DBFB9BF
BC9FA97E
3E37CFE6
BC9628CC
3D5B078E
BD657EAA
3C291106
3BDF266C
3D728A61
3E310A9A
BC6C84F9

