BCD9DDC2
BD2018A4
BE079A28
3E089657
3D02A130
BE6227D0
3CF62D84
3E2A63B7
BD023C86
BDA128BF
BE0861A6
BDE0CBF3
BA7E047D
BD2D56B0
3DD0891A
BC9D6CF8
3B9F6230
3DDFC3B5
3C884620
BB53E0BD
3D926D05
3CF2E48F
BDB59F6F
BD5D249E
3D9B04EE
BDB119CE
BDF6C7A8
BD162BF1
3C2F9229
3E1A21A7
BD06DD6A
BD01450F
BD8AFD54
BD5B584B
3D1E8C48
3E00E0EB
BDC4523F
3BFB6DCA
3DFF2DC3
3D33061C
BC83F91E
BD7A615B
3D233DF3
3B5D1E54
3CB1BDE8
BDC8AC5C
BC342891
BC94C22F
BB3A0E84
BC6DE97D
3CFD8277
BD6D71F3

