3DB81A58
3CBD0BFA
BDFE7EA6
3D407571
BE0F80DC
3D86FEF8
3D8E9CCB
BDBE0158
3E41F6CB
3DF6F199
BE5D4AE4
BDF511E0
3DCB3D4B
3CC959E6
BD8B2BFE
BCC42E99
BDB32160
3D9C89F4
BD30E1B5
BCF26D05
BD235936
3DC3F78C
3D8C0CE9
3D81FB83
BD5796C0
BC8813CB
3D7BB2FF
3CC6C765
BD5C896E
BD9E4E6A
3E324463
BE0FD7A1
3E082129
3CB1FEEB
BD8CD4AA
BC987E7C
3DB0DE8F
3DE623D1
3D98C4BD
3DEC38F3
3DA092CD
3E071434
BCB32F01
BC9B6D44
3C072B02
BD225C81
BBB0E1B5
BC95A294
3CD8EC96
3E0F7660
BDD9C0EC
BDF525CC

