BBB178B3
3C7C1DF3
BD355582
3CBF7058
3B947065
BE2B51BD
3D4D26FA
3D917C5F
3D285DB7
BE14B663
BCE07A29
BD81094A
3E02DB1F
BDC7485E
3D92178F
BD45D639
3D93CFF6
3D3A94BC
BDAB90A8
BCC894C4
3D3DFD26
BD4F7FD0
BE26B50B
3C6518F4
3E01FD15
3D305426
BDAE7D56
BB0765BA
3B417657
3E31F256
BDAF294E
BD01A587
BDAEC8D6
3C7127F6
3DB93682
3E197DD0
BBE37154
3C9B60AF
3DA486AD
3BCB4289
BD064346
BD98FDE3
3D1C7043
3DF1E3A8
BDB36DEC
BC728416
BDA56ABE
BC699631
3D02F838
3C4215BA
BD3F1950
BDEA009F

