BE2A908A
BE06783A
BC878D93
3DA54584
3DE58B3F
3E02E515
3D5870DA
BCE57753
BDBF7165
BE046131
BDA71DE7
BCCD551D
3D54BAD8
3D963CB8
3DABF120
3D7966BE
3BA6F3F5
BDA2F6A5
BDC279DD
BDBAD645
BCFD4BF1
3D059967
3D603926
3DD6073E
3D996BFD
3B76598E
BDD38477
BDCAB68D
BD6B1811
3CFD86A9
3DB8A2A9
3DDCD1C8
3DB8B264
3C4D8559
BDAABC51
BDFB7176
BDF4A772
BD968512
3D0D26FA
3D975B81
3DD6030C
3DC086BE
3D3F1950
BBFB224B
BD509BFA
BDAC5975
BDD230BA
BDAFE261
BC6C52A4
3DDFAFC9
3E1FD3F6
3E13B1D1
BA7301EB
3DC0FECE
3E276AF9
3DE66E44
3D8A9692
BCD7060C
BDC58B3F
BDF77964
BDA4CA4F
BC4FC82A
3D4AA759
3DE47E4A
3D971002
3CBB6ED6
BC9F9CE9
BD9FE6D6
BDAB0B7C
BDAD6990
BD43BF72
3D0C660A
3DA9081C
3D6B80ED
3D5AFC05
BC9096BC
BD528177
BDD95358
BC8CD20B
3D2E9681
3DC84F90
3DEC5198
3D7C73EF
3CA1144D
BD8A8976
BE06A5D7
BDF88EBD
BD4DA4CF
3D5C0DB2
3DFBAF53
3DD718EC
3D98116F
3C946801
BCF8EE28
BDA81BA8
BDCE746D
BDC03148
BD1B2703
3D596C83
3DBA48B6
3E138045
3E06F827
3C5C37A4
BE027D03

