BD2F8056
BDD8CF3A
BDE80629
BD2646F1
3CED15AD
3DD9D3CC
3DB6377A
3D18116F
BCED6345
BCD0507A
BC0A47ED
BC6279DD
BD3B7846
BD141A69
BC451DAC
3D1F559B
3DB106EE
3D9AA25E
3C293F29
BD70691F
BDBE53A8
BD1B9629
3CF7A701
3D2F1562
3C15D0B7
3C2337A8
3C0B0D0F
3D0F6DFC
BBBC9470
BD50763A
BD89D302
BCB78CCA
3C6A704C
3D851B0D
3D48E369
BC86DB51
BD9AD9F1
BD412CF1
3C8A8F3B
3D91D2E1
3D0BD44A
BD24F00F
BD854153
BD3CF4E8
3D4D4DC6
3DC45996
3D8DB2F6
BD66B724
BE04BC27
BE03E4AC
BA5887EC
3DDFBDF1
BDDAD18D
BDAE8965
3CABE8BC
3E0B3461
3DC09891
3D113D75
BD07E7C0
BD7138BD
BD569C24
BCEB7671
BC5E657C
BD4DAF4B
BBBE48A6
3CAC12AE
3DA9E98E
3DA956C1
3CB8D60A
BD7BFE7E
BDE8E475
BD951BD6
BBA9CDC4
3D8732DF
3D685016
3CE18698
BCEE1BD2
BCC92360
3C22E7F7
3B782F51
BD23B689
BD2D0D4A
BBFD9FD3
3D971C97
3D790D9D
3CC679CC
BDA229A6
BD4BF4CB
BC9C6B05
3D50B524
3D8C2BD8
B91D4952
BD432A8D
BCC5C359
3CB2702A
3DAADE65
3DA7A9E3
BC857082
BDEE3609
BDF734B5
BD5C1616
3D72B453
3E3456F7
3E0F89C6

