3B02CF53
3B3EE808
3A206EA0
B816FEB5
BB06F04A
3B186FCE
3B6325D5
3B470868
BB4B7D41
BB95D91B
BB408B76
39DFDEF8
3B5972CD
3BD98BF8
3A4564F9
BB376F6D
BB3AC711
BB33A259
3AFC9364
3B3955F8
BA9C3CE2
BA22877F
BA09E343
3892CCF7
391C3CE2
3B31CC96
B9FE4799
39C73ABD
B9302928
B9A0F4D8
BB450050
BAF38822
BB49539C
39606530
3B5A9004
3AE06530
BA7A58F7
BB2C7DA2
BA86162F
3B1DADFB
3B3B4D49
3A41FC8F
BA7D3B2A
BB9D0E99
BAA222D5
394C78EA
3B313598
38627E0F
BABB4D49
BA299B6F
3B31140A
3B7355CE
3BA03C4B
BB3EA4EC
BB5013A9
3A6AE18B
3AB9DC2F
3B0A04D1
B78637BD
BB1CF56F
BB9539B9
BB15BFF0
3B6CE9A3
3AFE047D
3AF7B9E0
BAFE6927
BB43D252
BB2D46F6
3AB5CBFF
3B319A41
BAE368F1
BA267621
BB372C52
BAE51D26
3A84406C
3B36D86F
3A24A05E
BA0205FF
BA6A1837
3A794C88
B9999DCB
BACEF673
BB56909B
3ACD423E
3B40AD04
3B6B8950
BA83FD50
BA76AD71
BB24095F
B9A5ACCD
3B27A41E
3A9F1F15
BA18915C
39FF5409
BA345AE6
3A0C3F3E
3B2393EE
3AC868BA
BAC308FF
BAD1526E
BAE0EB68
B98FA7A8
3B82517E
3AC9D9D3

