3D3823C8
3DC03E64
3D8BD3C3
3D375643
3D1144CC
3D4F93BC
3CBCBA30
BCCC0160
BDBE774F
BDEE2196
BD945309
3C2EF6F9
3D90B49E
3D8EF4E0
3D4115DF
3CFDF3B6
3D15896A
3C5DFCA0
BC9FA765
BD83A42F
BDC62563
BD997A25
BD14F052
3C802E23
3D2F544C
3D6C3116
3DB29889
3D212945
BD08E8A7
BDF193F7
BE0E6794
BDB51F82
3C37ED42
3DA04641
3DB5043E
3D14E4C9
3CA95422
3D0DE1A0
3D398527
3CBD4CFD
BD45FD05
BE01AC15
BE0A1E82
BD7C87DB
3D704DDB
3DE1E796
3DCE1501
3D364F12
3C76E829
3C4A31E8
3C6A5F85
BD319F80
3E0E09FF
3D444BF5
BB756EAD
BCB167EC
BC33A68B
BCD7A56E
BD8F0E0B
BDCD2DCB
BD7B2464
3CFA3550
3DB97B31
3DEA2DB6
3D76D656
3C2E9AB3
BCC55C96
BCDF1173
BD126634
BD56B335
BD8FBF40
BD86BB56
BBADD591
3D0B7A1C
3D934E77
3D9EF523
3D876189
3D1EE02A
BD5F4C2B
BDEE52DF
BE049A56
BD933659
3CAD490E
3DD5C4A8
3E00B73D
3D96CBDA
3C45F395
BCF09B74
BC652589
3AD2E515
BD43C5BD
BDA8240B
BDDFA8F8
BD6F49CF
3D5B37CA
3E0DC65C
3E0795F6
3D6F7F4A
BCDD95DD
BD87A850
BD44E0DB
BCD612C7
BDA3ED0F
BDD0ACC1

