BCA599ED
BE2EF30A
BE409891
BD784DBA
3D9FEF39
3E13022E
3D971F36
BCDC1E79
BDA3265B
BD9039EF
3BF62F9D
3DA0D5E9
3D827D89
3CA400FC
BDA5C704
BDE26F61
BD765450
3D15336E
3DEA704C
3DDD6302
3D634FC6
BD566491
BDFF9831
BDD92E1F
BD192535
3D93CA32
3DD677F7
3C14CCAB
BD954E2B
BDB503B8
BD9D30AD
BB924F22
3D402081
3D53FD0D
3D0F8E7E
3C995EE1
3C9C4DA9
3ABA1F4B
BCD0D6B2
BD833F85
BD8786C2
BCE6234B
3D26F1DC
3DA36DA8
3DB2CD7D
3CD4AC2A
BCAA087D
BD653EB4
BD74BC6A
BD2A7265
BCA5332B
BAB5243A
BE419D67
BDC2EFD4
3D51361E
3E193815
3E0AB2E1
3CA3F035
BD9AD320
BDD4C661
BD14B6A6
3D715A4B
3DBDCB58
3D0913A5
BD3F8876
BDC486AD
BD8FCF81
3CEB50B1
3DCB2BFE
3DDE5D9E
3D3866E4
BD3DB5D9
BDDE20CD
BDF2617C
BD3DCAD1
3D7CB5FE
3E0F6124
3DFA4591
BD9F8983
BE047065
BDA67CF2
B8E06530
3D745176
3DA58A33
3D578D50
3BB0E1B5
BC0CEB35
BCF9830E
BCF51266
BD5D65A1
BD1D93C4
BC5EBD90
3CDA4CE8
3DA6D7A5
3DAC8E69
3C7D156A
BD35D031
BDA5D0FA
BD98116F
BCECDD0E
3BAC6CDB
3CF7E804
3D544CBE
3DB40896

