3D1EABBD
BD6AC216
BDD5B707
BDC8BFC2
BCDC26DD
3D834331
3DF81A58
3DCA5E78
3C34677B
BDA6BD6F
BE064C73
BDCF0308
BA684274
3D9A4F01
3DE61848
3D8CB85A
BC1B1748
BD7F0564
BD7BA344
BC8D9514
BC015A08
BBF826EE
BA38066C
3C8856E7
3D708AAD
3D64D6E4
BDAE26D5
BDDA3F46
BD42A348
3D79378F
3E1E1BD2
3DDFB0D5
BC98201D
BE0FC86D
BE2C660A
BD93DFB1
3D873BC9
3E16948A
3E01BB06
3D1B9A5B
BD56A055
BDB71972
BDAAE297
BD3877AB
BCACC0BE
3D0AE42A
3D90CF5B
3DCFAC60
3D99BBAE
BC532C62
BDF6D091
BE119978
BDE71F79
BDDC72E2
BCD7BC7F
3D8BF1A6
3DE6DDF0
3DC21D11
3C5B9842
BD99AB6D
BE00C522
BDD82DBE
BC5CAD15
3DA986FD
3E0150DB
3DB107FB
BB57ADD1
BDACF8D7
BDACDD94
BD2C636B
3C458687
3D07CE96
3C8E2C13
3C868DB9
3CF1A9FC
3D1C7043
BB423FAB
BD64C2F8
BD853FC0
3D163886
3DF3892F
3DF062D4
3CC0A8D2
BDE00FBB
BE335C9E
BDC192A7
3D260F5E
3E213E3E
3E1C8B44
3D63DE61
BD8F4CF5
BE033333
BDC55087
BD09A88B
3CB4C1A9
3D83571D
3D992535
3D9B6673
3D769CAA
BC6E9574
BDB83DFF
BE06616B
BDB31CA8
3CBD1EDA

