BD7B43D9
BDBB8BAC
BD5ED7C7
3DACA3E8
BD350D28
BDB85E81
BDA5E0B5
BDC8216C
BDBF1E08
BD7168F9
BDAF6A51
BE16E4C1
BDAA79BC
BD02784B
3DBD0AEE
3DBB645A
BD667621
3D888052
3C1E8C48
BD3FCB92
BDC27A63
3D4405B4
BD7037D6
3E1B039F
BCA43569
BD573EAB
3DF65E46
3E46A594
BDB61998
3D1BE4CD
BDD56649
3D19B5E9
3D859D13
3DC2352F
BDF315D7
BDE746CC
3DC133C2
BBEB5F5F
BE0A6267
BE0D4A5E
3CD907D9
3D09EA9A
3D7FD827
BE2ED80A
BD3FE08B
BC06B160
BD4663C7
BD20BB2C
3C2B191E
3CC0F451
3DFABFBA
3D9C3C5C

