BC100C52
3DCF28C8
BD360179
3D536D65
BD1C0011
3D4B2A6B
3DBF0B28
BD0A05DE
BD692924
BD941073
BD998F1D
BE89F3A5
3D8DAD32
BC70DC77
BE5FDC59
3E068406
BD889763
3D60CE0C
BCED8905
BE07F499
BD1ED6BB
3D3F0026
3CF49ADD
BCC7A17F
BC7CEB79
3D00EE07
3E5A9974
3D5FF3F1
BDDF39D2
BE302C91
3E64C6A4
BDAAA971
BD8D23D5
3E1BCB60
3CC2A23C
3DA6A099
3D1D7881
3C4814D7
BD60F909
3DA2699C
BCAD57BC
3D2C4502
3D30C133
BE378855
BDA06F26
BD8026CC
3D77F7BE
3D61144D
BBF3C2DB
BE2E1AC5
3D315B57
BDC279DD

