3E2C126A
3DEBEA4F
BB385A4F
BD690BC8
BD7E7C07
BDCA9047
BCD4DC66
3D16E04C
3DBC25D0
3DD37F39
3D5B8994
3D22C669
BCDD590C
BD8C11A1
BD4E5F74
BD2426BB
3BAE9681
3DAC33B5
3D975D14
3D9BE4CD
3CB662FE
BD719F80
BD065519
BDD21DDA
BDA8CC57
BCD53EF7
3DA75254
3D970260
3D1C4A84
BCC8ECD9
BDAA9C56
BD90E6F3
BD4F15E8
3D22F05A
3DBF3D7D
3DD3B107
3DB3037D
3D2AEAFB
BD1DB76B
BCD1EFB7
BD82D517
BD96A37B
BD80B88D
BB953155
3CE2E6EB
3D986877
3DBC45CC
3D96249A
3BFF9724
BDBCA298
BDF246BF
BDFF0AA2
3C5323FF
BDAD538B
BE1E696A
BD94DA4D
BDA11234
BC6B52CA
3D9FA765
3D9F40A3
3D46C54C
3CBE1006
BC92BC30
BDD3A605
BD609EDC
BB349E02
3C2A8EB4
3D8C7F35
3D4286F9
3DD32592
3D8AB820
BC289FC7
BD80DFDF
BCB18330
BD52B90A
3C1E774F
3C2DEEBB
3DE3326A
BC252264
BD426677
BDC0DCBA
BDEE4324
BD05681F
BC775D9A
3D893533
3DD6E936
3DB2C40D
3D0F398F
BD5C7FFE
BDEA8DA8
BD84FA05
BD397354
BD0DDE7A
BBE1719F
3D031DF7
3DB9AAE7
3E016830
3D474539
BD68166A
BDBA2489
BDD11C6D
BDEC204F
3B5423D9
3E068E82

