BD793BC1
BD2F6C6A
3C82ECAF
3D677708
3D83C643
3AFC5048
BCB6A1E8
BD091AFC
3BA07703
3D1AD107
3CE924F2
BC8D90E2
BD6681AA
BD0A2121
3C94D728
3D6C7000
3D495F24
3C9096BC
BC83211D
BCDB0575
3A345AE6
3C8D477C
3C1C27E9
BC9FCB0C
BCDAA2E4
BB873366
3D5BA2BE
3D0CCCCD
BBC929AA
BCE451B9
BD095F24
B9F2BECF
3B9C12F1
BC0AE74F
BCA2F6A5
B99246BF
3CCDEA03
3D34B620
3CF4B620
BC1A5226
BD2B14EC
BD2BE37E
B99CC31A
3CC13FD1
3C35286B
BB934ACB
BC583409
3C4C814D
3CAD87F9
3CFA26A2
3AD6F545
BCD72BCB
BC279FED
3D7E4ABE
3D92F33D
3CCF93BC
BCD9817C
BD5FC3B5
BD05CCC9
3CBBF2F5
3D0E50C6
3BB9DC2F
BD0A8D22
BD37F8CB
BBB6C7A8
3D4562E1
3D869271
3CD7E88A
BCD56B01
BD5DCA4B
BCFD86A9
3C299FA1
3C7A3337
3C4DA6E7
BC211A97
BC694EE4
3C7733A9
3D3F2B24
3BBAC711
BCE0956C
BD2D5CFB
BCCDAD32
3C4A7935
3C127D46
3C1ADC90
BAB28523
3C1B024F
3CC7C0F4
3CC37E6F
BB96BB99
BCDFC3B5
BD48D7E0
BCA4C61E
3CBA6267
3CE8B5CC
3C9AFE1E
BC305FAF
BBB30B5B
BB4A8199
3C9782D4
3C4BF6E4
BCD2220C
BCF7F067
BD20B3D5

