3B5B8BAC
BCFDAA50
BC10752E
3D0F0C78
3B2F2D80
BC96C1E3
BDC05575
BD6350D3
3D040182
3D89D0EA
3D4A148C
BC4753E7
BDB8C75C
BD850A46
BCD1A21F
3D7BB624
3D9656EF
B98D0892
BD8C2CE4
BDA461FA
BB931876
3D6704BC
3D9B773A
3D2AFFF3
BD44EE7C
BDA8F862
3B56B229
3D468449
3D7417CA
3D2A24CC
BB662995
BD1D377E
BCCDD2F2
BCE1C79B
BD3CAD9B
BCED8D37
3D0CA81A
3D7B480A
3DAE0F3D
3CE64D3C
BD0C5650
BDA17C1C
BDA02A78
BCA1D53D
3D63CB81
3D9F9831
3D5970B5
3C418F82
BCA35D68
BC77C244
BD061E93
BCE79896
3C959818
3CA513B6
3C74DBE0
BC72239E
BCFF8CA8
BD38359C
3C91E42E
3D509396
3D87BB30
3CE290EF
BCF76816
BDACF180
BD291C8F
3D15336E
3D84E50C
3D619C9D
BC5EB52D
BD94DBE0
BD72AAE3
3D087FCC
3DB8D8A9
3D36EF80
BCDCFEDF
BDA6CE36
BD95A07B
BB77DB6E
3D56F007
3C8DD617
B9EBEDFA
BCFAAEF3
BD21D756
BC831AD2
BD0817FC
BC060136
3CD8FD5D
3D15054B
3D884F09
3C1C5A3E
BCF0B285
BD9F572E
BDB4EEBF
BC951A43
3D734613
3D8E02A7
3D66BE7B
3BEA8DA8
BC5C22AB
BD401F75
BD1667B6
BC65753A
BC5F43C8
3D54C122

