BE196D4C
BDDF4667
3B5D6170
3DB7C1BE
3E0A28BB
3DC4295A
BBFD9770
BDB4013F
BDF7481B
BDB46888
BC438B05
3D309C80
3D90214B
3D2D9BE5
3C4914B1
3BFD5CB8
BCE6BC62
BD0766C7
BCE35E74
BCC3979A
3C036A83
3C5A9004
3CEC95C0
3CC0A4A0
3BA82A56
BD2871A4
BD0FE154
3D6F72B4
3DD32485
3DA0828C
3BAFF6D3
BDE0AB71
BDE60781
BD016484
3D55F56A
3DDF9831
3D46C227
BD3547E0
BD4F95D5
BC243BB4
3D82A90D
3DADB50F
BC0FEAC4
BDBEF9DB
BDFAAF79
BCB9F98B
3D99CCFB
3E0D5E8D
3DB66ADB
BC3AF534
BDF45F9E
BDCA73F7
BBD51F82
3DCF4E01
3E1D3F18
3DD27C39
3C05B185
BDCF733B
BE0F1306
BDC90D5A
3A13532E
3D64DF48
3DCBF6E4
3DA65E89
3C686402
BCF062D4
BD6D45E9
BD405F6C
BC9FA11B
3C4B4F1E
3C0B60F2
3D07E176
3CC3A42F
3CE043A2
3C140358
BD351DEF
BD88FB01
BD369CAA
3D9BA344
3D90C1B9
3BFC6973
BDB6D19E
BDED594F
BD4B71B9
3D19BD40
3DCFDC16
3DACAB3F
3B97C808
BD86B485
BDA18D69
B914E5D6
3D45C897
3D36640A
BD505E1C
BDC2938E
BD6FA82F
3D516A8C
3DF9CBEF
3E058AB9
3C332CE9
BDDC27E9
BE00A809
BD788228
3D21719F

