BCD909F2
BDABAA58
BD84FCA4
BD71FAB9
3C95FCC2
BBBDF4C3
3CF9C1F8
BC1A4DF4
3CE17A03
3D2786C2
3CA237CE
BCE38C97
BCE481F5
BDC63172
BCA8DEB1
3C9085F5
3D51233E
3D40BBB2
BCC5A5FC
BD225D8D
BD22B389
BBBE5109
3CF6555C
3C76CEFF
3C8A2CAA
BD321E60
3C1EF955
3C9AEF70
3BF08CC5
BD0650E7
BC00AE10
3716FEB5
3D8D8772
3D59E300
3C28AC5C
BD2F1023
BD8522EA
BCFC6541
3BAE642C
3CC6C765
3C242AED
BC852B4E
BD48216C
3D0FD6D8
3D22888B
3DAC0BDD
3C78B9BB
BD4C7C0F
BDC53B08
BDE7BCC3
BD7D145E
3D4431BE
BE12C55D
BCF5FD48
3CCD63CC
3D26F933
3D42278D
3CE7AFA7
BC5A059A
3B2276B8
3CA12D77
BA8051CA
BD3FCA86
BC899E0E
BCCC2939
3C8DBAD4
3D629A5F
3CFF66E8
BB13A711
BD3DA837
BBCF312B
BB9A4DF4
3D46EC18
3D7316E3
3CB1140A
BCAC6CDB
BCE5F959
BCE26B2F
3CE71045
BBAD14A1
BC9289DB
BB3662FE
3D5DB014
3CD099E1
3C80F777
BD3891E2
BD2F34D7
BD679032
BB726AEC
3D83E74B
3D3E7297
3CF74CD3
BC347842
BD6AF683
BB917D6B
3D2CABC5
3D041462
BCC8A9BD
BD53111F
BD9104D5
BB85553F
3D8F123C
3DC6705D
3DA87097

