BC12684D
BC91537A
BC5538AC
BA89A027
3C396F22
3C1D6F11
3A941C82
BB957471
BBD02470
BABB0A2D
3BE31D71
3C0CE704
3B81CB47
395C3372
BBC45027
3B8E043A
3C87075B
3A423FAB
3B9C8861
BC2E89EC
BC1FADB0
3B64B87C
3C8C953A
3BF6512B
3A3D017E
BC05DFA8
3A2E9681
3BA86D72
3C026245
3AA24463
BBF35E31
BB385A4F
3A3AE89F
3AFCF80E
3B27D673
B9B8066C
3A5306A3
3B3FB15B
3B8198F2
BB45B8DC
BB6E49F5
BC0F7985
BAAB0C89
3B155B46
3BDA2B5A
3B627E0F
399FE868
3A302928
BBC8EEF2
BB8F42FF
BA07442C
3B8BD231
BC8CDA6E
3996FEB5
3C18A655
3C7A2AD4
3C217B0F
3AC0053E
BC26DEFC
BBB54E2B
3B7E5860
3C30574B
3BED245B
3B267621
BC1E279E
B94D8559
3C3020C5
3BB955F8
3A3178B3
BBA7AC82
BC74B1EE
BBAB0425
3C114F48
3C11F70E
3B7312B2
BBCCE5F7
BC6D1394
BAC4BD34
3C19A62F
3BA48F97
BBAAC109
BC1DF97B
BB285CAB
BAFF5409
3C20A527
3AF29D41
3B80A5AD
BAA86D72
3B204D12
BAC3F3E0
BB02BE8C
BB917D6B
BBCC814D
3AE88590
3B947065
3C0B5CC0
3B4D5305
BA8AAC97
BC23B9AE
BBBB01C9
BB470868
3BCEE5AC
3C012381
BA7A9C13

