3C0B1141
BC3A16E8
BC228FE2
BC617E35
BC9ABD1B
3C1CD3E1
3C57C6FC
3C5130E0
3C8DBF05
B9A393EE
BC947AE1
BC4DEE35
BC22EC29
BB4FE154
3B82949A
3B25BD94
3C28826B
3C31EE24
3C37C350
BBADD591
BC7FA3BA
BC77164C
3A2F5FD4
BB9D0636
3C6F416C
3C4DEA03
3BA2C237
BC10C0AD
BC2B5808
BBCEEE0F
BB5AB192
BA84A516
3C051655
3BFCC5B9
3BD67770
3C97891E
BC58D79D
BC39D3CC
BC7FEB07
BC9A0275
3B5C5500
3C5F548F
3C7DC593
3C59988D
3BCE4EAD
BC07F456
BC566ADB
BC3A8C58
BBFF21B4
BAB502AC
3C047B24
3C365A9B
BC1C7369
BC594D0E
BCBAD18D
3C5DFCA0
3C17A249
3C4FFEB0
3C8D434A
BC621965
BC4AC083
BC37457C
BC21CEF2
3AC5436C
3C202B84
3C14C87A
3C2E03B4
3C034D27
3BA6F3F5
BA230DB7
BC0FF328
BC41376D
BAB2E9CD
3C0EAC00
3C252696
3C6DA22F
3C243782
3B0E9B39
BC68815E
BBBE7AFA
BB978D50
BA1741D1
3C075D57
3C026677
3B8A5050
3C446D83
BB8EC52A
BBC54BCF
BC42C5E3
BCB6B6E1
3C16249A
3C90795F
3C9DB446
3C61B08A
3B7722E2
BC2E1049
BC4E95FB
BC5E3327
BBFCB4F2
3C0E79AB
3C38D823
3BD16335
3C816ACF
3C82D59D

