BD12AB69
BD4299D9
3C137D20
BC7B43D9
BD135B92
BCF77293
3C07A4A5
3D38DE6E
3D87CF1C
3CBB0C46
BD5DFFC5
BDD672B9
BD812275
BCBFAF42
3D416052
3D83076C
3CB5A640
BCCF440B
BB9A34CA
3D24C836
3C91C4B9
BCF1C971
BD94CA0C
BE035936
BD720EA6
3D51537A
3DE3326A
3D718DAC
BD57D9DC
BE093101
BDA71609
BDA112BA
3B00303C
3D595AAF
3DB6DDAD
3DC0AA65
3D6236C1
BCBAFD97
BDB91AB9
BDF4A1AD
BDA203E6
3B08F862
3DA79703
3E08BC9D
3D839B45
3AC17657
BDD3ECCC
BDCECB75
BD4F073A
3BBEF06B
3D136934
3D86E8F3
BC414C66
BCA98CC1
3C059429
3CDE310E
3C1DD7ED
3D0F4D7B
3D044178
3CB1C64C
BCE8D973
BDA43CC0
BD9349BF
BC4D6C2F
3D3ED84D
3DACACD2
3D43E426
BCB9A9DA
BCCF850E
BC451DAC
3C2EAFAB
3BA3C643
BD673711
BD9FC32F
BD7D199C
3D28A3F9
3DAA30DB
3DCAA865
BDA26916
BE036113
BDDC0A07
BD8259E2
3D3968D7
3DB0EBAB
3D847B24
3DA31CEB
3CD4D834
BCC20D56
BDA79CC7
BDCF7CAA
BDAC6E6E
3B9CC31A
3DD20F2C
3E0C6B8B
3DBB59DE
3CACFB76
BD955A3A
BDE9203A
BD1F0F5A
3C4C9A78
3D93C819
3D9C04C9
3D2FED63
3C61693C

