BB61E710
3D023FAB
3C133E36
BD1233DF
BB2DDDF4
3C9C27E9
3DC529BB
3D68F6CF
BD082CF5
BD8D844D
BD4F4517
3C4D67FD
3DBD73C9
3D88DF37
3CD7D5AA
BD80D6F5
BD9A1E3F
392D03DA
3D8F5A10
3DA83904
3B95421C
BD6C6CDB
BD9F2A9D
BD2EE419
3D49F2FE
3DAD8BA4
BB5AF4AE
BD4BFE3B
BD7B2570
BD2F2841
3B656042
3D21DA7B
3CD3E0BD
3CE88590
3D41871E
3CF301EB
BD108C3F
BD80E62A
BDB274E2
BCEBA8C6
3D1000C9
3DA595BC
3DA446B7
3CA4DD2F
BD69802C
BDA3BC4D
BD5E8F6D
BC45E2CE
3CA7E73A
3C7DFC1A
3D09C0A9
3CED2242
BC986DB5
BCA97E13
BC7B0920
3C7A0946
3D02E771
3D3C4F3C
BC967CAF
BD5640EA
BD8B3B32
BCE7F0AA
3CFEBF23
3DB14446
3D2DC8FC
BD18D36B
BD88405B
BD677B39
3C620CD0
3D986445
3D7852F8
BD0B9ECF
BDBD3B2A
BD3B0F6B
3CE2FDFC
3DAB0FAE
3D99641F
3B7E6927
BD5D0E99
BC9289DB
39D349BF
3D0110A1
3D266235
3C883340
3D0BB6ED
3C089C1B
BCDFFA3C
BD18F606
BD8BC622
BC208BFC
3CF7403E
3DA350D3
3DB9713B
3C992A73
BD792D13
BD919EF9
BD6C7757
BBF0281C
3C605CCD
3D44EC63
3D19AD86
3C691C8F
3C65753A
BD599DCB

