3DADB270
BD291969
3DBB9D80
BDD54E2B
3DE0F5E4
BD7394B8
BAA37260
3CAF05A7
3E19346A
BD988440
3E093922
3ACD8559
3D83EA70
BE00F495
3C6FAA47
BE03D252
3D8F4278
BE23BD16
BD3404EA
3C0BD662
BBF038E3
BCC39DE5
B927C5AC
3D615DB3
3C5987C6
3CA83F4F
BCD12A95
3DA480E9
3D12135E
BC489B0F
BCF57710
3D1A8262
BD0779A7
3D9F8FCD
3DD3E78E
3DED8666
3DDD3D43
BDD22963
BDCB85A5
3D3A1F4B
BD875600
BD2F177A
3DF96B76
3E0E48E9
BD9C93EA
BDCC5B08
3DFA2835
BD969DB6
3E02B2C0
BDD4A772
BE297C81
BDAF7E3D

