3C7FF36B
BDF21FF3
BE5D898B
3DB33FC8
3DD3C793
BE8396F2
BE1610AE
3D8F294E
3C62541E
3C65F30E
BD23DD55
BE81908E
BD8DF506
3DC37154
BE313CAC
BDAF0E91
3D16DE33
3DFA1A0D
BD87D4E1
BD9A059A
3C17A249
3E15AFB0
BCA0F909
3E117A03
3CE0E736
3D0064AA
BE768C26
3D5C64BB
3DF959A3
3DF41FA7
3E708E58
3DF8FDE3
3C9BE8FF
BE06A9C5
BD577964
3E21E9AF
BD082279
BD3312B2
BDE9C023
BE19320E
3D2008EA
BD6596C8
BD7CCC03
3D51D474
3E09F234
3DCCD856
BE123BBC
BD46AD2E
BDADB7AE
3DCFFA7F
BD18116F
3DB4EB14

