3A86162F
BE15D0FA
BDF8A97A
BBC215BA
BD63F141
BE0D9B5F
BC953DEA
3D5E6BC6
3DA222D5
3E31B36C
BD89374C
3C9B5419
3D84DB9C
BDDD3911
3E14D6E4
3DBA469D
BDFE6ABA
3DB1BD62
3DA64F55
BD957364
BCD45847
BC8F4D7B
BD29930C
3DC8FDA0
BC791E64
BD3A56DE
3E5BB3C8
3D025D07
BDC87CA6
3E1C76D1
BE4581CF
3A6496EE
3D34C3C2
3E28958E
BDCEAE9F
BDFD8D7A
3D9A2489
3DEE3583
BD837AC4
3DB161A2
3D269058
3DDECDD1
BE1E4FB9
BDF0EFDD
BCD7B635
3C3D05AF
BCA031CF
3C1C3CE2
3D28C47A
3E06A4CA
BE05846F
BD91AFC0

