BD817FC7
3E618266
BD7CBB3D
BD7DD335
3E2F13CF
BDACB74E
BD611DBD
BCE3F9A5
3D6D8D37
BDF91AB9
BC8F7985
3DCE557E
BB0A04D1
BE2E7AB7
BD8B6FA0
3E1E785B
BD20FC2F
BC31897A
BC5BF056
3D141744
3D919DED
BD352C9D
BD771FBC
BE8C7821
3DD12663
BCB7C99B
BDC2E903
3EACD163
BCC3979A
3D8F9EBF
3DE73472
BD4090B4
BDA4D445
3BC31162
3D9831F0
3E55B39E
3D9CBC49
3D12BB23
BE812620
BD44295A
3CEE008F
BD92BECF
3D885D31
BE63FF69
BD330A4E
BD455001
3CD184C2
BD5E0503
3D8D5172
3B7ACE68
BDF968D7
BCA630EC

