3C8B4396
3DBACB43
BBE22A2C
B88C825A
3CEE7E63
BDD1F927
3D326395
BC595571
BE432C62
BDDC7043
BC4D0785
3CC8E68E
BD2E8E1D
BDAB8E08
3DA01605
BDAAFD54
3CFDD441
3D94D37C
3CB912DC
BD410B63
BD5084E8
3CC729F6
BBFDD228
3D6F7B18
3C1CA9EF
3D4B380D
3E21FD9C
3E0F6A51
BDA0F451
3DB03212
BDF55821
BD58A116
3D3B0707
BC9A49C3
BD6E2110
BE68C3B1
BD285CAB
BCA42071
BE55E80C
BC8A5482
3D8DE4C5
BB11F2DC
3DF0B06C
3D97BBF9
BD3BAECD
3CA96702
BC4F28C8
3D6581CF
BBC069E8
3DB3EF6B
3E047497
3D2225FA

