3C2D2136
3AE84274
BBFC47E5
3AB86B16
3C5F9BDC
3B59E83E
3B2C4B4D
BC068FD2
BB9E55C1
BAEC52A4
3C807358
3C858362
3C6A63B7
3B847B24
BB31465F
BC2E89EC
BBB6BF44
3B866A12
3BB15726
BB230DB7
3BCD20B0
BB69E5E2
3B03558A
BABCBE62
BC0811B2
BB8893B8
BB5DF86E
BC12DDBE
BB5BCEC8
3B4D3177
3B3B0A2D
3C3F2F55
3C687D2C
BB2EFB2B
3C01E471
3BD9CF14
BB55C747
3AD4562E
BC5F8B15
BC0BFC22
BAFC5048
3A8B9778
3C5972CD
3C2743A6
BB40CE92
BC6C5B08
BC5373B0
3BBFDB4D
3BFB97BB
3B7CD680
BC483EC9
BC95F890
BC0A0D35
BB92E621
BB310343
3A8D2A20
3B97D8CF
BBB8F14E
BC1613D3
BC11E215
3C0A5482
3C41D6D0
3C3ACB43
3BA15981
BC42938E
BC621102
BC188095
BAE1B4BB
BB462E4D
3C7B0920
3BEFE500
3A4069E8
3AAAC96D
3B3E1EB4
BC2CDE1A
BB4E8102
38C73ABD
B8E496EE
3AAAA7DF
3B10E66D
3B5CA8E3
3B1F5169
3C1F8C22
BBC3B0C4
3C08B114
BB0ACE25
BB18C3B1
3B9478C8
BC1ED395
BC20C283
BA59D777
3A6D3D86
3C3FF045
3C140BBB
BA8ACE25
BC3738E7
BC0D4BAD
BB0EDE55
3A2D8A11
3C070DA6
BB116CA4
BC3B517A
BB343958
3AA63305

