3D989481
3CA4F228
BD6FA3FD
BDD29889
BDB8A43C
BD043C3A
3CAC300A
3DB9D5E5
3D758D15
3D272757
3C96DF40
BC1CD3E1
BD753A3F
BDBF8A8F
BD8F3ECD
3D261E0C
3DBEE3D6
3DBAE03B
3D915C64
BB0626F6
BD8E46D0
BDC79032
BD910F52
3C564D7F
3DA32874
3D81E1D2
BC164A5A
BCEC13BA
BCBA3012
BD087CA6
BC9F8A09
BC5490E6
3CAF6C6A
3D8D70E7
3D6597D5
3D21CAC1
3AF8A4C2
BD66F0D0
BD52B0A7
BD290FF9
BBC20D56
3CC662BB
3D1FADB0
3D28D866
3D830B9E
3D8DF612
3C159A31
BCD48ECE
BDF14F48
BDAC508B
BD7B4B30
3D66D267
BD860FE4
BDD5C422
BD5FE64F
BD2CB429
3D8727DD
3DAD5A5C
3DA45F5B
3D080410
BC351373
BD4D759F
BD6E1AC5
BD50C4DF
BD62A5E8
3CE3AE25
3D5FA00E
3DA9DAE0
3D97DAE8
3CC63498
BDB2513B
BDCCCEE6
BDC4167B
BCA222D5
3DB1843C
3D882C6F
3CACFB76
BB8E1501
BD59A1FD
BCF3E469
BCCFDD23
BB9FCF3E
3CFECDD1
3D34F723
3D44EE7C
3CDE2479
BCC0D90E
BD8A361A
BD5D8E86
BD58E970
BCC9A134
3C40EBEE
3D28F9F4
3D0AAB8A
3CD3111F
3D311516
BC0E4756
BC9C3CE2
BDA45996
BDFBA238
BD393BC1
3D8B5B2D
3DAD3954
3D82CBA7

