BC4A600B
BA8EBCC7
3BEA4229
3C577FAE
3C4814D7
3A541312
BBB2745C
BB0387DF
BBAE7D56
3A7FDA40
3B9D0E99
B9DCB9AA
BB2D14A1
3B87F456
3B1FB613
3B83D35F
3B4111AE
BB03A96D
BB76F08D
3B343958
3A50EDC4
BB928177
BBDBAD3A
BBF459DA
BB4B07D1
3C168512
3B0E4756
BB86594B
BC532C62
BC164E8B
3BE5FFA4
3C449774
3B9FF0CC
BB8EA39C
BC2237CE
BBFB1184
399E55C1
3C27B4E5
3BE2B8C7
3B8661AE
BAE86402
BB920C07
BB959E62
BB896DD2
BC068FD2
BB8EC52A
B965A35D
3B964628
3C2CC4F0
3C1DB22D
3B2B81F9
BC06876E
3BEA5B53
3C39C737
3C6175D1
3ABAC711
BC0B0D0F
BC248F97
BC1C5E70
B9755DE6
3B9CC31A
3A349E02
BADF9BDC
BA14A2BA
BA956C0D
3B5ED289
3BDA6613
BB052B4E
BBC77575
398FA7A8
B9ED80A1
3AB7A1C2
BB301861
BB448ADF
BB48CD64
3BD92FB2
3BB4D057
3B869C67
BC3D61F6
BBC88A48
BABED741
3BF8F8A5
3BFEE6FB
393ED741
BC2E70C1
BC03B1D1
BB600086
3C301861
3C0E92D5
3B8CD63D
BB3A40D9
BC281DC1
BBE88590
BB0A1598
38DC3372
39DDC619
3B08722A
3B92DDBE
3BE703B0
3C116441
3AC1FC8F
BBE685DB
BC5AF4AE
BC375211

