2E75
A2F8
AD90
2DCD
B12C
A4AB
AC33
A3ED
2E17
2FDC
B2D4
B029
2DE6
A8E9
ACA7
990B
AD44
2882
1C47
B105
ADF3
2CEA
2D7E
0896
AA3A
2429
31F2
2A24
AE3E
2112
2428
A884
2044
31A7
B113
2CD4
A0A1
3159
AC9F
2A0C
27A4
2D8F
B172
A8DC
2C8C
A43D
AEE4
1F14
2BB4
2FB8
B117
A646

