20F8
2ED8
A8A9
298C
AFE6
95CA
AD58
A091
B195
2499
2E3D
949B
2CEA
1DEE
2D59
2A44
AB95
9D68
AB2A
2C6C
2387
A100
3054
A85C
2574
A682
B0E7
3404
26DB
2833
2C61
AC68
23A5
2382
B057
2F54
AA70
B337
AFA6
A7E5
22D0
2C36
2B6D
AE12
2F61
28F8
AB18
A0E7
ADCD
309C
2EB5
B0C3

