2630
AC2B
9E08
2D67
AEF6
A533
26F0
28D4
321D
218F
A482
A645
2F59
2DE4
A606
30BA
A274
A1C9
AF93
2E15
2DC2
A88D
ACB7
2B72
1D4E
2AA2
B17A
AFF9
2A28
A758
2819
A999
A2DE
2AE5
2D72
33ED
AB61
A37C
30A1
A013
26CF
2C40
A4D4
B1FE
21DD
A611
9D36
A1E3
ABF9
B070
B3EC
AD0B

