295F
3074
2BAE
2708
94DD
AF86
AED7
A64A
ADD3
305A
303C
A13B
2BEF
AFB9
A430
AA26
2A5C
A856
A9C8
2710
2C55
A07A
A8AC
B459
20CA
ABE3
AF41
31F8
2D09
2D0B
9FD2
A925
A948
A552
AEC6
2A68
2B2B
AF2F
A93D
9897
26BA
217A
ADF2
2C31
2A43
2D6F
24CB
A115
B0CB
2DFB
308D
AA77

