A511
319B
3176
1D1B
A7ED
3416
1F95
AD91
ADC5
AC62
2A18
32D3
A3B1
A665
31CE
A31A
2BFA
B276
AA0B
2530
A60C
B12E
28C0
AF7A
9617
A539
3175
AC0A
2635
B4A6
B35F
9F76
25AF
2761
2B1F
A9E2
2E1E
ACFA
9A6C
30AF
A9E0
2CDD
2C36
A976
A823
AF70
2D16
AC27
31BA
B084
2A9B
AC74

