2D6B
3029
AC52
2C4D
A67C
2E63
ACF3
AF70
B063
2526
AF94
2C25
A634
32AC
A197
3110
2619
2C63
29E7
28D3
2C2B
2A1A
2C01
B04D
A4FD
AD58
ACB5
A841
317E
AE5B
2F52
2994
2DC6
259F
B08A
B034
2AB6
310C
A60D
ADFF
2852
A7A7
AD91
AFB7
21DD
AA1D
AC9C
2A38
2954
2E5B
30BF
2DCE

