A52F
ACA5
A83E
2C1C
AD6E
AC30
A897
2917
2E81
3129
24DC
2177
2E66
300F
29A6
330D
1E86
A82D
2080
2443
2BBE
2AD6
A8BA
2F69
A469
A15B
B417
25C8
A8D7
194C
28EC
A8D2
2EFF
A9D4
2418
32BA
93E8
2CA8
234A
305B
2E10
283D
B17A
B33E
A1C4
23E6
AEBC
AA4D
1BDE
A8F1
AD7B
B0A3

