AA87
ABC7
2CEA
AF2D
2F84
2FA1
2510
2378
3119
B00C
314D
3119
2B9B
AC6E
2708
AC12
2752
A962
AC61
2DFB
2F83
B119
28D9
2F5A
2EF8
27C8
A448
299D
2CEE
B09B
2A44
A849
A0CB
A88B
2CFD
2A13
028E
B008
AF0D
3145
AEB0
B00A
2BD0
30A6
24FA
ACA8
30C7
AD2F
2B3B
B26A
B1F1
9918

