AB2D
2F1D
AA34
A969
A95A
B0C6
2A60
2D0C
9F6A
2C4F
AFC8
A627
B164
B13F
2691
2A43
AECB
A832
AAA9
AA04
1C0F
2968
A965
AC45
2AD2
A603
327B
ACC5
AC21
2CB6
A5CC
26CD
AACD
2C11
215B
ACE8
2C1A
2CDB
2DD9
AFBE
A8B6
2584
A324
A4FB
A535
2189
AD26
A2DF
ACCF
2E23
2C30
306C

