28C0
30BE
2FD9
AED6
2CC5
3094
2531
A865
B192
B02A
224F
A3A7
AA65
29B9
A931
B298
A73E
AD97
A7F3
2409
1CDE
9A0F
240D
B075
2A2F
A813
31B3
283C
2D12
B0CB
A2C6
2DEE
A971
B03B
9FDA
A967
22FB
ACB9
A762
ACCA
AF26
ABF7
3108
340D
AB35
244B
2F33
2C4C
2C8D
2353
30F7
211C

