243B
AC3F
AC6C
B049
2DCF
AD6F
2A9F
9DF9
30C8
B019
ADD2
2B07
20C6
ABA2
2044
AB1B
2F8E
2C8F
2AB1
A9BC
AABF
2CED
A916
2C12
A8AA
A8F6
AE3C
A61A
24E5
2E78
961B
23E1
ACF8
2613
22B8
B085
25BF
2CBD
32C7
2CC4
AA9E
AF09
314A
AA85
2AF3
ADF3
2B12
AE0B
2CB3
A97A
B006
A46A

