A868
31C4
21F6
A589
AE60
29CA
246A
A6B0
2C58
A81E
AD0D
AEB9
2870
2BCC
B07C
B06D
AA58
A61D
A82F
AC3E
AE81
AC62
2FFE
B051
25DB
AB57
2F9B
A586
AC41
AD45
2E5B
A4C8
1E29
2CD6
AE66
2DE1
9D5A
31DD
A57F
308D
A568
A111
A865
31BA
A211
ADDD
A5ED
A8E0
AC20
2E99
AF39
A416

