2D99
3411
2F60
ABAB
2AD9
A075
2BC3
2FD1
283C
2857
2A24
2F8B
20ED
B119
9ED2
B14A
1FD6
B0E3
A75B
2C4B
2F72
AD15
A8F3
B345
9D65
A2CD
2584
B192
1C2F
A513
9992
A9E9
AC78
2762
2C82
2E96
280C
AC50
3088
A785
AD9C
B019
A82B
2E31
AE28
98DD
25FD
AD9A
AFF6
B122
ABC4
2AD6

