A83C
B1C0
A842
30BF
AC48
2DED
ACEC
B0E1
AAC6
ADB4
AC81
1E06
2452
30B9
2F3F
2532
2B08
2A94
AC48
A897
AAA6
2E27
310B
334E
AAAC
2D57
B1BD
30D9
2E0A
B182
ABD1
29A3
2E1A
224A
AD3A
26ED
26BD
A8C1
B16A
2C85
2C5F
2EEA
2C68
B050
2ADA
9D79
B0D8
A1EA
A819
A159
A41E
A5A1

