2D6E
A949
2DDD
AEAA
2F08
AB9D
951C
2578
30CA
ACC4
304A
166C
2C1F
B008
237D
B01F
2C7A
B11E
A9A0
205F
9F82
A61D
893E
2B0B
22CC
2542
A689
2D24
2891
A245
A7AC
28D4
A83C
2CFC
2E9F
2F6C
2EEA
AE91
AE5C
29D1
AC3B
A979
2FCB
3072
ACE5
AE63
2FD1
ACB5
3016
AEA5
B14C
AD7C

