28A5
AA82
2FDD
29C2
B185
2EC8
1847
A281
AF4D
28B0
2D69
2C70
1ECA
1EE3
3226
AEAF
AD07
ADAE
A024
28B6
218A
A67E
2E5D
2B0D
2D8D
292C
307F
B578
A349
ADEB
ADDE
B06E
28D9
280E
A6E3
18F9
29C7
AC8A
3465
3004
1A51
30F7
ACFC
3157
AD49
AB4E
9F3F
ACE6
A485
294A
2F60
AB04

