AC0C
330C
ABE6
ABEF
3179
AD66
AB09
A720
2B6C
AFC9
A47C
2E73
9850
B174
AC5B
30F4
A908
A18C
A2E0
28A1
2C8D
A9A9
ABB9
B464
2E89
A5BE
AE17
3567
A61D
2C7D
2F3A
AA05
AD27
1E19
2CC2
32AE
2CE6
2896
B409
AA21
2770
AC96
2C43
B320
A998
AA2B
268C
AAF0
2C6B
1BD6
AFCB
A532

