2BFA
B1BC
2580
1C85
AB64
2A0F
2B73
21F4
AD17
AA86
AE23
B243
ACA2
2FE5
2BF2
30F8
AD7C
2568
27DF
AC6E
AF72
AECD
28A9
323A
2B1D
A20B
3107
A827
AB04
AC46
AE37
A901
2970
2B79
3012
A394
245D
3198
A5CE
AE7A
A90D
2A06
A7B3
B31B
A52E
ACFC
ACB3
8AFB
9CF7
A929
ABD2
2B69

