AAF9
AF89
20DD
AD97
317C
B0EA
1D05
3080
310F
AE46
2A49
2714
2F69
AB0E
2ECB
AC35
24B1
2E49
AD2A
2BBD
2D26
A061
B1A2
2FEB
A71C
A705
B0FF
AD83
246D
2D8B
2817
A495
B0C5
1C14
2A1C
2BD5
206C
230B
A389
2D20
9E5E
ACB9
3019
2A46
AD07
AE37
2F9C
AB97
2A6A
ABF0
B04D
AFF2

