9DA2
3052
A405
AD08
A769
2DA1
2A25
AFBF
2AA2
AC68
AE68
A4F5
2B63
2DD1
AE1F
B2DE
1E9A
9FAE
AA24
A851
AEE3
2932
2CFB
B10B
279A
A425
3151
A9D4
A270
AF1F
2DEA
AACA
2744
A091
A96C
192D
AE6C
2D39
2A7A
2AB1
A632
AC33
2AF3
3327
A7B6
A524
A989
A556
2131
1AAB
A8C8
9FE5

