24D7
AEAC
2FB2
AD70
9FB5
32A1
2DB0
AC11
2D87
26F1
2DFB
2939
A6C1
3071
AD0D
AD52
A256
AE14
A346
2CBE
2542
A5DD
2AA0
2C2B
2732
2C9B
30F2
2F49
A252
B2A5
231A
AC80
2A33
9FFC
2A97
2C1B
9929
B02C
AF84
9EEA
AC20
218B
A637
307C
AD90
ADE7
2EBE
AA5A
AC1B
B1D2
AD82
2AFB

