2C69
2A48
233C
AEB0
30CA
B282
140F
A945
306F
A9D7
1CF2
B070
ACCE
B0AE
B1FB
2E08
278F
2E9E
AABB
2A6C
0AAF
29A5
A879
A374
2BD8
2906
B04E
357E
2592
32B9
317A
2A7A
AF2D
A93A
2BD9
32B0
A8C8
2B5C
B532
B08E
24F1
AFE1
2FCA
ACE4
A8EE
A983
2D28
17BB
AABF
A708
B047
2A75

