AC4D
343C
3211
A065
2C52
31BE
2516
2735
A8DB
AC42
AA9D
3298
2AA5
AA9B
3198
2F83
1B3D
B1F6
B031
A0C1
30FC
AF8F
A993
B0C6
2B2F
2BA3
AB61
A08F
889F
AF38
AF1D
AE04
AC75
A636
AADC
2A0B
AC4B
27DC
AC86
2D1F
A83B
A85B
2D3E
AE1B
AB51
B02F
2134
27D1
2DFE
AD3B
2C02
B0B9

