B41F
219C
B6D5
B966
9A3F
B5AE
A483
29BB
A1E0
A173
2C22
3A81
2477
3863
1EEB
AAE0
A6B2
B7B9
AF82
B424
B523
B6E0
A9D3
A18D
B30B
AC8E
2F47
A01C
B4C2
34E2
9ECF
A53B
98F0
B51E
A81F
374D
B2B0
AC1F
1FBF
26B3
B414
1E01
218D
2B22
B18A
2812
B958
B6D2
A814
288A
21B5
A5E9

