1DA6
3265
2D77
AC74
2CF0
31B6
A848
AA71
AD09
1D01
ABAD
2FE9
A137
3017
18D1
2C5F
29C8
A9FF
29D6
29F4
99E4
A718
2519
B1DF
A4E9
245E
B0A8
25F0
2D7C
ACEE
A83A
286A
26A0
AF12
2AF8
AC94
ACB0
3118
A997
AF39
1DAA
ACBB
ABEA
ADFE
25E5
A80E
2842
A61F
213C
2D48
2F58
2E07

