A6DD
298A
2B5B
28AE
22F0
9E62
A066
A290
A969
AB2D
A624
2964
2E66
2F2D
2993
AA8E
B025
AFD3
A8EB
2A56
3019
3007
2B72
A59B
AE01
AFBD
A059
2CF8
303E
2FA0
279A
AC23
B058
AFE4
A88A
2CE0
308F
3034
29DF
AC66
B0A6
B072
A9CE
2C58
310A
3070
28E9
AD98
B116
AF32
2148
2F2F
2C62
2BAC
2373
A861
A81E
A636
A530
A5F5
A152
2634
2C80
2DF1
2898
AA08
AFC9
AF93
AA4A
2C52
301B
2FE7
2A20
A9B5
AEF1
B025
AC70
2242
304F
2E6E
2420
AD01
B073
AFAA
A564
2C79
3096
3018
291F
ACE1
B0C1
B07D
AA53
2C0A
30B2
308F
29EA
AD0B
B169
B062
A5E8
2EF3
30C6
2CAA

