A8B9
284F
2048
2421
9D38
21CC
2929
2A69
18F1
9D87
A945
AAD3
A81B
A2BC
29A2
2630
20E9
1D3E
A87C
2978
28BB
181F
AC99
AC6E
A826
1F2C
2D2E
29DC
206B
A5F1
AA21
A8CF
AB50
A1FB
A429
267C
297A
2807
9B6B
A622
A8C0
25FF
26F2
2800
1B6D
A1C1
A70F
AA87
A54C
2728
2B07
2D3B
2335
2C28
2454
A58A
9F9D
9127
2640
976C
A937
ACA4
AAA5
A586
2C64
2A2E
2854
A13E
A463
A3C0
2775
220C
A313
A9CE
9B83
24C0
2C05
2D18
2174
A3FE
AC28
A57C
A813
156A
228E
286D
240C
26AE
0AC0
A246
A582
A420
2495
237F
1B5C
A91E
AB60
A6A8
1B3C
25AD
2BD3
2A58
24B4
AAB3

