A093
A48B
A2AA
944D
21CB
20EB
14A1
9CAC
9E81
95D8
1F19
2067
1C0E
0AE2
9E23
1C70
2438
1212
1CE4
A174
A0FD
1B26
2465
1FB3
11E8
A02F
1175
1D43
2013
1512
9F9B
99C3
11D7
17E8
193F
8DC0
1298
19FE
1C0D
9A2E
9B72
A07C
9558
18AB
1ED1
1B14
0CFF
1181
9E47
9C7A
903A
1C5F
A467
0CB8
20C5
23D1
210C
1600
A137
9DAA
1BF3
2183
1F69
1934
A0F1
8A6C
2181
1DCB
118C
9D3D
A3A6
9D58
208A
2090
1B99
9E67
A369
9626
20CD
1D24
9D56
A0F0
9943
97FB
2105
1795
1C05
9543
1902
9620
9816
9C8C
9E64
1744
1CA4
205B
1A6B
9455
A11E
9DD8
9A38
1E77
2009
93D5

