2A4F
27E9
A227
1FE2
2899
2616
A64A
AC0E
AC10
A4ED
2C5F
2FBE
2CA7
270D
AC06
AC82
A665
258C
24DD
AB1E
A817
26F5
2E4C
30CA
2C6A
AA91
B06C
ACC5
29EB
305B
2E32
2DBF
2595
A9CB
ACF7
AE5C
AC79
2057
2D90
2FDC
2DC5
A1FE
ADAA
B073
ABF6
1A9E
2EFC
2F74
2B35
A45A
AB40
AE26
1D6E
9FCD
A39E
A442
9E23
A82F
A92E
A507
2999
2EC4
2DB8
254B
ACA4
AE61
AB93
2690
27F3
2489
A5A6
A0DE
2B8E
2DE8
2BA1
A9FC
AEB1
B00B
2C84
3015
301B
2C68
A795
AD41
AC40
ADBA
A7F7
21EC
2CF1
2E73
2DA9
1867
AEAD
B056
AD9F
9AD9
2DF0
2F91
2882
A55C
ADFB
ADEB
AA2B
2077

