ABCA
A97B
2417
2B3C
2C1E
17E3
A5B5
A849
1D04
28D7
2749
A46D
AB34
A851
24A7
2B64
2A4B
2485
A419
A6D8
11A3
246A
20E1
A4FE
A6D5
9C3A
2ADD
2866
9E49
A723
A84B
8F96
1CE1
A057
A518
8C92
266F
29A6
27A6
A0D3
A959
A95F
8CE6
260A
21A9
9C9A
A2C2
2264
256C
27D1
16B8
A6B9
A13D
2BF2
2C98
267D
A6CC
AAFE
A82E
25E0
2873
1DCF
A854
A9C0
9DB6
2A2B
2C35
26BF
A6AB
AAEE
A7EC
214D
23D2
226D
A109
A34A
23BA
29F9
1DD6
A705
A96B
A66D
2254
2094
20D7
9594
20D8
263E
261C
9CB6
A6FE
AA47
A526
25D3
2746
24D8
A183
9D98
9A54
24BC
2260
A691
A7C0
A906

