B3BC
AF6C
2CA4
31CE
2DD9
AB52
B00E
AA2A
2B52
2E93
28F4
A978
AC7C
A1E8
2AF3
2AE5
2202
AB44
AA9D
1C78
27B6
2827
A472
A803
A04B
2961
2413
ACA9
ADDA
AB04
21A9
2C84
2B10
263B
2390
A09E
9EE7
A701
AC3A
A98F
210A
2A1D
2A80
A20B
A5A6
9A82
2D09
2CE4
A854
B1D1
B231
A8F0
A03C
3158
31B3
2452
B00B
AFAB
19D5
2E99
2D89
1D88
AD9B
AC75
21F2
2CA1
29DE
A698
AC4D
A889
26A0
28CF
23F2
A94F
A898
249C
2B5A
2926
AD5E
AC16
1B95
2D3F
2D15
26CC
A27B
A72B
A64F
A68F
A7F7
A479
9F56
2AD8
2B28
26FA
A77C
A84F
1988
2B09
1049
AE36
B0D0
AC48
2EA6
341F

