9B0F
2812
209A
A892
996F
24E1
2E29
2B48
A841
AC6C
AA7A
226B
2DEC
2C47
26BF
AC07
ACD1
0968
2C7B
2D42
1CAA
AB63
ACF9
A977
2A50
2D6C
9AD8
AA60
ABD9
A979
1B2B
290F
269F
2744
2A0C
2798
A884
AC07
AD94
A75D
2880
2D2D
2D22
2527
AB4C
AD1E
AAF4
A22F
253F
23F0
284E
2769
A4C3
A54C
A3D8
23D0
2817
29E2
A4B4
AAB2
AC5A
A740
27F6
2D8A
296E
A8C7
AC42
AB3C
2310
2CC3
2BC3
A85D
ADEA
A9D8
2718
2D58
2CCB
1BF3
AAE8
A494
0E9A
2809
2933
2442
285E
2045
A700
A8C8
AC5E
A104
27BA
2D1B
2DCC
24C9
ABC9
AC8D
AB64
9F81
2303
2A27
28CD
2349
232C
AACD

