30C9
2EF2
9A9E
ADBA
B04F
AE21
1F91
2D99
2FB9
2DA1
221F
A982
AC7F
A965
A242
9FC6
272F
2831
271E
260C
A02B
A2CF
A74C
A5FC
9D45
2944
2877
AB7C
AE9A
AD05
9D70
2F02
2F31
280E
AAA2
AEF7
AA33
29A2
2A71
2105
AC14
AD6D
208F
2DF7
2FD2
25C6
ACCD
B067
ADAC
21D7
2F9B
2E47
1EBC
AE7B
B0E8
AE8E
A037
2E78
3076
2E47
8E60
AB1B
AE5A
AD2F
A355
2782
2B63
29FE
24F4
A260
A06E
A83C
A619
A6FB
A0B8
29A5
2C43
29AD
ACE0
AC88
9FC2
2DB3
2F6C
2A5E
A8C9
AE7A
AD62
9CE1
2C30
2D06
82E2
AA29
A9AA
2A8D
2E15
2B80
AA85
AFCC
B02A
A190
2EDA
3000
2BB5
A902

