2497
23B1
19D0
9FB6
A1BF
9E1A
17DC
1EA3
1B60
9C05
9814
9A0D
123A
2021
9BE7
A00D
A078
9619
1EC7
2386
222D
1942
9AB0
9915
1D6A
2015
A016
A393
A054
1CEC
1D98
1FFE
1079
9ABA
1482
0FE6
1DD5
9F7B
A245
9C80
99C7
9268
2166
178E
1C1D
94BF
9CBD
9CB9
9FF9
9B2B
8EAF
20E4
1A3B
A174
A327
A1D1
1630
2016
20EB
19A0
9EBF
9DD9
1296
1DAE
9BD0
999A
A344
99E5
1FA3
2079
20D4
966F
9F14
A176
0C14
15BA
1C72
933E
9CD6
1549
20A8
2352
1DA2
92D1
937B
9A79
10B0
9EB9
98C6
A138
9C8C
1B6C
212C
1DED
1971
9088
9E31
9D5C
9D9E
0B4F
9C83
1E90
2119
16A4

