BDCCA03C
BDA9F40A
BDD090F7
BE1CBE62
3D361459
BDDF91E6
3D13D534
3D1C1509
3E0AD0C4
BDAAB042
3DBE132B
3D30F5A1
BDCBD33D
BDB3226C
BDC80B67
BD9A2CED
3D8BDA94
3E2A2058
3DA51EB8
BD03F5F9
BD8D8F50
3D68DFBD
BD6C7EAE
3D94D270
BD8C4BD3
BD982BA6
3CFEF9DB
3DB14339
3C60C176
3E47B80B
3D97F0ED
3DA85EC4
BDFB8AA0
BD4B1DD6
BCA03C4B
BE09BDC7
3D059642
BE137DA6
BE3A4B55
BDE69729
3D2937D2
BE29E3C9
3D05F17C
3DA87A8D
BB99A62F
BD0E7254
3E17B2CC
3CD35654
BCA7D242
BD823C00
BE1D8772
3D5D0D8D

