3CC5FBF8
BD855A7D
BBC100E7
3DACDA6E
BDDECE57
BCA65ADE
3CDE02EB
3D1A8DEB
3E43AEAB
3C31E5C1
BC90470B
BCC89F41
3DEB1CC9
3DBC7B46
BCC0B34E
3E174363
BC4E7CD0
BC39170D
BDF25919
3DC290EF
3DB847F5
BD11A006
BD96E8B0
3D6E4F33
3BA9BCFD
3D544135
BE2F46AA
BDFF25E5
3D45015C
BCEAF683
3D031DF7
BD3329C3
BC5BB59E
3D5CAF2D
3DAE46D0
3E7D96EA
BD6C269A
BC6F73C1
3E1410F9
BC025E14
3CD9E625
3D87F5E8
BC9A8694
BE3FB58D
3C3B98C8
BCC22899
BBA6CA04
BC3C5155
BD7F290B
BE0E0E73
BE7D8F93
BDA15F46

