BD579AF2
3E125397
3D28101F
BDD10236
3DF3061C
3E045C79
3DFB1A6D
3D9FC86D
3C816ACF
3C3341E1
BD13CFF6
3DBAF8DF
BC0BC9CD
BCA9930C
BAD02470
BE0E0935
BCCA2553
BDBE414E
BD0053E3
BC4F1C32
3C9984A1
BD9C768E
BDFFD827
BDE5082D
3D24EDF6
3D23C750
3E1985F0
BE1AEC4A
3B66E222
BD7F4342
3CD93C47
3CF720C9
BD89BF16
BCD05F29
3E22E7B4
3DD121AB
BC9EABBD
3CA0125A
3E187E7C
3CB3D07D
BDA47347
BCCBEE80
BE35681F
3DB56755
BDB206C8
3D4D79D1
3E08B589
3C9DE482
3CEF5665
BDB7D1FE
BDBEA572
3C97CC3A

