3D00D802
BCEC050C
BD5FA227
BC94FACE
3C9F4D38
3C704578
BD356B87
BD18B828
BC398C7E
3D3ABFBA
3D8134CE
3C5F4C2B
BD0C64FE
BD4BBC2C
3C09CE4A
3D8F5B1D
3D2F33CA
BD2109D0
BDBF2D3C
BDA086BE
3CB649D4
3DBF7CEE
3D8BD3C3
BC2F4ADC
BD9DC832
BD8C1FC9
3D5E7536
3D4944ED
BC59CAE2
BD6F5FD4
BCD5AE1D
3CA37479
3D49203A
3D068987
BAA91538
BC94FCE7
BB91D9B2
3CDD0FA6
3CA51E32
BCBA5A04
BD5220FF
BCA72863
3CC64BA9
3D430C24
3D0D91EF
BD1D3133
BD7AEEE9
BC982ECB
3D9933E3
3DB1B8AA
3BEFED63
BDF94E1A
BDC47E4A
BDB4573A
3A913A50
3D1EE45C
3C3FCEB8
BCE748E4
BCEA3BDE
3C52391D
3D879896
3D17F951
BCD50225
BD2AAD1D
BD1552E3
3CBECEDD
3D312A0F
3C0CAC4B
BD88D3AE
BD5BB279
BC4B0C02
3D889225
3DC01CD6
3CD60419
BD816F00
BDDD156A
BD27DAA5
3D11C7DE
3D16D6DC
BD4D22C9
BD9620EF
BCA85CAB
3CFE5C92
3D83DEE8
3CF56C94
BD0E5B42
BD03AD9F
3C73D3A2
3CDEF1FE
3B13964A
BD5E108C
BD44CBE2
3B81C2E3
3D035372
3D5FF2E5
3BA83B1D
BD28C9B8
BD6493C9
3C3BADC1
3D912A95
3D0D3E0C
BD0EC311
BDFB3398
BDB37B07

