BD817CA2
BD1BDE83
BCFAA045
3CBE9857
3DC490A3
3DA5058E
3D75B4EE
3C15BBBF
BD9F687B
BDB94A6F
BDBB267C
BC175297
3D5802C1
3E01D68C
3DEBBA99
3D83632C
BCF75FB3
BDABC9CD
BDECCEE6
BD652264
BB9ACBC9
3D6D794A
3DEE3E6C
3D7F8983
3D10752E
3951B717
BD5F7729
BD981E04
BD5AEE63
BD3444E1
3D13415B
3DD43AEB
3DE8900C
3DB52221
3C630878
BD9C0336
BDBD4739
BD6A9F7B
BD02E44B
3D424F66
3D8B0A70
3D79E59F
3D3E6D59
3C5CC20D
BD06C871
BD99F87F
BDBFD8AE
BCFAA68F
3CA25FA6
3D8F1ED1
3DD16F44
3DA69F8C
3B65F740
3D4A6762
3D893FAF
3D9E3D1D
3C7BCA10
BD4E5C4F
BDC2FCF0
BDCE39B4
BD89C993
3C2B4741
3DCC7B89
3DD265AE
3DE900C5
3D903C08
BD6F9A8D
BDE6DBD7
BDFDF224
BD14024B
3D580C31
3DD0AEDA
3DC9118C
3DD2BFDB
3CB7585C
BD00F239
BDD2BCB6
BD5EACC9
BD6D2136
BA562BF1
3D1A2510
3D9C8C93
3DEC154D
3CCB1AB1
BD30B5AA
BD9BF7AD
BDCE86C6
BD8F483D
BC04E400
3D0B8173
3DB28848
3D7531DB
3C71E083
BD15DA27
BD4B0C02
BD292F6F
BD319A41
BC86961C
BC453B08
3D7126E9
3DA919F0
3D54CB9F
BBB37004
BD5E3DA3

